010D2
01DCE
0300C
1F9FC
1E3AB
040D0
01078
030B4
1E7AA
022E4
1C9D6
197A3
03F8E
1F234
1C5C7
1C50E
10400
1E1E7
1C43A
1DA55
1E699
1E8FC
03D7E
1B70C
03657
1B6EA
032C5
08B35
1D3E2
1F8D8
1EB05
1E82E
0242F
1EA71
0FC01
10400
024ED
00EFD
04F9B
1F394
013FF
1CE5B
1E033
01E8D
1EBB3
1F05F
012A2
1EACF
1FD45
1F011
0309F
1E802
00754
06D69
1D12B
01B6E
1E68F
0FC01
1F9F1
02620
1EBD6
03ABE
1D5E3
06DAB

