00F47
01D18
02C0D
1F8EC
1DE27
03DFC
00FB2
02C8D
1E6C0
02209
1C453
1905C
036DD
1F131
1C30F
1B974
10400
1E059
1C03D
1D92A
1E5C1
1E7CA
0358A
1B54F
033C3
1B303
031AA
086D9
1D109
1F706
1E8BD
1E5CC
02297
1E97C
0F0C6
10400
0211D
00CF0
04D41
1F208
0136C
1CAFB
1DD0F
01D4D
1E9F0
1EF62
010B8
1E9C0
1FBD9
1EE1C
02EE7
1E6AD
005D7
06048
1CF96
01A06
1E50B
0FC01
1F896
024BC
1EA25
03967
1D426
0625B

