FE54
18E8
30EA
063C
F6D7
00BC
FC96
FAA0
FDE9
02CB
FCBB
F9BB
05DC
FCDA
FF5F
01C5
0158
FEAB
019B
0444
027D
F72C
FCF9
FC0C
027A
035D
0296
F922
015E
CB80
F9D6
03C6
FD24
FF91
EFC4
FE1A
00AA
EB63
0207
0048
1201
EF92
0033
FD4C
1616
0517
FE3B
045A
FFD2
A6AE
F9AA
ED27
D9B4
FD42
08A6
0045
0760
F9AB
017B
FA09
FF72
F6A4
0195
00B0
02F2
021F
0330
0609
FD23
0176
04C3
119F
008C
F8E4
00D2
FE7D
EB5F
008C
FE51
F968
0584
FCED
0421
0237
FF55
02C5
F736
0360
065B
FFCD
0176
0097
FF64
0065
EAE7
FC68
FE89
FE6E
FDD6
F847
FFDD
F56A
012E
079B
0061
FF8E
04DC
0273
04BB
05A7
E3C4
0076
DCB6
0287
0258
04FA
F42C
3CE1
FF7F
FC7D
FF7E
01A9
F8DF
FC6E
7001
0B09
1647
FF70

