FBE6
EDDE
FF4F
FCDD
FB92
0870
FB01
FB7E
0C08
FA58
09BC
FA29
0223
A9C2
0102
FAA7
01E7
FC5B
F9CE
0289
7001
C472
FCA1
F9E3
0273
FDCA
ED71
0AEA
FF9C
FDD0
FB33
FD37
00C5
FB4F
F564
0411
DDD5
0070
003F
F4F7
0631
FBC9
F6BF
F7C0
F59F
00A1
0A69
0548
F39C
00C2
07CC
FF39
1255
FC8C
FCF8
FBFF
FC3E
07C3
FE15
07BE
0052
0279
06B0
FBE8
FEB9
0064
FB08
FE0B
03ED
02D4
F301
F655
FD52
FC36
F40A
CE1A
F66F
0C00
FB3B
FD0F
FB5C
FF8B
FEC8
FCAF
FE8D
0077
01A5
0088
022F
0160
0155
0524
FA10
15A8
16B9
0669
162E
080A
FF4D
004E
5937
FA26
0087
F292
FE14
FD87
FBE0
FBA6
027B
02D2
F7E2
FDED
FD81
FCB8
FC24
021B
065E
025A
7001
FD10
E91E
050E
FE37
FB44
FE60
F988
FC13
09EA

