EA92
FE28
FFA9
FBA9
FB9F
FE18
FC5E
042F
03B2
1833
0D39
E033
FF67
FBC3
FDBA
042A
FC54
0513
0413
FEFC
CDB1
0049
ED97
1339
F7B1
04DE
00EF
0161
F71D
F11D
FE5A
FCC8
FEDF
016F
01D8
024C
FFE2
F89A
1925
06A1
F86A
03F5
02CC
03BC
0359
0003
F3D9
04B6
1F03
012A
05ED
FE7B
FB0A
FF80
0480
04B0
FF2F
FDB7
F99D
FFC7
0434
F725
035A
12B8
EEF6
FFEF
FC82
04F5
FDD7
022E
FEA6
F58A
035B
E9D3
F8C7
FBDF
0105
FDC5
FD10
FFF4
FF43
0194
FF7D
BC94
FFC6
04CB
111B
FD6B
036A
FE67
FB30
EE6A
FF1B
FF3D
FEB5
0288
FD51
0025
FFA7
FDDD
FD1B
00F5
01C9
F7BE
FF11
027C
FDB5
01EE
FA8A
0118
FF0C
00D4
FF6D
0EAE
A1C9
F89A
0D91
F432
00B7
FC43
FE36
0B1F
FD7B
FF7F
F89A
19D3
009D
04CA

