00D9
FE6F
F9A0
F8A6
0376
FF73
0773
0023
FF70
FAB7
FCA6
FB99
0085
007D
0048
C9E4
FEDA
FEE9
0AA1
FD24
F7B3
0476
FC1E
C5A2
07B4
01E2
FC91
0A6F
0066
0273
7001
0339
FC07
027F
FEF5
07DE
0404
F7BA
EDED
7001
04C2
FE90
0DBA
0468
0327
03CF
08EC
0A48
007D
040D
FF9C
FF4D
0078
F5FD
02F5
051A
FDC4
FABF
F72D
FC90
025D
0955
03FA
02D8
07D2
FA5C
0F14
00F0
FD8F
0239
095F
027E
0303
FDF0
FA5F
08BB
0358
060B
08A8
FF66
02D7
0DCD
027A
0137
0009
FB6D
0014
03A2
04B0
ECAC
1041
0394
0070
075F
033E
1837
F0E3
F20A
FDF1
FD34
266F
FA95
FFF1
FACE
FD9B
04D0
06DC
FDBC
0043
FDC0
05E5
0632
FE53
0CDB
FF89
0000
0129
0078
0030
0037
FA4D
FE7D
031C
038B
47E6
00C7
03C7
FDE8

