FC32
F11B
FF8F
FD36
FBCB
08B1
FB46
FBC4
0F0F
FABC
0A12
FA83
0285
B578
0151
FB10
024C
FCBC
FA1D
02FC
7001
CD12
FCED
FA52
02BB
FE12
EE5B
0D00
FFF3
FE0E
FB80
FD82
0113
FB94
F5C4
0465
E1FD
00B8
00C1
F68E
06A6
FC13
F718
F81F
F5FC
00E5
0B2E
0592
F5A7
012B
080C
FF8D
134A
FCCB
FD7D
FC3B
FCCB
0813
FE5D
089C
009F
02BD
0720
FC44
FF09
00ED
FB6D
FE6E
0442
032F
F4EC
F6B9
FD96
FC8D
F548
D5C0
F6B8
0D3E
FB8C
FD8F
FBB5
FFED
FF29
FD16
FEDE
00B4
0225
00BE
02B5
01CA
01D8
0861
FAD8
16E0
189C
06AE
1C26
0868
FF83
00AA
6A02
FA9D
00D5
F306
FE83
FDE0
FC59
FC0F
02F0
0321
F850
FE2E
FDB4
FD65
FC8D
028E
06C2
02CD
7001
FD6A
EAF7
0569
FE6B
FB86
FEC9
F9E7
FC80
0A45

