00E6
FE7D
F9AA
F8B7
0382
FF87
0786
0036
FF82
FAC3
FCB9
FBA8
0095
008A
0059
CAFE
FEE6
FEF5
0AC2
FD36
F7C0
0485
FC2D
C69A
07C6
01EE
FC9F
0AC0
0077
0280
7001
034D
FC12
028F
FF09
07EB
0418
F7CA
EE32
7001
04D1
FE9F
0E18
047A
0335
03E5
08FA
0A56
008A
041D
FFAB
FF5D
0088
F609
0304
052B
FDE5
FACF
F756
FCA3
0269
0962
040C
02E5
07E3
FAB5
0F61
00FC
FD9F
024B
096C
0296
0311
FDFF
FA7A
08C8
0378
0660
08B3
FF7E
02ED
0E07
028B
014F
0017
FB7F
0020
03B1
04BB
ED44
107E
03A7
007C
076E
034D
188B
F10E
F26C
FE02
FD40
2747
FA9F
FFF9
FADC
FDA9
04DE
06EB
FDCE
0053
FDD2
05F5
0644
FE5E
0D09
FFA0
001A
0137
0087
003B
0047
FA5C
FE99
032D
0398
4AE4
00D2
03D9
FDF3

