008A
FE1F
F967
F841
032E
FEFD
06FF
FFAE
FF03
FA6E
FC30
FB3C
0027
0035
FFE2
C349
FE93
FEA2
09DA
FCB6
F765
041E
FBC4
BFD8
0743
019C
FC3A
0887
0003
0224
7001
02C4
FBC1
021E
FE7D
078D
038C
F75B
EC51
7001
0465
FE3A
0B87
03FA
02D6
034D
0897
09F3
002E
03AC
FF48
FEEF
001B
F5B3
029A
04B6
FD01
FA62
F63A
FC18
020F
090B
038C
028B
0769
F847
0D43
00AD
FD30
01CB
0914
01EB
02B1
FD93
F9C2
086B
029B
040A
0865
FED9
0256
0C6F
0214
00A3
FFB6
FB01
FFD0
0349
046E
E921
0ED3
031D
002B
0702
02E2
163F
EFE1
EFBC
FD8C
FCEB
215F
FA5A
FFC2
FA7D
FD45
0478
067E
FD52
FFE4
FD50
0584
05C3
FE0D
0BC9
FF05
FF65
00D6
001E
FFEC
FFD5
F9F1
FDD6
02B8
0339
35F2
0083
035D
FDA1

