0AC7
0245
FA6E
FEF7
05B8
F814
0468
FF58
FD60
02C0
F7FB
FD68
FBAC
08A7
FE86
1068
FAA7
0672
00A6
FF95
0177
0689
0192
025C
02F2
04A5
0A1A
F9C3
FC11
FACF
00C8
0723
F6C9
FF74
F94F
005A
F577
0128
03CA
0EA7
00ED
0951
FFD2
10AC
0D0A
0B73
4DFA
039E
FBE8
D890
09E8
FF5A
066E
CCE4
FB9A
FD38
E666
0220
F7D3
0554
07F7
01B8
04D8
FE4F
00ED
FF80
F95D
0EBE
FD2E
31F2
FCFC
03F4
0EC6
F95D
03B7
FF3A
FCEB
0A4A
05AA
0A82
00A2
FBC8
FFC3
FD71
024E
F89D
006F
FDF5
050A
FDA7
FEAA
FA4A
0AB6
E197
FB24
F627
066E
0047
078D
F9C3
FC39
047D
003C
042D
FE2C
008A
05DC
9700
FACA
FDEB
FBF1
0176
F3BF
FB1F
FEA0
FD48
00BE
FD08
0191
F56D
00A1
FCCE
FE21
05CE
F8FF
FB90
FC96
FD43
0383
032B
070C
5306
FCFF
00F7
FC85
FAB2
0531
0327
01DD
0655
0422
FFAB
0C5E
1427
00FF
0CB4
01A5
FA5A
095F
083E
03DE
FD2B
134A
FF48
FBD2
0760
FCD5
00AB
F81F
00A5
FC30
FEB4
FB3C
FD6F
FDE1
0061
09F4
0510
FAC2
0333
ADB7
039D
0CB7
FF75
01DF
FE80
FE05
02C4
F4DF
04F7
0482
0278
FE8D
094C
021D
00A3
FEF9
FCFF
FD11
FFFB
06CC
FCDC
FD91
FBA9
FB7D
0D74
05EB
FC36
EBB0
F81D
0555
F55B
F626
094B
FE67
F8F5
0204
048E
FF42
01E6
FE80
FDAA
FC36
0529
C0C6
F2BA
01F0
F73B
F4E4
0EE4
FAD6
04E0
037A
0644
0051
01FA
F7D3
058C
FEC0
063E
FF1E
FF28
FD2F
FAD0
0110
F809
FEAD
1425
02B6
00B7
F8C1
FA80
03BE
FBF6
0225
FDBD
FFDD
0086
01F0
04B6
FA51
0588
00CD
FC9D
027A
045C
FA2B
0FC4
0460
0788
F520
0443
065B
0051
01FB
0182
67F0
FBC4
02DD
0B7F
019A
FDDE
17D0
1DBF
05DC
FFA6
FF93
04D5
FC03
FB71
FD12
FEAA
FCC7
08B2
FFC3
F6B6
0173
018B
0601
EE8A
F715
0A22
F1F3
FA90
00DF
FA4E
058F
02A4
ADD6
0862
02F9
04FC
0014
07BF
FEA1
FBEB
FCB0
0277
0BD6
1B49
0017
0307
0301
F121
F777
F7B2
F858
FEA5
01C3
FD3B
F7E4
F974
03E5
FBCE
F70A
FF14
084A
05E0
0665
06AD
00D3
0270
FB49
0138
0123
013E
FD97
EF12
9700
0062
FC07
FC11
0D72
FDA1
0870
0479
00F6
FD06
02E6
0412
0067
FD1D
FC8D
0249
FD40
FD09
1E13
0E7B
280F
FED0
FFEB
FE08
FFC8
F732
013E
0180
FC31
0E5F
F1F3
F7F3
FF84
F7CF
FD3A
0378
FCCD
FE45
F4AE
0876
0218
1799
02AB
071F
FFDF
0F35
F9FC
FECE
FF54
FD0F
0750
F915
0A26
FCC6
FD55
FA66
0133
00AC
0DB6
FD05
FE6F
1100
FEA3
0390
0458
0A1B
0DCB
0420
0004
032E
06C2
0359
FAF2
FC61
01F4
F7DA
FC76
F58D
FD78
FDDA
004A
02F2
01F7
FD0D
046C
039C
03D2
FF8B
E8A2
026D
FE43
054D
0180
00C3
00A7
FEE7
030E
01BE
0BC4
F4E4
0AEB
0197
0049
FD03
0156
005E
0DDC
FC41
F008
0C2D
FDD2
FE25
03F8
025A
04F3
FCB1
FFA5
0017
FDAC
FE5D
F8C6
03EA
F98E
F8CF
0428
0640
11E4
F76B
FFB9
FFEB
6901
0161
0103
0C2D
01E8
FC0B
FBED
0413
FB8D
01A2
014D
F705
F8F0
FBE1
009A
FBC6
FE40
FE1B
F62A
0585
0963
FB9E
19E0
0384
FFE9
FF43
FB06
0153
007D
0D06
FF9A
0386
03D2
FC14
078B
FB5E
FD87
FE81
0C11
0157
0F68
025A
056E
00DF

