00F92
002BF
017F3
011C3
0003F
3F1FD
3E48F
3D25C
3FD29
3E235
000ED
3FF8D
3C7D3
3FF34
0064D
02CBB
3E2E0
3F610
3F727
01C00
00134
3D005
0193F
3F0E3
01AC5
3F90D
00AC8
00181
3CE38
020B8
02999
015B6
3FDF5
3FA49
383DA
3E70D
3F6AE
0157D
00D7E
10D2C
004AF
3FB8C
005FF
0062C
00219
3FB65
0078B
002AB
3F6B1
00061
3F5DB
01016
0087F
3ED4D
02D94
3E7D4
3FA5F
3F450
02190
00527
005D3
014D7
3BF57
00A09

