00C40
0009A
01409
00E2D
3FE18
3EEB2
3E1A9
3371D
3FA40
3C17B
3FD49
3FD72
3C14C
3FC90
00489
0084D
3D738
3F3FB
3F4FB
0162C
3FF60
3C52D
00D2A
3EF46
0187A
3F6C8
007BF
3FDAE
3B9BA
01A0C
0253D
011B7
3FC68
3F6C9
2F562
3E532
3F557
00E16
00B1F
059B7
0012F
3F976
0040D
0044B
000CE
3F882
0026C
00108
3F3DB
3FC8B
3F36D
00BD8
00473
3E877
01BCB
3D7B9
3F620
3F228
01B53
002D7
001EB
01281
332C1
00790

