00F04
00264
0174C
0112A
1FFE3
1F170
1E414
1B87C
1FCAD
1DCC0
00052
1FF33
1C6BD
1FEC4
00602
026A8
1E0EF
1F5B7
1F6CB
01B07
000E6
1CE37
0173B
1F09E
01A63
1F8AD
00A47
000DE
1CACE
01F9B
028DF
0150C
1FDB3
1F9B4
16C1C
1E6BD
1F675
01441
00D19
0EF44
0041A
1FB33
005AC
005DC
001E2
1FAEA
006B0
00265
1F638
1FFBD
1F573
00F61
007D3
1EC7F
02A9D
1E525
1F9A9
1F3F4
02085
004C4
0052C
01474
1A7E9
009A0

