03A8B
1EFE3
1F71A
1F9CF
1EA53
1E5DF
1F7BD
1ED8F
009FE
01694
1F39D
00866
1EA2F
1FB19
1C74D
1F3DC
1D5C4
1FEBE
01AD7
01EE4
0275E
02B45
1FD5C
1FF68
00226
1F977
1EEE9
1E83D
1FD3E
1FC52
1E3AE
00775
01284
1F260
00E88
0058B
08310
00D74
1F121
026BF
1ED52
01D57
00AAC
1EC75
0397C
1ED19
0040E
1FBE7
1F6D4
00065
18E7B
1EF7A
01208
1EC68
00CFF
1F354
1FD9B
1FB91
00E3D
01900
1EDC1
1F13D
00FFA
1FA52

