00C6A
3FF16
005C3
04693
3FC19
3F6EC
3E9C1
3FF1B
03412
3F573
3B6E3
3E338
3EEB1
00564
3D77B
01AD9
3FE34
015B1
00857
001AA
014FD
02452
00A9C
00D5F
3F914
00BA3
007EA
007BF
3D60F
3FE73
3FA6C
3F641
3FE91
3F43E
0116A
007A3
234CC
3F880
00AB0
01B67
00B37
3EFC0
3FC55
3FE77
3EFBA
00643
3D86F
00845
3E085
3F46C
02757
0104A
00729
2A4BA
00F14
3FC28
3F6EA
3FF33
3B50D
3F1F1
3F840
0223B
00E27
021FF

