00F4B
00292
017A0
01177
00011
1F1B6
1E451
1C56C
1FCEB
1DF7B
000A0
1FF60
1C748
1FEFC
00628
029B2
1E1E7
1F5E3
1F6F9
01B84
0010D
1CF1E
0183D
1F0C1
01A94
1F8DD
00A88
0012F
1CC83
0202A
0293C
01561
1FDD4
1F9FF
177FB
1E6E5
1F691
014DF
00D4B
0FE38
00465
1FB60
005D5
00604
001FD
1FB27
0071E
00288
1F675
0000F
1F5A7
00FBC
00829
1ECE6
02C19
1E67C
1FA04
1F422
0210A
004F5
00580
014A6
1B3A0
009D4

