1CF9D
00550
1ECA6
1FB07
002CF
004B9
009F7
00DE5
0160A
00B83
1EC25
01344
1F7FE
1FD5E
010C9
007C9
01E2C
1EBB1
1FB8C
00998
1F9EB
1FAA0
1D6C4
00C0F
00DC3
1FB64
021AF
00368
1FC95
1F19A
005BE
00115
1E542
1E4FD
00307
1E332
1F46A
0001E
1C0F3
0046A
1ED42
01A91
1F8E0
0102E
1DEB1
1F228
1F190
1F561
008F9
1DF0C
1E8CA
007A4
1F955
1F15F
00464
1F2DF
1780B
067D0
020B3
002F3
1F119
0017A
1D453
00770

