00AAF
3FE04
004B3
03313
3FA4D
3F49A
3E404
3FE26
02C3C
3F45D
3A7ED
3E1E2
3ED44
003DB
3C6C8
01293
3FC45
00FBC
00738
000A4
012D7
02153
0099D
00C5F
3F7E6
00A9B
0069F
0057D
3D39A
3FD79
3F7ED
3F56C
3FD92
3F20B
0102E
00586
20800
3F651
00992
0178E
00A20
3EE62
3FB30
3FC63
3ED84
004DF
3AFFF
0076A
3C9F7
3F337
017A9
00E01
005C5
271C8
00CF5
3FB0A
3F539
3FC9D
3A5DA
3F0B9
3F6E4
01DCF
00BE1
01E7D

