3A07
EF86
F6D3
F9A1
E9EC
E524
F773
ED6D
0983
15F7
F353
0832
E95C
FAC6
C693
F3A1
D3B2
FE71
1A23
1DF2
26CC
2970
FD25
FF13
01CE
F951
EEB9
E7DE
FD10
FBF5
E2E1
06D6
1225
F236
0E52
0533
7FA3
0D53
F0F8
25F1
ECF8
1D2A
0A79
EC50
38CC
ECF5
03BD
FB9A
F69B
000A
8BC6
EF56
11BC
EBFA
0A3B
F333
FD4B
FB3F
0E17
18A8
ED78
F11B
0FC4
FA20

