00DA2
0017F
015AB
00FAB
1FEFE
1F011
1E2DE
177CD
1FB77
1CF1E
1FECD
1FE53
1C404
1FDAA
00546
0177B
1DC13
1F4D9
1F5E3
0189A
00023
1C9B2
01233
1EFF2
0196E
1F7BA
00903
1FF46
1C244
01CD3
0270E
01361
1FD0D
1F83E
130BF
1E5F8
1F5E6
0112B
00C1C
0A47D
002A4
1FA55
004DC
00513
00158
1F9B6
0048E
001B6
1F509
1FE24
1F470
00D9D
00623
1EA7B
02334
1DE6F
1F7E5
1F30E
01DEC
003CD
0038B
0137B
16D55
00898

