00A30
3FDB6
00466
02D81
3F9C9
3F3F0
3E260
3FDE0
029FF
3F40D
3A3A7
3E180
3ECDC
0036B
3C202
01036
3FBB7
00E09
006E6
00059
0123A
02078
00954
00C16
3F790
00A4F
00641
004D7
3D2E7
3FD32
3F736
3F52F
3FD49
3F16A
00FD4
004EC
20800
3F5B2
00941
01675
009D0
3EDFE
3FADD
3FBCB
3ECE3
00479
3A471
0072C
3C386
3F2DF
0132E
00D59
0055F
26339
00C5A
3FAB8
3F4BE
3FBDF
3A182
3F060
3F681
01C8C
00B3B
01D7D

