03E24
00BAC
3D791
00F04
3F272
3FEA1
006AF
00264
3F90B
0054F
3ED82
0174C
3FB11
03E38
3FC5C
0112A
3ED23
3FB54
0041D
3FFE3
3EAF9
3F5ED
0055C
3F170
3F9C7
3E74B
00A89
3E414
3EE7A
3FEB2
00E76
3B87C
00D5D
030B6
016AB
3FCAD
01AE0
3F4FC
00C5A
3DCC0
3F5A3
3B07A
3ED1A
00052
009D6
3E2A5
0169B
3FF33
3EFFA
3EE14
3F8FD
3C6BD
3FD5C
004BC
3FEAB
3FEC4
3CC62
3D053
01188
00602
3F57C
0174D
008F8
026A8
3E442
3FD60
02754
3E0EF
000DA
01323
3ED4F
3F5B7
01FC7
007DC
3FD13
3F6CB
02580
00139
00A73
01B07
02B5B
01411
3FB42
000E6
03818
02309
3FB41
3CE37
3FEDB
00A2F
3E468
0173B
001BF
00CF1
00CF4
3F09E
00487
3F893
00EA2
01A63
3FA86
00B32
3FC84
3F8AD
3F03E
0075C
02419
00A47
3EAD5
006C7
004DD
000DE
3FE85
3D502
3FD2C
3CACE
3FED7
3FE08
3F247
01F9B
3E949
3F95A
00657
028DF
00BCC
3F5E5
001A6
0150C
0151C
3FE24
3E67B
3FDB3
3F389
3F34D
3E63C
3F9B4
01002
010E3
00445
36C1C
007F2
006BB
3E4D1
3E6BD
09B0C
20800
3F50D
3F675
00E5C
3F790
001AD
01441
3F240
00A36
3CA71
00D19
02C5E
019C1
0052A
0EF44
3EFC7
00ABF
3EEBC
0041A
01E92
3EF2A
01C0E
3FB33
00C0E
3FBD8
3F9BC
005AC
3ED76
3FD93
010A5
005DC
03E47
3EEC8
3DF71
001E2
3EE16
005AA
3F32E
3FAEA
00645
3C71A
3F238
006B0
3FE03
007E7
3F663
00265
3F865
3D6DB
009B5
3F638
002E6
3F3E8
3DFBB
3FFBD
3A170
0209F
3E939
3F573
3F075
00F4F
00880
00F61
0141F
00691
3F9EA
007D3
3EF67
28EE4
3F28E
3EC7F
0205D
00E2B
004E4
02A9D
3F43E
3FBAD
3F4E4
3E525
3FFC7
3F630
39724
3F9A9
3FDD0
3FE17
08059
3F3F4
00F48
3AE89
02271
02085
01B63
3F16B
003AA
004C4
3EFBF
3F7AB
3F1A4
0052C
3F22C
02056
002AC
01474
01176
00D2E
3D9E3
3A7E9
3FBB1
0207E
007E4
009A0

