03DA0
00B6D
3D594
00EBD
3F215
3FE7A
00657
00236
3F8C4
00528
3ED4B
016F9
3FAE3
03B6E
3FC06
010DE
3ECBC
3FB12
003CA
3FFB5
3EA3F
3F598
00534
3F12A
3F97C
3E679
00A64
3E3D6
3EE58
3FE8F
00E52
3AB8C
00CE2
02F97
01682
3FC6F
01A43
3F4D4
00C24
3DA06
3F559
3AE57
3ECDD
00004
009A1
3E274
015C5
3FF06
3EF26
3EDE0
3F8BE
3C632
3FD0A
00484
3FE58
3FE8B
3CBA8
3CDF0
01158
005DC
3F541
0161F
008AC
0239F
3E230
3FD19
0250A
3DFF6
0008D
0124A
3ECE7
3F58A
01F13
007B3
3FCB1
3F69C
0248E
00114
00A3C
01A8B
02AC9
013C3
3FAEC
000BF
03643
0229C
3FB19
3CD4F
3FEA4
00A0A
3E0FF
0163A
00169
00CCD
00CBB
3F07C
00430
3F868
00E6A
01A32
3FA5F
00B0C
3FC3C
3F87C
3F00D
0072D
0237F
00A06
3EA77
00675
00480
0008C
3FE57
3D4A8
3FD06
3C919
3FE7A
3FDE4
3F21C
01F0D
3E87C
3F8FF
00631
02882
00B2E
3F5C7
00182
014B6
014BE
3FDFF
3E62D
3FD92
3F35E
3F2FC
3E5ED
3F969
00FCC
010B6
003F6
3603C
0079A
0066E
3E469
3E696
0979F
20800
3F4E4
3F658
00E3B
3F741
0014A
013A3
3F217
00A0D
3C812
00CE6
02B91
01934
004FA
0E04F
3EF6D
00A98
3EE5D
003CF
01E65
3EEF8
01BAF
3FB07
00BDB
3FBAE
3F985
00582
3ED51
3FD47
01087
005B4
03D97
3EE77
3DF41
001C6
3EDF2
00577
3F2EC
3FAAC
005F4
3C153
3F20E
00643
3FDB6
007C8
3F622
00242
3F82C
3D3A2
00986
3F5FC
0028A
3F3BC
3DF8F
3FF6B
39EBA
01E61
3E91D
3F540
3F051
00EFB
00849
00F07
013D2
0065E
3F9C5
0077C
3EEFA
2879D
3F242
3EC18
01D99
00DDE
004C4
02922
3F41D
3FB84
3F463
3E3CD
3FF77
3F5F2
38F5E
3F94F
3FD7D
3FDB8
07A37
3F3C6
00F22
3AC5D
02201
02000
01B0C
3F13F
0037C
00493
3EF76
3F77A
3F181
004D9
3F20A
01FB4
0025F
01442
01140
00CDA
3D87F
39C32
3FB7F
01FFE
007C7
0096B

