03900
00932
3C3AF
00C40
3EECB
3FD19
00341
0009A
3F645
003CB
3EB5C
01409
3F945
0225C
3F908
00E2D
3E91F
3F8C2
000DA
3FE18
3E3AE
3F29D
003C5
3EEB2
3F6DE
3DF18
0091B
3E1A9
3ED2A
3FD54
00D0B
3371D
0088D
02584
01518
3FA40
014BD
3F36F
00A40
3C17B
3F2BF
39B1A
3EAB6
3FD49
007C9
3E0BD
00E43
3FD72
3E7B4
3EC0C
3F67F
3C14C
3FA21
0028A
3FB6B
3FC90
3C51F
3B876
00FA9
00489
3F32A
00B7C
00603
0084D
3CF8E
3FA9C
0106F
3D738
3FDD6
00AA2
3E945
3F3FB
018BA
00642
3F942
3F4FB
01C0F
3FFC4
00850
0162C
025A9
01100
3F7E8
3FF60
025C6
01EC1
3F9AF
3C52D
3FCB8
008C3
3C24E
00D2A
3FE68
00B84
00AB8
3EF46
00120
3F6E3
00C74
0187A
3F903
009B8
3F9B5
3F6C8
3EE57
00584
01E0F
007BF
3E720
0038D
00138
3FDAE
3FCB2
3D180
3FBB2
3B9BA
3FB3D
3FCA2
3F096
01A0C
3E146
3F5C9
004D8
0253D
00599
3F4B5
0003D
011B7
01167
3FCB8
3E36B
3FC68
3F1E1
3F029
3E31E
3F6C9
00DE6
00F1F
0012B
2F562
00483
003B7
3E0C4
3E532
078C9
20800
3F376
3F557
00D11
3F473
3FDC7
00E16
3F0A6
0089E
3B2B5
00B1F
02456
01442
0034A
059B7
3EC44
00931
3EB0B
0012F
01CD0
3ED35
01856
3F976
00A14
3FA35
3F797
0040D
3EC07
3FA9B
00F7C
0044B
0376E
3EB9F
3DD90
000CE
3ECAD
003AE
3F09F
3F882
0031B
38D56
3F093
0026C
3FB00
006AF
3F3DF
00108
3F629
3B6A2
007DF
3F3DB
3FF53
3F22F
3DE06
3FC8B
3865C
00A37
3E824
3F36D
3EF0F
00C0B
0065B
00BD8
01123
00494
3F876
00473
3EB1F
2461C
3EF98
3E877
004B2
00B24
003A5
01BCB
3F2F0
3FA15
3EFD7
3D7B9
3FCAD
3F3C7
34967
3F620
3FA9B
3FA65
04301
3F228
00DCB
398D3
01E15
01B53
017FA
3EFAE
001E1
002D7
3ECE7
3F5BA
3F048
001EB
3F0D7
01A05
3FFB0
01281
00F57
009EE
3CBFB
332C1
3F9BB
01B7C
006C1
00790

