FBC1
EC3F
FF2F
FCB0
FB75
084F
FADE
FB5B
0A84
FA26
0991
F9FC
01F2
A3E7
00DA
FA72
01B4
FC2A
F9A7
0250
7001
C021
FC7C
F9AC
024F
FDA6
ECFD
09DF
FF70
FDB1
FB0C
FD12
009E
FB2C
F534
03E8
DBC1
004C
FFFD
F42B
05F7
FBA4
F692
F790
F571
007F
0A06
0523
F297
008E
07AB
FF0F
11DB
FC6D
FCB6
FBE1
FBF8
079B
FDF2
074F
002C
0258
0678
FBBB
FE90
0020
FAD6
FDDA
03C2
02A7
F20C
F624
FD30
FC0B
F36B
CA47
F64A
0B61
FB12
FCCF
FB30
FF5A
FE98
FC7B
FE64
0059
0164
006D
01EC
012B
0113
0385
F9AC
150B
15C8
0646
1332
07DB
FF31
0021
50D2
F9EB
0060
F258
FDDC
FD5A
FBA3
FB72
0240
02AB
F7AB
FDCC
FD68
FC62
FBF0
01E1
062C
0221
7001
FCE3
E832
04E0
FE1C
FB23
FE2B
F959
FBDD
09BC

