FE18
163B
2C84
05E1
F5E3
0071
FADE
FA5F
FDB3
0251
FC86
F975
0573
FC8A
FEFC
0166
0110
FE39
015A
0403
023F
F6E1
FC94
FBA0
0220
0319
0258
F8D9
012B
C748
F99E
0377
FCCE
FF4B
EE6B
FDCE
004B
EA2A
01A8
FFFF
108D
EE2A
FFC9
FCFF
140B
04C4
FDF1
040B
FF87
9F63
F963
E8F7
D53B
FD10
0869
0007
074C
F96C
013F
F9B5
FF42
F65C
0149
0064
02A6
01C5
02C5
05A4
FCC5
012B
0489
108B
002A
F7C5
0070
FE1C
EA03
0047
FDFF
F926
0544
FCB8
0395
01F6
FEE9
0285
F6EE
02FC
0615
FF48
0134
0045
FF1D
000E
E835
FC0B
FE31
FE0E
FD6B
F7EE
FF98
F530
00F3
062F
001D
FF48
049C
023B
0480
055D
DFC2
0041
D985
0252
020D
04BE
F3CF
34E4
FF36
FC27
FF34
0141
F8A8
FC1A
7001
09BD
12CC
FF3B

