ED3C
FED1
0067
FC4A
FC63
FE98
FCCF
0509
0434
1B21
1099
E385
0024
FCED
FE24
04BF
FCF4
06F1
0476
FFA2
E103
00C2
F06F
1589
F83C
0569
0181
01B2
F79C
F3F9
FEBC
FD64
FF7F
01F1
02A2
02DF
0062
F90B
1E92
071C
F911
0468
0374
0460
0405
0080
F541
0546
2583
01CE
064B
FF29
FBD4
0035
04EF
054A
FFB7
FE3E
FA0C
0003
04F0
F89D
043A
1547
F08E
005C
FD1A
052D
FE7D
02C4
FF7F
F8B4
03CD
ECB4
F94B
FC4D
0178
FE64
FDB4
006D
FFD3
020A
FFE4
C931
004E
0538
1536
0090
03C4
FF2D
FBE3
F1FC
FFD8
FFE9
FF91
033E
FDCC
0088
0049
FE64
FD88
0179
0237
F833
FFB0
02F2
FE31
025A
FB21
0186
FF7B
0149
FFEB
1075
B251
F91C
0FDD
F68C
0136
FCEC
FEA4
0D2D
FDE3
001B
F93B
1D6C
0165
0556

