FE30
174D
2E46
0606
F645
008F
FB8E
FA79
FDC9
0282
FC9B
F991
059D
FCAA
FF24
018C
012D
FE67
0174
041D
0258
F6FF
FCBD
FBCB
0244
0334
0271
F8F6
013F
C8F8
F9B5
0397
FCF0
FF67
EEF5
FDED
0071
EAA7
01CE
001C
1122
EEBA
FFF3
FD1E
14DC
04E5
FE0F
042A
FFA5
A24E
F97F
EAA4
D705
FD24
0881
0020
0754
F985
0157
F9D7
FF56
F678
0167
0082
02C4
01E9
02F0
05CC
FCEB
0149
04A1
10F9
0051
F838
0097
FE42
EA8E
0062
FE20
F940
055E
FCCD
03CD
0210
FF14
029E
F70B
0324
0631
FF7D
014F
0066
FF39
0031
E949
FC30
FE54
FE34
FD96
F812
FFB4
F547
010A
06C1
0038
FF64
04B6
0251
0497
057B
E15C
0056
DACC
0267
022B
04D6
F3F4
3816
FF53
FC4A
FF51
016B
F8BE
FC3C
7001
0A42
1430
FF50

