0E8D
E8C8
FA50
FDC9
F969
FD0B
FE4C
12AD
5022
FF4C
F32B
035C
EBD0
01DF
2362
B41D
FD91
FAE0
0BF9
F56A
0048
FF32
EF76
FDEC
03D5
DE3B
F5B1
FBD4
F4E8
F8E9
5F9E
FD13
F2E7
0170
FB92
FF46
FD1E
0F02
F4D2
0454
06FC
FF7F
FC73
0226
0299
129B
0550
FF17
0450
FF48
006C
EFE8
0BA5
F98B
02DE
FF42
FCC9
045A
0150
E4AF
0588
EBF5
FDB5
E5A9
FE0E
F636
00C0
08F1
0A38
00EE
235B
EA01
01EA
FB01
010B
0178
01CF
FF28
FBAE
01FB
FE42
0159
0D60
DCB4
37FA
0414
02E8
F5A6
0F8C
0394
01F7
FD23
04F9
0104
085D
00D0
FDA2
FF6B
FF49
FE4F
02AD
28BA
0083
023D
F708
FCBC
FDB8
EA5F
FC0E
016C
FF26
F911
D795
FFB2
FFA9
0D31
F896
028B
FDF3
0054
0363
FB82
0158
FD54
1FE3
FE9C
0F09
E73B

