00EF9
1E93A
1FAC4
1FE01
1FB1E
1FD30
1FE83
01329
075A5
1FF92
1F47D
003A8
1EC8F
00224
02797
1BE62
1FDC9
1FB5A
00D2E
1F5D5
000B8
1FFD1
1F017
1FE1C
00529
1E1A5
1F68F
1FC51
1F553
1FB1E
0E5A3
1FD5D
1F81B
0019B
1FBEC
1FFB1
1FD45
00F8A
1F8F5
004A3
00E35
1FFDF
1FCAF
0025D
00311
0139B
00587
1FF53
0047F
1FF90
001A2
1F25E
0126C
1F9C0
00316
1FFD9
1FD0C
004AD
0017B
1EAC3
007E5
1EDE9
1FDFB
1E62D
1FE44
1F7A0
0013F
0093B
00ABF
0011B
02835
1F203
00213
1FB69
002EA
0023C
00205
1FF57
1FD29
0025C
1FE9B
0018E
00F96
1E048
054B8
00453
00331
1F81D
0109B
003C1
00239
1FD45
00533
00136
00AA9
0011B
1FDD6
1FF9E
1FF89
1FE93
0030F
03276
000B8
00270
1F7B3
1FCF1
1FE07
1EACE
1FC4E
001CF
1FF5D
1F97D
1E263
1FFE1
1FFD5
00DB0
1F8F5
002D6
00030
0009D
003D4
1FBC4
00186
1FD81
022E2
1FEF0
015B2
1E83E

