0070
FE04
F954
F820
0316
FED6
06D9
FF87
FEDF
FA55
FC09
FB1D
0008
001D
FFC0
C116
FE7B
FE8A
0997
FC91
F74B
0400
FBA6
BDEA
071D
0184
FC1C
07E4
FFE1
0209
7001
029D
FBAA
01FE
FE55
0772
0363
F73C
EBC7
6F12
0446
FE1D
0ACB
03D5
02BB
0321
087B
09D6
0013
038C
FF2B
FED0
FFFC
F59B
027B
0495
FCBF
FA43
F5E9
FBF1
01F5
08F2
0368
0271
0746
F796
0CA8
0097
FD10
01A7
08FB
01BA
0296
FD74
F98E
0851
025C
0360
084E
FEAA
022B
0BFB
01F2
0072
FF9A
FADD
FFB9
032B
0458
E7F2
0E59
02F5
0014
06E4
02C3
1598
EF8B
EEF7
FD6B
FCD2
1FB0
FA47
FFB2
FA62
FD29
045B
065F
FD2F
FFC5
FD2B
0564
059F
FDF5
0B6D
FED9
FF31
00BA
0000
FFD6
FFB5
F9D3
FD9E
0296
031E
2FF6
006D
033A
FD8A

