0063
FDF7
F94A
F80F
030A
FEC2
06C6
FF74
FECD
FA49
FBF6
FB0E
FFF8
0010
FFAF
BFFC
FE6F
FE7E
0976
FC7F
F73D
03F2
FB97
BCF3
070A
0178
FC0E
0792
FFD1
01FC
7001
0289
FB9E
01ED
FE41
0764
034F
F72C
EB82
6D5D
0437
FE0F
0A6D
03C3
02AE
030B
086D
09C8
0006
037B
FF1D
FEC0
FFEC
F58E
026C
0484
FC9F
FA33
F5C1
FBDD
01E8
08E6
0355
0264
0735
F73D
0C5B
008B
FD00
0194
08EE
01A1
0288
FD64
F974
0844
023C
030A
0843
FE92
0216
0BC1
01E1
005A
FF8C
FACB
FFAE
031D
044D
E75B
0E1C
02E2
0009
06D4
02B3
1544
EF60
EE95
FD5A
FCC6
1ED8
FA3D
FFAB
FA54
FD1A
044D
064F
FD1D
FFB5
FD19
0554
058C
FDEA
0B3F
FEC2
FF18
00AC
FFF1
FFCB
FFA4
F9C4
FD82
0285
0311
2CF8
0061
0328
FD7E

