00F3
FE8A
F9B3
F8C8
038E
FF9A
079A
004A
FF95
FACF
FCCD
FBB8
00A5
0096
006A
CC17
FEF2
FF01
0AE3
FD48
F7CD
0494
FC3C
C791
07D9
01FA
FCAE
0B11
0087
028D
7001
0360
FC1E
02A0
FF1D
07F8
042C
F7DA
EE77
7001
04E1
FEAD
0E76
048C
0342
03FB
0908
0A64
0098
042D
FFB9
FF6D
0097
F616
0313
053C
FE05
FADF
F77E
FCB7
0276
096E
041E
02F2
07F5
FB0E
0FAE
0107
FDAF
025E
0978
02AE
031F
FE0F
FA94
08D6
0398
06B6
08BF
FF95
0302
0E41
029C
0168
0024
FB91
002B
03C0
04C6
EDDB
10BB
03BB
0087
077D
035D
18DF
F139
F2CF
FE12
FD4C
281F
FAA9
0000
FAE9
FDB7
04ED
06FB
FDE0
0063
FDE5
0606
0657
FE6A
0D37
FFB6
0034
0145
0097
0047
0057
FA6B
FEB5
033E
03A6
4DE2
00DD
03EB
FDFF

