ED87
FEE3
007C
FC5C
FC79
FEA7
FCDB
0522
0443
1B75
10F9
E3E3
0039
FD0E
FE30
04CF
FD06
0726
0481
FFB4
E328
00D0
F0C0
15CB
F84C
0578
0191
01BC
F7AA
F44A
FEC7
FD75
FF91
01FF
02B9
02F0
0070
F918
1F2C
072A
F923
0475
0387
0472
0419
008D
F569
0556
263C
01E0
0655
FF3C
FBEA
0049
04FC
055B
FFC6
FE4D
FA18
000A
0505
F8C7
0452
1590
F0BB
0068
FD2B
0533
FE90
02D4
FF97
F90E
03DA
ED06
F95A
FC59
0185
FE76
FDC6
007A
FFE3
0217
FFF0
CA98
005D
0544
15AB
00E9
03CE
FF43
FBF7
F262
FFED
FFFC
FFA9
0353
FDDA
0093
005B
FE73
FD94
0187
0243
F840
FFC1
0300
FE3F
0266
FB32
0192
FF87
0156
FFF9
10A7
B428
F92A
101F
F6CF
0144
FCFF
FEB0
0D68
FDEF
002C
F94D
1DD2
017B
0566

