01197
01E29
0320C
1FA84
1E66C
0423A
010DB
032C7
1E81F
02351
1CC98
19B46
043E6
1F2B5
1C723
1CADA
10400
1E2AF
1C638
1DAEA
1E706
1E995
04178
1B7EA
037A2
1B8DD
03353
08D63
1D54F
1F9C2
1EC29
1E95F
024FB
1EAEB
0FC01
10400
026D5
01004
050C9
1F45A
01449
1D00B
1E1C6
01F2E
1EC95
1F0DE
01397
1EB57
1FDFA
1F10B
0317B
1E8AC
00812
073F9
1D1F6
01C23
1E751
0FC01
1FA9F
026D2
1ECAE
03B6A
1D6C2
07354

