009E3
01A9B
01E11
1F534
1CADB
03417
00CFC
01E04
1E38D
01F09
1B108
176E5
01872
1EDA8
1B98B
190DB
10400
1DAE6
1B247
1D514
1E2CA
1E39B
019B6
1AF3B
02ABD
1A55B
02DCA
07797
1C70E
1F0A4
1E0C3
1DD75
01D02
1E626
0C7A3
10400
013C3
005C1
04503
1ECA0
01168
1BF2A
1D20E
018EC
1E3C3
1EBEE
00A07
1E60A
1F6E1
1E746
028E5
1E203
000A2
03254
1CA0D
01518
1DFBD
0BE03
1F3D7
01FDE
1E43B
034B6
1CE10
03AC1

