00858
019E5
01A12
1F424
1C558
03144
00C35
019DD
1E2A3
01E2E
1AB84
16F9E
00FC1
1ECA5
1B6D3
18541
10400
1D958
1AE4A
1D3E9
1E1F1
1E269
011C2
1AD7F
02829
1A175
02CAF
0733B
1C434
1EED1
1DE7B
1DB13
01B69
1E532
0BBE2
10400
00FF3
003B3
042A9
1EB14
010D5
1BBCA
1CEEA
017AC
1E200
1EAF1
0081E
1E4FA
1F575
1E552
0272D
1E0AE
1FF25
02532
1C878
013AF
1DE39
09874
1F27C
01E7A
1E28A
0335F
1CC52
02F70

