0091E
01A40
01C11
1F4AC
1C819
032AE
00C98
01BF1
1E318
01E9C
1AE46
17341
0141A
1ED27
1B82F
18B0E
10400
1DA1F
1B049
1D47E
1E25E
1E302
015BC
1AE5D
02973
1A368
02D3C
07569
1C5A1
1EFBA
1DF9F
1DC44
01C36
1E5AC
0C1C2
10400
011DB
004BA
043D6
1EBDA
0111E
1BD7A
1D07C
0184C
1E2E2
1EB6F
00912
1E582
1F62B
1E64C
02809
1E159
1FFE4
02BC3
1C942
01463
1DEFB
0AB3B
1F32A
01F2C
1E363
0340A
1CD31
03519

