EE1F
FF09
00A6
FC7F
FCA5
FEC3
FCF4
0552
0460
1C1B
11B9
E4A0
0063
FD50
FE48
04F1
FD2A
0790
0497
FFD9
E773
00EB
F162
164F
F86B
0597
01B1
01CE
F7C6
F4ED
FEDC
FD98
FFB4
021C
02E6
0311
008C
F931
2061
0745
F948
048E
03AD
0497
043F
00A9
F5B8
0576
27AE
0204
066A
FF63
FC17
0071
0515
057E
FFE5
FE6B
FA31
0017
052F
F91B
0484
1621
F116
0080
FD4C
053F
FEB5
02F5
FFC8
F9C3
03F3
EDA9
F977
FC71
019F
FE9A
FDEB
0095
0003
0231
0007
CD66
007B
055C
1694
019C
03E2
FF6F
FC1F
F32D
0017
0022
FFDA
037B
FDF6
00AA
007F
FE91
FDAC
01A5
025C
F85A
FFE4
031A
FE5B
027E
FB53
01AA
FF9F
0170
0015
110C
B7D4
F947
10A2
F754
0161
FD25
FEC8
0DDD
FE06
004F
F971
1E9F
01A8
0585

