FC18
F007
FF7A
FD18
FBB8
089B
FB2F
FBAD
0E0D
FA9B
09F5
FA65
0264
B190
0137
FAED
022A
FC9C
FA03
02D6
7001
CA32
FCD4
FA2D
02A3
FDFA
EE0D
0C4E
FFD6
FDFA
FB66
FD69
00F9
FB7D
F5A4
0449
E09A
00A0
0096
F606
067F
FBFA
F6FA
F7FF
F5DD
00CF
0AED
0579
F4F9
0108
07F7
FF71
12F8
FCB6
FD51
FC27
FC9C
07F9
FE45
0852
0086
02A6
06FB
FC26
FEEE
00BF
FB4C
FE4D
0426
0311
F449
F698
FD7F
FC70
F4DE
D333
F6A0
0CD4
FB71
FD64
FB97
FFCC
FF09
FCF4
FEC3
00A0
01FA
00AC
0288
01A6
01AC
074D
FA95
1678
17FB
0697
1A29
0849
FF71
008B
6469
FA76
00BB
F2DF
FE5E
FDC2
FC31
FBEC
02C9
0307
F82B
FE18
FDA3
FD2B
FC6A
0268
06A1
02A7
7001
FD4C
EA59
054B
FE5A
FB70
FEA6
F9C7
FC5C
0A27

