EC58
FE99
0028
FC14
FC22
FE6E
FCA9
04C1
0409
1A27
0F79
E269
FFE5
FC8A
FE01
048D
FCBF
0651
0455
FF6B
DA92
009A
EF7D
14C4
F80E
053B
0150
0197
F772
F305
FE9B
FD30
FF4A
01C6
025F
02AE
0037
F8E5
1CC3
06F3
F8D9
0442
033C
0429
03CC
0056
F4C9
0516
2359
0197
062B
FEEF
FB91
FFF9
04CA
0517
FF8A
FE11
F9E7
FFEF
04B1
F820
03EF
146C
F006
0038
FCE7
051A
FE46
0292
FF37
F7A6
03A7
EBBE
F91F
FC28
0152
FE2F
FD7E
0044
FFA3
01E2
FFC2
C4FD
0020
0514
13D8
FF84
03A6
FEEB
FBA8
F0CC
FF99
FFAF
FF48
0302
FDA3
0067
0013
FE37
FD63
014D
0212
F80C
FF7B
02CB
FE08
0236
FAEF
0161
FF56
0122
FFC1
0FDD
ACCF
F8F1
0F19
F5C3
010C
FCB4
FE7F
0C7E
FDC0
FFE7
F905
1C39
0122
0528

