0056
FDEA
F941
F7FE
02FE
FEAE
06B2
FF60
FEBB
FA3D
FBE2
FAFE
FFE8
0004
FF9E
BEE2
FE63
FE72
0955
FC6D
F730
03E3
FB88
BBFB
06F8
016D
FBFF
0741
FFC0
01EF
6FA7
0276
FB93
01DD
FE2D
0757
033B
F71C
EB3E
6BA8
0427
FE01
0A10
03B1
02A0
02F6
085F
09BA
FFF9
036B
FF0F
FEB0
FFDD
F582
025D
0474
FC7E
FA23
F598
FBC9
01DB
08D9
0343
0257
0723
F6E4
0C0E
0080
FCF0
0182
08E2
0189
027A
FD55
F959
0836
021D
02B5
0838
FE7B
0201
0B86
01D0
0041
FF7E
FAB9
FFA2
030E
0442
E6C4
0DDF
02CE
FFFE
06C5
02A4
14F0
EF35
EE33
FD49
FCBA
1E00
FA33
FFA3
FA47
FD0C
043E
0640
FD0B
FFA5
FD06
0544
057A
FDDE
0B12
FEAC
FEFE
009E
FFE2
FFBF
FF94
F9B4
FD66
0274
0303
29FA
0056
0316
FD72

