FE3C
17D6
2F27
0618
F676
009E
FBE6
FA86
FDD4
029A
FCA6
F99F
05B2
FCBA
FF38
019F
013C
FE7E
0181
042A
0265
F70E
FCD1
FBE1
0256
0342
027D
F905
014A
C9D0
F9C0
03A7
FD02
FF75
EF3A
FDFC
0084
EAE5
01E1
002B
116C
EF02
0009
FD2D
1545
04F6
FE1D
043A
FFB4
A3C3
F98E
EB7A
D7EA
FD2E
088D
002C
0758
F992
0163
F9E7
FF5F
F687
0176
0091
02D4
01FB
0305
05E1
FCFD
0158
04AC
1130
0065
F871
00AB
FE56
EAD4
0070
FE30
F94D
056B
FCD8
03E9
021D
FF2A
02AB
F719
0338
063F
FF98
015C
0077
FF47
0042
E9D3
FC43
FE66
FE48
FDAB
F824
FFC1
F553
0116
0709
0046
FF72
04C2
025C
04A3
0589
E22A
0061
DB6F
0272
023A
04E2
F407
39AF
FF62
FC5B
FF60
0180
F8C9
FC4C
7001
0A84
14E2
FF5B

