FE78
1A83
338E
0673
F76A
00E8
FD9E
FAC7
FE0A
0315
FCDC
F9E5
061B
FD0B
FF9B
01FF
0184
FEF0
01C2
046B
02A3
F759
FD36
FC4D
02B0
0386
02BB
F94E
017C
CE08
F9F8
03F6
FD58
FFBB
F092
FE47
00E3
EC1E
0240
0075
12E0
F06B
0073
FD7A
1750
0548
FE67
048A
FFFF
AB0E
F9D5
EFA9
DC62
FD60
08CA
006A
076D
F9D1
01A0
FA3B
FF8F
F6CF
01C3
00DE
0320
0254
0370
0646
FD5B
01A3
04E6
1244
00C7
F98F
010D
FEB7
EC31
00B5
FE81
F98F
05AA
FD0D
0475
025F
FF95
02EC
F762
039D
0685
001D
019E
00C9
FF8E
009A
EC85
FCA0
FEBE
FEA8
FE17
F87D
0006
F58D
0152
0875
008A
FFB9
0502
0294
04DF
05D3
E62B
0096
DEA0
02A7
0286
051E
F463
41AB
FFAA
FCB1
FFAA
01E8
F900
FCA0
7001
0BD0
185D
FF90

