00B2
FE47
F984
F874
0352
FF38
0739
FFE8
FF3A
FA92
FC6B
FB6B
0056
0059
0015
C697
FEB6
FEC5
0A3D
FCED
F78C
044A
FBF1
C2BD
077B
01BF
FC65
097B
0034
024B
7001
02FF
FBE4
024F
FEB9
07B5
03C8
F78B
ED1F
7001
0493
FE65
0CA1
0431
02FF
038E
08C1
0A1D
0055
03DC
FF72
FF1E
004A
F5D8
02C7
04E8
FD62
FA91
F6B4
FC54
0236
0930
03C3
02B2
079D
F952
0E2B
00CF
FD60
0202
093A
0234
02DA
FDC1
FA11
0893
02FA
050B
0887
FF20
0297
0D1E
0247
00ED
FFDF
FB37
FFF2
0376
048F
EAE7
0F8A
0358
004E
0731
0310
173B
F062
F0E3
FDBF
FD0F
23E7
FA78
FFD9
FAA6
FD70
04A4
06AD
FD87
0014
FD88
05B5
05FB
FE30
0C52
FF47
FFB3
00FF
004B
000E
0006
FA1F
FE29
02EA
0362
3EEC
00A5
0392
FDC5

