FEB4
1D2F
37F4
06CD
F85E
0132
FF56
FB08
FE40
0390
FD11
FA2B
0684
FD5C
FFFE
025E
01CC
FF63
0203
04AC
02E1
F7A5
FD9A
FCB9
030A
03CA
02F9
F997
01AE
D240
FA30
0445
FDAF
0002
F1EB
FE93
0142
ED57
029F
00BE
1455
F1D3
00DD
FDC7
195B
059A
FEB1
04DA
004B
B258
FA1C
F3D9
E0DB
FD92
0907
00A7
0781
FA10
01DC
FA8F
FFBE
F717
020F
012A
036D
02AE
03DB
06AC
FDB8
01ED
0520
1358
0128
FAAE
016F
FF17
ED8D
00F9
FED3
F9D1
05EA
FD43
0500
02A0
0001
032C
F7AB
0401
06CB
00A2
01E0
011B
FFD5
00F1
EF37
FCFD
FF16
FF08
FE82
F8D5
004A
F5C7
018E
09E1
00CD
0000
0542
02CC
051A
061D
EA2D
00CB
E1D0
02DC
02D1
0559
F4C0
49A8
FFF3
FD07
FFF5
0250
F937
FCF3
7001
0D1B
1BD8
FFC6

