007D
FE12
F95D
F831
0322
FEE9
06EC
FF9B
FEF1
FA62
FC1D
FB2D
0017
0029
FFD1
C230
FE87
FE96
09B8
FCA3
F758
040F
FBB5
BEE1
0730
0190
FC2B
0835
FFF2
0216
7001
02B0
FBB5
020E
FE69
077F
0378
F74B
EC0C
7001
0456
FE2C
0B29
03E8
02C9
0337
0889
09E4
0020
039C
FF39
FEDF
000B
F5A7
028B
04A6
FCE0
FA52
F612
FC04
0202
08FE
037A
027E
0757
F7EF
0CF6
00A2
FD20
01B9
0907
01D2
02A4
FD83
F9A8
085E
027C
03B5
085A
FEC1
0241
0C35
0203
008B
FFA8
FAEF
FFC4
033A
0463
E88A
0E96
0309
0020
06F3
02D2
15EC
EFB6
EF5A
FD7C
FCDF
2088
FA50
FFBA
FA6F
FD37
046A
066E
FD40
FFD5
FD3E
0574
05B1
FE01
0B9B
FEEF
FF4B
00C8
000F
FFE1
FFC5
F9E2
FDBA
02A7
032C
32F4
0078
034B
FD96

