03E24
1F272
1F90B
1FB11
1ED23
1EAF9
1F9C7
1EE7A
00D5D
01AE0
1F5A3
009D6
1EFFA
1FD5C
1CC62
1F57C
1E442
000DA
01FC7
02580
02B5B
03818
1FEDB
001BF
00487
1FA86
1F03E
1EAD5
1FE85
1FED7
1E949
00BCC
0151C
1F389
01002
007F2
09B0C
00E5C
1F240
02C5E
1EFC7
01E92
00C0E
1ED76
03E47
1EE16
00645
1FE03
1F865
002E6
1A170
1F075
0141F
1EF67
0205D
1F43E
1FFC7
1FDD0
00F48
01B63
1EFBF
1F22C
01176
1FBB1

