1C7A9
003F0
1EBCA
1F9B2
00181
00416
00964
00D54
01569
00AAC
1EB31
00FEE
1F6FF
1FC11
01009
0069A
01503
1EA13
1FA05
008BD
1F894
1F9FF
1C920
00B2A
00CE4
1FA44
01F44
001F2
1FBFE
1F0ED
00525
00085
1E408
1E3BE
001CA
1E193
1F3C7
1FE8F
1B774
003AA
1EBC8
01914
1F805
00FB7
1DDF0
1F122
1F0E7
1F460
0083D
1DE5E
1E85B
006C9
1F8C0
1F030
003E5
1F0DA
158F3
04F46
01EF4
0023C
1F08E
00049
1CEC3
006FB

