00CCE
000F6
014B0
00EC6
1FE74
1EF3E
1E225
150FD
1FABD
1C6EF
1FDE4
1FDCC
1C263
1FD01
004D5
00E5F
1D929
1F454
1F558
01725
1FFAE
1C6FC
00F2E
1EF8A
018DC
1F729
00841
1FE51
1BD24
01B28
025F7
01262
1FCAA
1F75E
10D20
1E581
1F590
00F51
00B85
077A0
001C4
1F9CF
00460
0049B
00105
1F8FD
00346
0014D
1F454
1FD2E
1F3D5
00C8D
00520
1E946
01EC2
1DA68
1F6D5
1F284
01C5D
00339
00291
012E5
14A30
007FA

