1CDA0
004F8
1EC6F
1FAB2
0027C
00490
009D2
00DC1
015E1
00B4D
1EBE8
0126F
1F7BE
1FD0B
01099
0077D
01BE1
1EB4A
1FB2A
00961
1F995
1FA78
1D35B
00BD6
00D8B
1FB1C
02114
0030A
1FC6F
1F16F
00598
000F1
1E4F3
1E4AD
002B8
1E2CB
1F441
1FFBA
1BE93
0043A
1ECE3
01A32
1F8A9
01010
1DE81
1F1E6
1F166
1F521
008CA
1DEE1
1E8AF
0076D
1F930
1F113
00444
1F25E
17045
061AD
02043
002C5
1F0F6
0012E
1D2EF
00753

