00BEC
3FEC8
00575
04101
3FB96
3F642
3E81D
3FED5
031D4
3F524
3B29D
3E2D6
3EE48
004F4
3D2B6
0187C
3FDA7
013FD
00805
0015F
01460
02377
00A53
00D16
3F8BE
00B57
0078C
0071A
3D55B
3FE2C
3F9B5
3F604
3FE48
3F39D
01110
00708
20800
3F7E0
00A5E
01A4E
00AE7
3EF5C
3FC02
3FDDF
3EF18
005DD
3CCE1
00806
3DA14
3F414
022DC
00FA3
006C3
2962C
00E79
3FBD6
3F66E
3FE76
3B0B5
3F198
3F7DD
020F8
00D81
020FE

