00D15
00124
01504
00F12
1FEA2
1EF84
1E262
15DED
1FAFB
1C9AA
1FE32
1FDF9
1C2EE
1FD39
004FA
01168
1DA22
1F480
1F586
017A1
1FFD5
1C7E3
0102F
1EFAD
0190D
1F75A
00882
1FEA3
1BED9
01BB7
02654
012B7
1FCCB
1F7A9
11900
1E5A8
1F5AD
00FEF
00BB7
08694
0020F
1F9FC
00489
004C3
00120
1F93A
003B4
00170
1F490
1FD80
1F409
00CE8
00576
1E9AD
0203D
1DBC0
1F730
1F2B2
01CE2
0036B
002E5
01317
155E7
0082F

