00B2D
3FE52
00501
038A5
3FAD0
3F544
3E5A7
3FE6C
02E79
3F4AC
3AC34
3E244
3EDAC
0044C
3CB8D
014F0
3FCD2
01170
0078A
000EF
01374
0222E
009E6
00CA8
3F83D
00AE6
006FE
00622
3D44E
3FDC1
3F8A3
3F5A9
3FDDB
3F2AC
01088
00621
20800
3F6F1
009E4
018A8
00A70
3EEC6
3FB84
3FCFB
3EE26
00544
3BB8D
007A9
3D069
3F390
01C24
00EA8
0062B
28056
00D90
3FB5C
3F5B5
3FD5A
3AA32
3F112
3F748
01F12
00C87
01F7E

