00AEE
3FE2B
004DA
035DC
3FA8F
3F4EF
3E4D6
3FE49
02D5A
3F485
3AA10
3E213
3ED78
00413
3C92A
013C2
3FC8B
01096
00761
000C9
01326
021C0
009C1
00C84
3F811
00AC0
006CF
005CF
3D3F4
3FD9D
3F848
3F58A
3FDB7
3F25C
0105B
005D3
20800
3F6A1
009BB
0181B
00A48
3EE94
3FB5A
3FCAF
3EDD5
00512
3B5C6
00789
3CD30
3F363
019E6
00E54
005F8
2790F
00D43
3FB33
3F577
3FCFB
3A806
3F0E6
3F716
01E71
00C34
01EFD

