00932
3FD19
003CB
0225C
3F8C2
3F29D
3DF18
3FD54
02584
3F36F
39B1A
3E0BD
3EC0C
0028A
3B876
00B7C
3FA9C
00AA2
00642
3FFC4
01100
01EC1
008C3
00B84
3F6E3
009B8
00584
0038D
3D180
3FCA2
3F5C9
3F4B5
3FCB8
3F029
00F1F
003B7
20800
3F473
0089E
01442
00931
3ED35
3FA35
3FA9B
3EB9F
003AE
38D56
006AF
3B6A2
3F22F
00A37
00C0B
00494
2461C
00B24
3FA15
3F3C7
3FA65
398D3
3EFAE
3F5BA
01A05
009EE
01B7C

