03C99
1F15A
1F836
1FA87
1EBEE
1E8C9
1F8E7
1EE15
00BEB
01908
1F4C5
00938
1ED7E
1FC64
1CA35
1F4CA
1DE0C
1FFF3
01DAA
022AB
029A5
03299
1FE37
000BE
00382
1FA12
1EFAC
1E9B9
1FDF9
1FDC2
1E6E2
009F0
01400
1F30A
00F60
006EB
090C4
00DF9
1F1C5
029F5
1EEB9
01E0B
00B76
1ED08
03C39
1EDAA
00552
1FD1C
1F7B9
001D3
19950
1F009
0133A
1EE1E
01810
1F3DA
1FED9
1FCD9
00ED5
01A5D
1EEE4
1F1C5
010D3
1FB1A

