00D5B
00151
01557
00F5F
1FED0
1EFCB
1E2A0
16ADD
1FB39
1CC64
1FE80
1FE26
1C379
1FD71
00520
01471
1DB1A
1F4AD
1F5B5
0181D
1FFFC
1C8CB
01131
1EFCF
0193E
1F78A
008C2
1FEF5
1C08F
01C45
026B1
0130C
1FCEC
1F7F4
124DF
1E5D0
1F5C9
0108D
00BEA
09589
0025A
1FA28
004B3
004EB
0013C
1F978
00421
00193
1F4CD
1FDD2
1F43C
00D42
005CD
1EA14
021B9
1DD18
1F78A
1F2E0
01D67
0039C
00338
01349
1619E
00863

