03B92
1F09F
1F7A8
1FA2B
1EB21
1E754
1F852
1EDD2
00AF5
017CE
1F431
008CF
1EBD7
1FBBF
1C8C1
1F453
1D9E8
1FF58
01C41
020C7
02882
02EEF
1FDC9
00013
002D4
1F9C5
1EF4B
1E8FB
1FD9C
1FD0A
1E548
008B3
01342
1F2B5
00EF4
0063B
089EA
00DB6
1F173
0285A
1EE06
01DB1
00B11
1ECBE
03ADA
1ED62
004B0
1FC82
1F747
0011C
193E6
1EFC2
012A1
1ED43
01288
1F397
1FE3A
1FC35
00E89
019AE
1EE53
1F181
01067
1FAB6

