00E30
001DB
01652
01044
1FF59
1F09D
1E35A
191AD
1FBF3
1D492
1FF69
1FEAC
1C51B
1FE1A
00591
01D8D
1DE05
1F532
1F640
01992
00071
1CB81
01436
1F037
019D0
1F81B
00985
1FFE9
1C5AE
01DF0
027C8
0140C
1FD50
1F8D4
1487D
1E647
1F61F
01267
00C81
0C266
0033A
1FAAE
0052F
00564
0018F
1FA31
00569
001FC
1F582
1FEC7
1F4D8
00E52
006D0
1EB49
0262B
1E11E
1F89A
1F36A
01EF6
00430
00432
013DE
184C3
00901

