00C87
000C8
0145D
00E79
1FE46
1EEF8
1E1E7
1440D
1FA7F
1C435
1FD96
1FD9F
1C1D7
1FCC8
004AF
00B56
1D830
1F428
1F52A
016A8
1FF87
1C615
00E2C
1EF68
018AB
1F6F9
00800
1FE00
1BB6F
01A9A
0259A
0120C
1FC89
1F713
10141
1E559
1F573
00EB3
00B52
068AB
00179
1F9A3
00436
00473
000E9
1F8BF
002D9
0012B
1F417
1FCDC
1F3A1
00C33
004CA
1E8DE
01D46
1D911
1F67B
1F256
01BD8
00308
0023E
012B3
13E78
007C5

