00A6F
3FDDD
0048D
0304A
3FA0B
3F445
3E332
3FE03
02B1D
3F435
3A5CA
3E1B1
3ED10
003A3
3C465
01165
3FBFE
00EE3
0070F
0007F
01289
020E5
00979
00C3B
3F7BB
00A75
00670
0052A
3D341
3FD55
3F791
3F54D
3FD6E
3F1BB
01001
00539
20800
3F602
0096A
01701
009F8
3EE30
3FB06
3FC17
3ED33
004AC
3AA38
0074B
3C6BE
3F30B
0156B
00DAD
00592
26A80
00CA8
3FAE1
3F4FB
3FC3E
3A3AE
3F08D
3F6B3
01D2D
00B8E
01DFD

