00972
3FD40
003F2
02525
3F904
3F2F2
3DFEA
3FD77
026A3
3F396
39D3D
3E0EE
3EC40
002C3
3BAD9
00CAB
3FAE3
00B7C
0066B
3FFE9
0114E
01F2F
008E7
00BA8
3F70F
009DE
005B3
003DF
3D1D9
3FCC6
3F624
3F4D4
3FCDC
3F079
00F4C
00404
20800
3F4C3
008C6
014CE
00959
3ED67
3FA5F
3FAE7
3EBF0
003E1
3931D
006CE
3B9DB
3F25B
00C75
00C5E
004C7
24D63
00B72
3FA3D
3F404
3FAC3
39AFF
3EFDB
3F5EC
01AA7
00A41
01BFC

