071C
0101
FA14
FE8A
0551
F677
03F6
FEDF
FCF9
0261
F776
FD1E
FB37
04BF
FE42
0E55
FA39
05FD
0048
FF1E
0124
04C3
012D
01E2
0287
0355
0791
F819
FBAE
FA73
0069
06C0
F5A6
FF0F
F8E8
FFCC
F1CC
00C0
036C
0CDE
008D
07EE
FF92
0B06
0C09
05D1
1ADD
0355
FBB8
CE5D
0875
FEFB
05FF
BA21
F650
FCD8
DEAC
014D
F60D
0500
06C8
012E
0339
FDEE
009F
FF2D
F7D1
0996
FCB1
24EF
FCAF
038F
09A0
F910
025A
FF0B
FC89
082F
0551
0931
0016
FB6A
FEE0
FCD8
01F0
F66E
0013
FC05
047F
FCF0
FC39
F9CD
0A3B
CDF6
FA99
F4C4
04CD
FFFC
0637
F88A
FBD9
03CC
FFD1
03E9
FDCB
004D
056E
9700
FA68
FCFE
FB60
00F2
EB49
FAC1
FE26
FCEA
FFE7
FCAE
0128
F296
0042
FBFD
FDC1
0580
F8A4
FB1C
FC38
FCFB
0322
02DA
0691
3CF6
FC83
00A0
FC33
FA53
0434
02E9
0176
05FD
03CA
FF5A
05AC
111F
008D
09F7
012E
FA08
05A8
05EC
0354
FC26
0F1C
FED7
FB7B
05A0
FC54
0040
F271
0045
FBA4
FE5F
FA8E
FD06
FD5F
000B
0892
0398
FA15
029E
9700
0324
0B3D
FF22
0178
FD98
FD93
0257
E545
0479
03DE
022A
FE12
07ED
01BE
FF5D
FE92
FC97
FCA6
FF79
0662
FC5C
FD56
FB46
FA64
0AF8
058C
FBDF
D289
F70A
04B7
F35C
F4A1
07E6
FDE5
F766
017B
042E
FEDA
0136
FE35
FD25
FAC0
04DE
B28D
F165
019D
F650
D74E
0B1A
FA77
047B
0328
05C3
FF3D
0195
F69E
0420
FE3E
0599
FEC4
FE99
FCB0
F46B
00A2
F415
FE41
0E53
0258
0040
F7A5
FA20
034D
FB93
01AF
FD45
FF92
0005
019A
0457
F3C8
051F
0059
FC33
0220
0417
F9B5
0473
0416
0601
F438
03DF
0509
000F
01B2
0114
5336
FAD6
0285
0A5A
00ED
FD7B
0CD7
0CDA
0536
FF4D
FF1D
0479
FB77
FB11
FCC3
FE1B
FC6B
0454
FF60
F495
0130
0138
059E
E25A
F5E8
08DD
ED3F
FA29
0071
F921
0511
0241
9E91
0586
0293
04AE
FFB0
065C
FE41
F99A
FC52
021D
0AFC
0E3E
FFA9
011C
028D
EBDB
F368
F6AC
F749
FE57
0129
FCD0
F779
F91C
0375
F846
F54D
FEB6
070E
0586
05E0
055E
005A
020A
FAD1
00C9
00CE
0047
FD2E
D9C7
9700
0000
FB8F
FBA4
082A
FCDA
052B
0414
0080
FC6A
02AF
03AD
000D
FCF0
FC51
01E1
FD19
FCC7
152D
0D02
1CA5
FE67
FF72
FDA6
FF54
F61E
00DA
0132
FBC3
0C8A
E43E
F77D
FF16
F54D
FCEC
0326
FC6D
FDC0
E860
0800
016C
0AD0
022E
06C3
FF75
0B37
F993
FE6C
FF1E
FCAE
06CC
EC98
08F2
FC71
FCCD
F9FE
00CE
005C
0BA9
FCAD
FDFE
07DE
FE2D
033D
03FA
0916
0984
03BB
FF9B
02A4
066C
0323
FA93
FBDD
0183
F5CF
FB95
F3AA
FCC0
FD3B
FFEB
027A
0188
FCB2
03FD
032E
036E
FF0E
DD5E
022D
FD8A
04D6
0117
FFF3
0028
FE5A
029E
0165
08A9
F1DA
07F4
0060
FFF0
FC60
00F0
0009
0C36
FBB8
EBF6
0A1B
FD61
FDA7
038E
0222
048F
FBB5
FF38
FF1F
FD57
FDE9
F7B3
02E6
F6CD
F7DE
03CD
05FE
0E7A
E380
FF83
FF9C
351A
00B2
0087
05F6
00A2
FB94
FB8A
03B4
F96D
014E
00CF
F6AD
F73E
FB86
005B
FB86
FDFB
FD9C
F401
053F
08E7
FB33
14B8
02B8
FF8A
FEE0
FAB0
00F7
0019
08DF
FEAC
0336
0326
FBB6
0733
FAC4
FD64
FE30
0A98
0116
0B97
01ED
0527
FFF8

