00F30
1E972
1FAFF
1FE1C
1FBF9
1FD43
1FE9F
01366
08867
1FFB5
1F526
003CE
1ECEF
00247
029B2
1C385
1FDE6
1FB96
00DC9
1F60B
000EF
00021
1F068
1FE34
005D3
1E35A
1F6FE
1FC90
1F589
1FC39
0FC01
1FD82
1FAB5
001B1
1FC19
1FFE6
1FD58
00FCF
1FB07
004CA
011D2
0000F
1FCCD
00279
0034E
0141B
005A3
1FF71
00496
1FFB3
0023E
1F399
015CF
1F9DB
00332
00024
1FD2E
004D6
00191
1EDCD
00913
1EEE3
1FE1E
1E66F
1FE60
1F856
0017F
00960
00B02
00131
02AA2
1F605
00227
1FB9D
003D9
0029E
00220
1FF6F
1FDE7
0028C
1FEC8
001A8
010B0
1E211
06318
00472
00355
1F959
01123
003D7
0025A
1FD56
00550
0014F
00BCF
00140
1FDF0
1FFB7
1FFA9
1FEB5
00340
03755
000D2
0028A
1F808
1FD0C
1FE2E
1EB06
1FC6F
00201
1FF78
1F9B3
1E7CB
1FFF9
1FFEB
00DF0
1F924
002FB
0014F
000C1
0040C
1FBE5
0019D
1FD97
02462
1FF1B
01907
1E8C0

