1FE5D
00189
011B6
005C1
1F74A
1FDDE
02229
00162
0005E
1E923
0014B
0099E
0183F
1EBC5
0000C
00066
006E1
002B0
1FD7D
1FFD7
1F499
1FF5B
1FDD6
1FE07
011E8
014C4
1FA06
0FC01
1FEA1
002A3
00586
012F9
1F6B3
1E93B
1FDF7
00276
00602
002FF
04228
00062
0077D
1F4D8
1F188
00020
00F9E
001FD
1FBBA
00F67
1FF23
003BD
06512
0FC01
00048
00FC1
1FE6E
00083
01EA1
01821
1FA25
1FFEE
1F9AA
1FEC6
1F536
001A2
00B22
1EC57
001BC
1FA42
1FE01
1F729
0008A
0007B
003C5
00AF9
000D9
1FB3D
1FCC3
1FECD
000A4
1CDD2
0023A
00119
1FF5C
1FB8D
0001A
1E659
1ECEA
0094C
009B0
1FDF8
1FC92
002C5
1FC5C
1FD91
00F8A
1FDC7
1FFA2
0022D
00669
1F9E4
1F24B
1FE0A
1FF02
017B6
00497
1F032
1FDC7
1A1CF
006BF
1F467
1FED4
00271
001B8
1E4ED
00058
0013B
1FFDA
1FFB9
1E729
0011C
1F93E
000DA
01B62
012A4
00056
1FFD0
1FF5D
1FE2A

