1FE0B
00117
00FE0
004ED
1F368
1FD62
00C9F
00106
1FFEC
17EC4
000DF
00892
016E3
1E5F9
1FFBA
1FC60
0069C
00258
1FC2D
1FF57
1F331
1FEB4
1FD53
1FDAA
00F63
012EB
1F9A6
0FC01
1FE2B
0022D
004DA
01063
1F577
1DF04
1FD09
001DD
00587
002AF
0162A
1FFFF
006FE
1ECA3
1F04D
1FFC0
00D2B
00136
1FB57
00D7F
1FE74
00371
02178
08A68
1FFF7
00C72
1FE07
0001A
0166A
01725
1F9C7
1FF22
1F929
1FE5B
1F004
00120
00828
1E62C
0010E
1F93B
1FD57
1EFA1
1FFD1
0001D
00374
0099B
00040
1FADA
1FC41
1FE50
0001A
1C08E
001EF
00093
1FE9F
1FB1B
1FFAB
1E406
1E40C
00800
008F1
1FD59
1FC35
00271
1FC06
1FD13
00E37
1FD59
1FF18
1FB9D
00010
1E15F
1F12D
1FDBC
1FE4D
00EC2
0041B
1EF27
1FD35
186C1
0066C
1F0AD
1FE38
001E0
000EC
1DD6E
1FFC0
000D0
1FF6D
1FF4D
1E433
0008A
1F8EA
1FFF1
01933
0118D
1FFF8
1FF5E
1FEC7
1FD4A

