7ADA
086B
1A67
7B87
7882
00D1
6CE5
7307
5BC6
70A3
7FAC
76A7
7694
0520
0CC8
2348
6903
76FA
743D
083F
1345
07A7
0152
1FA7
41AE
71D9
04BE
6FE4
18BE
0901
4CF9
7E77
0CEC
0721
75C6
08A0
7787
10F0
7116
0921
150A
0BBD
7668
68B2
7AB6
05D2
1956
0D0E
00C3
4E5F
01EE
6BBA
05BC
781A
78AC
7F46
7F07
0F7D
6F08
0149
03FC
0135
79F8
1665

