ECF4
06B0
EF58
03EA
0C34
F51E
01DD
016E
2119
F402
EF45
2A1C
FA18
FD38
E8AD
0B31
8200
10E3
FD29
E442
06E5
FD66
E7B0
CA3D
0575
FE68
0293
F2B9
14F4
F3E9
FE61
EDBA
151B
7E01
FA27
01B0
0497
FF7E
D7AC
F0C2
1454
D7A4
0D61
0BA4
0452
1DF3
0AD6
FBAA
E97F
FB87
080F
01D0
F8FC
E35B
FF37
FE3B
FED0
047F
F594
F3A7
E687
059E
03BF
FDC4

