EF45
075A
F31C
042B
2F55
F6B2
02FE
0208
286C
F54A
F0B9
3231
FA83
FD6F
EC01
0BE3
B380
162B
FD7E
E7E8
0722
FD90
F5B3
D019
0653
FECF
0300
F302
1830
F8EE
FE8C
EF51
1AFF
7E01
FA6F
01FE
04CB
0042
DE1F
F35E
178D
DC0D
2BD9
19F7
0482
31AC
0B91
FE78
E9CB
FD1D
08B8
0241
F988
E3EC
FFD5
FE80
FF02
05D4
F5DA
F3F7
EE13
05D3
03FA
FE5E

