7AD3
0860
19F4
7B7E
787A
00CA
6CD1
72F1
5A7F
709C
7F9D
7654
768F
04FE
0CB8
223C
6753
76F5
7435
0839
1333
0744
014C
1F43
4016
71C7
04AB
6FC9
1829
08EA
475F
7E71
0CE7
06C7
75BB
0880
7776
109F
7109
08FE
14B7
0B8F
7604
685C
7AB0
05C8
1948
0CFA
00BE
4D5F
01E6
6AFC
059B
77F6
7898
7F42
7F00
0F76
6EE2
0103
03F4
0132
79EC
164E

