03B92
00A6F
3CDA0
00DA2
3F09F
3FDDD
004F8
0017F
3F7A8
0048D
3EC6F
015AB
3FA2B
0304A
3FAB2
00FAB
3EB21
3FA0B
0027C
3FEFE
3E754
3F445
00490
3F011
3F852
3E332
009D2
3E2DE
3EDD2
3FE03
00DC1
377CD
00AF5
02B1D
015E1
3FB77
017CE
3F435
00B4D
3CF1E
3F431
3A5CA
3EBE8
3FECD
008CF
3E1B1
0126F
3FE53
3EBD7
3ED10
3F7BE
3C404
3FBBF
003A3
3FD0B
3FDAA
3C8C1
3C465
01099
00546
3F453
01165
0077D
0177B
3D9E8
3FBFE
01BE1
3DC13
3FF58
00EE3
3EB4A
3F4D9
01C41
0070F
3FB2A
3F5E3
020C7
0007F
00961
0189A
02882
01289
3F995
00023
02EEF
020E5
3FA78
3C9B2
3FDC9
00979
3D35B
01233
00013
00C3B
00BD6
3EFF2
002D4
3F7BB
00D8B
0196E
3F9C5
00A75
3FB1C
3F7BA
3EF4B
00670
02114
00903
3E8FB
0052A
0030A
3FF46
3FD9C
3D341
3FC6F
3C244
3FD0A
3FD55
3F16F
01CD3
3E548
3F791
00598
0270E
008B3
3F54D
000F1
01361
01342
3FD6E
3E4F3
3FD0D
3F2B5
3F1BB
3E4AD
3F83E
00EF4
01001
002B8
330BF
0063B
00539
3E2CB
3E5F8
089EA
20800
3F441
3F5E6
00DB6
3F602
3FFBA
0112B
3F173
0096A
3BE93
00C1C
0285A
01701
0043A
0A47D
3EE06
009F8
3ECE3
002A4
01DB1
3EE30
01A32
3FA55
00B11
3FB06
3F8A9
004DC
3ECBE
3FC17
01010
00513
03ADA
3ED33
3DE81
00158
3ED62
004AC
3F1E6
3F9B6
004B0
3AA38
3F166
0048E
3FC82
0074B
3F521
001B6
3F747
3C6BE
008CA
3F509
0011C
3F30B
3DEE1
3FE24
393E6
0156B
3E8AF
3F470
3EFC2
00DAD
0076D
00D9D
012A1
00592
3F930
00623
3ED43
26A80
3F113
3EA7B
01288
00CA8
00444
02334
3F397
3FAE1
3F25E
3DE6F
3FE3A
3F4FB
37045
3F7E5
3FC35
3FC3E
061AD
3F30E
00E89
3A3AE
02043
01DEC
019AE
3F08D
002C5
003CD
3EE53
3F6B3
3F0F6
0038B
3F181
01D2D
0012E
0137B
01067
00B8E
3D2EF
36D55
3FAB6
01DFD
00753
00898

