00EB1
1E8EE
1FA77
1FDDB
1F9FB
1FD17
1FE5E
012D6
05CA3
1FF63
1F39B
00375
1EC10
001F6
024C9
1B789
1FDA4
1FB09
00C60
1F58D
0006E
1FF67
1EFAC
1FDFC
00446
1DF5E
1F5FB
1FBFE
1F50B
1F9A5
08C4A
1FD2C
1F4A3
0017F
1FBB0
1FF6A
1FD2B
00F2F
1F633
0046E
00965
1FF9F
1FC87
00238
002C1
012F1
00562
1FF2B
00460
1FF60
000D3
1F0BA
00DE7
1F99D
002F1
1FF74
1FCE0
00476
0015E
1E6B6
00652
1EC9B
1FDCC
1E5D5
1FE20
1F6AF
000EB
0090A
00A65
000FD
024F9
1ECAC
001F8
1FB24
001AB
001B9
001E1
1FF37
1FC2C
0021B
1FE60
0016A
00E1D
1DDE5
0418E
00429
00300
1F678
00FE7
003A3
0020D
1FD2E
0050C
00115
00921
000E9
1FDB4
1FF7C
1FF5E
1FE66
002CE
02BF9
00095
0024E
1F741
1FCCD
1FDD2
1EA84
1FC23
0018D
1FF39
1F935
1DB2F
1FFC2
1FFB7
00D5B
1F8B6
002A4
1FEB2
0006C
00389
1FB98
00167
1FD63
020E3
1FEB8
01142
1E792

