08F2
01A3
FA41
FEC0
0584
F746
042F
FF1C
FD2D
0291
F7B8
FD43
FB71
06B3
FE64
0F5F
FA70
0638
0077
FF59
014E
05A6
015F
021F
02BD
03FD
08D5
F8EE
FBDF
FAA1
0098
06F1
F637
FF42
F91C
0013
F3A1
00F4
039B
0DC3
00BD
08A0
FFB2
0DD9
0C8A
08A2
346B
037A
FBD0
D376
092F
FF2B
0636
C383
F8F5
FD08
E289
01B7
F6F0
052A
0760
0173
0409
FE1F
00C6
FF57
F897
0C2A
FCF0
2B70
FCD6
03C2
0C33
F936
0309
FF22
FCBA
093D
057D
09DA
005C
FB99
FF51
FD24
021F
F786
0041
FCFD
04C4
FD4C
FD71
FA0C
0A79
D7C6
FADF
F576
059E
0021
06E2
F927
FC09
0425
0006
040B
FDFC
006B
05A5
9700
FA99
FD74
FBA9
0134
EF84
FAF0
FE63
FD19
0052
FCDB
015C
F402
0072
FC66
FDF1
05A7
F8D1
FB56
FC67
FD1F
0352
0303
06CF
47FE
FCC1
00CC
FC5C
FA83
04B2
0308
01A9
0629
03F6
FF82
0905
12A3
00C6
0B55
016A
FA31
0783
0715
0399
FCA9
1133
FF0F
FBA7
0680
FC95
0076
F548
0075
FBEA
FE8A
FAE5
FD3B
FDA0
0036
0943
0454
FA6C
02E9
A15F
0361
0BFA
FF4C
01AC
FE0C
FDCC
028D
ED12
04B8
0430
0251
FE50
089D
01EE
0000
FEC6
FCCB
FCDB
FFBA
0697
FC9C
FD74
FB77
FAF0
0C36
05BB
FC0B
DF1C
F793
0506
F45C
F563
0899
FE26
F82E
01BF
045E
FF0E
018E
FE5B
FD67
FB7B
0503
B9A9
F210
01C6
F6C5
E619
0CFF
FAA7
04AD
0351
0603
FFC7
01C8
F739
04D6
FE7F
05EC
FEF1
FEE1
FCEF
F79D
00D9
F60F
FE77
113C
0287
007C
F833
FA50
0385
FBC5
01EA
FD81
FFB7
0046
01C5
0486
F70C
0554
0093
FC68
024D
043A
F9F0
0A1B
043B
06C4
F4AC
0411
05B2
0030
01D7
014B
5D93
FB4D
02B1
0AEC
0143
FDAC
1254
154D
0589
FF7A
FF58
04A7
FBBD
FB41
FCEB
FE62
FC99
0683
FF92
F5A6
0152
0162
05CF
E872
F67F
097F
EF99
FA5C
00A8
F9B8
0550
0272
A633
06F4
02C6
04D5
FFE2
070D
FE71
FAC3
FC81
024A
0B69
14C3
FFE0
0211
02C7
EE7E
F570
F72F
F7D0
FE7E
0176
FD05
F7AE
F948
03AD
FA0A
F62B
FEE5
07AC
05B3
0623
0606
0096
023D
FB0D
0101
00F8
00C3
FD63
E46D
9700
0031
FBCB
FBDB
0ACE
FD3E
06CD
0446
00BB
FCB8
02CB
03DF
003A
FD06
FC6F
0215
FD2C
FCE8
19A0
0DBF
225A
FE9B
FFAE
FDD7
FF8E
F6A8
010C
0159
FBFA
0D75
EB18
F7B8
FF4D
F68E
FD13
034F
FC9D
FE03
EE87
083B
01C2
1135
026C
06F1
FFAA
0D36
F9C7
FE9D
FF39
FCDF
070E
F2D6
098C
FC9C
FD11
FA32
0101
0084
0CAF
FCD9
FE37
0C6F
FE68
0366
0429
0999
0BA7
03EE
FFD0
02E9
0697
033E
FAC3
FC1F
01BB
F6D5
FC05
F49C
FD1C
FD8B
001A
02B6
01C0
FCE0
0434
0365
03A0
FF4D
E300
024D
FDE6
0512
014C
005B
0068
FEA0
02D6
0191
0A37
F35F
096F
00FB
001C
FCB2
0123
0033
0D09
FBFC
EDFF
0B24
FD9A
FDE6
03C3
023E
04C1
FC33
FF6F
FF9B
FD81
FE23
F83C
0368
F82E
F856
03FA
061F
102F
ED76
FF9E
FFC3
5925
010A
00C5
0912
0145
FBCF
FBBC
03E3
FA7D
0178
010E
F6D9
F817
FBB3
007A
FBA6
FE1E
FDDB
F515
0562
0925
FB69
174C
031E
FFB9
FF12
FADB
0125
004B
0AF3
FF23
035E
037C
FBE5
075F
FB11
FD76
FE58
0B55
0136
0D80
0223
054B
006B

