FA76
0472
F806
FE8B
00AE
019A
0A50
00D0
F958
03D1
FFD7
523C
0A07
FC0B
F7F9
04FB
F97E
FD02
03D5
05B1
FFD6
0077
FEDE
FB30
07AA
0045
05E5
FBFD
FEAA
019A
FE29
FC9E
0716
FC8B
01E5
0CED
01AF
03EA
FBDA
F898
FB4B
0A11
AFC5
01E8
F62C
FE98
FF02
06D5
FB94
EDC8
F647
020F
FE87
C1F5
F75B
0381
F7ED
FF26
011A
02BE
03C7
FFE3
FADC
0281
0466
0677
6901
01A8
05EA
FC0F
FCCF
0179
F72E
00E8
AF1B
001C
FCB8
0020
F7CE
01D0
03EE
0864
00DD
012A
9700
0DE3
0100
006F
FD43
2903
FFD1
FC3A
FF8D
FCD4
0226
FFE7
FF58
0A40
013C
FE78
045F
000D
FAFA
FC89
0051
0475
E992
0189
0317
0B2A
015E
F05F
0401
FFAF
F8DC
0430
FFBD
010E
FBF5
0158
009F
F658
1A4E
FB0D
FFAE
0793
0C31
0574

