0137
F6BC
0271
0566
0611
050F
038D
FA83
FF20
00D1
0829
06C1
D010
BD42
0171
0145
FF3B
271A
F91D
0889
FB7A
F6CB
FD0F
D13B
0008
03EA
0057
FD25
FAD1
FCBD
FC20
FB30
02E7
00AE
02F4
FF68
0A6C
064F
FEEA
0052
FE6E
0019
02B7
FF30
0269
0237
FF93
FF8E
FB56
FBEE
F3B1
F7A9
0153
04EA
F677
048C
01A6
05B5
F57C
0F4B
FA30
FD59
0466
FC44
0655
03EF
0126
0A8B
0FAB
0489
FE33
F4F0
E462
FA3A
0251
04BB
F9FD
106A
ECBC
FE64
F92B
FEC6
0596
00DC
DD53
FBB6
0425
03BD
01F3
0D41
FDB6
013F
F791
0334
0813
06D3
FE7C
EEAD
FA10
FCBC
034A
03CC
032C
F627
FD56
FCC1
FF23
04EA
FE71
F25B
FC7B
FBCF
FDBC
FBDF
FDFC
F806
E6D2
00CF
FBA8
015C
FB95
FDB1
FB45
FEF1
0991
FBC6
FE3D
01FF

