020F
77CF
02B0
0801
065F
063D
046D
7AC0
7F64
0117
0916
0A83
56DD
49C4
01FD
01A1
7F72
2FC7
7950
09F0
7BB8
7840
7D89
5E51
003B
0460
0080
7DC3
7B0F
7CF9
7CAB
7B7D
031E
00E9
031C
7F9D
0C3F
07DB
7F35
0099
7EA6
0052
031A
7F68
02B2
026B
006D
7FE5
7B98
7C28
7506
78B3
01C9
051C
7713
04CF
01E9
0623
79BF
132D
7A70
7DA9
04A6
7C8B
0DE1
0432
016F
0B4E
1AEE
04C6
7E92
765B
6C82
7A7F
0293
04EF
7B88
191C
7040
7E98
7965
7F05
0675
0126
6B86
7BFF
0468
0401
0238
0E3C
7DF7
0173
77E0
036B
0862
0710
7EBE
7700
7A55
7CF6
0382
040F
0350
7783
7DC0
7CFE
7F76
0539
7ED0
7462
7CE8
7C2A
7E10
7C87
7E49
78A7
741A
0144
7BF7
0194
7BD1
7E06
7B8C
7F33
0C55
7C04
7E73
0248

