08F2
0584
FD2D
FB71
FA70
014E
02BD
FBDF
F637
F3A1
00BD
0C8A
FBD0
0636
E289
0760
00C6
FCF0
0C33
FCBA
005C
021F
04C4
0A79
059E
FC09
FDFC
FA99
EF84
0052
0072
F8D1
0352
FCC1
04B2
03F6
00C6
0783
1133
FC95
FBEA
FDA0
FA6C
0BFA
FDCC
0430
01EE
FCDB
FD74
05BB
0506
FE26
FF0E
FB7B
01C6
FAA7
FFC7
FE7F
FCEF
FE77
F833
01EA
01C5
0093
F9F0
F4AC
01D7
02B1
1254
FF58
FCEB
FF92
05CF
EF99
0550
02C6
FE71
0B69
02C7
F7D0
F7AE
F62B
0623
FB0D
FD63
FBCB
06CD
02CB
FC6F
19A0
FFAE
010C
EB18
FD13
EE87
026C
F9C7
070E
FD11
0CAF
FE68
0BA7
0697
01BB
FD1C
01C0
03A0
FDE6
0068
0A37
001C
0D09
FD9A
04C1
FD81
F82E
102F
5925
0145
FA7D
F817
FE1E
0925
FFB9
004B
037C
FD76
0D80

