07B8
0562
FD0A
FB4B
FA4B
0132
0299
FBBF
F5D6
F268
009D
0C34
FBC0
0612
DFF6
06FB
00AC
FCC6
0A7C
FC9A
002E
0200
0496
0A4F
0513
FBE9
FDDB
FA79
ECB2
000B
0052
F8B3
0332
FC98
045E
03D8
00A0
0646
0FCF
FC6A
FBBB
FD74
FA32
0B7C
FDA6
03F9
01CE
FCB8
FD60
059C
04D1
FDFA
FEEC
FAFE
01AB
FA87
FF6B
FE53
FCC5
FE53
F7D5
01C2
01A9
006C
F9C9
F45F
01BE
0294
0EAC
FF31
FCD1
FF71
05AF
EE08
0526
02A4
FE51
0B20
02A0
F776
F78B
F597
05F6
FAE5
FD40
FBA3
05B6
02B8
FC5B
16A9
FF86
00EA
E687
FCF9
EA6D
0243
F9A4
06E2
FCE4
0C00
FE41
0A3A
067A
0196
FCDE
019B
037F
FDA9
003D
092E
FFFF
0C7D
FD74
04A0
FD65
F742
0F0C
411D
00D8
F9C8
F787
FE07
08FC
FF9A
0029
0342
FD6A
0C3A

