FA58
044C
F7DA
FE75
008F
0178
0978
00B0
F935
03B2
FFC2
4133
098C
FA48
F762
0471
F8FA
FCE9
0360
0593
FF8A
0058
FE0D
FB01
0738
0021
05C0
FBCD
FE81
0177
FE09
FC7E
06ED
FC70
01C3
0AB2
0187
03BC
FBBD
F6B3
FB11
099C
A78B
01C6
F0F9
FE6E
FEDF
06B1
FB37
E566
F5C5
01E1
FE6E
BD37
ED7E
0366
F786
FF08
00F5
029F
03A2
FFCA
F8AF
0263
044D
0606
62C1
016F
05B2
FBE0
FCB0
0162
F6CA
00C4
AA04
FFFB
FC99
FFFB
F674
019D
03C9
07FB
00B4
010E
9700
0C20
00D9
0051
FD36
2535
FFAB
FC16
FF69
FCB5
01ED
FFC4
FF46
09D9
011A
FE53
0440
FFEA
FADB
FC3E
0032
0450
E5D1
0166
02F2
0A2D
013C
EF04
03DD
FF8A
F881
0411
FFAB
00E4
FBD4
012E
008A
F5A0
1896
FAF1
FF5E
0775
0BB3
055C

