00E77
00208
016A5
01091
1FF87
1F0E4
1E398
19E9C
1FC31
1D74C
1FFB6
1FED9
1C5A6
1FE53
005B7
02096
1DEFD
1F55E
1F66E
01A0F
00098
1CC68
01538
1F059
01A01
1F84C
009C5
0003B
1C764
01E7E
02825
01461
1FD71
1F91E
1545D
1E66E
1F63C
01305
00CB4
0D15B
00384
1FADA
00559
0058C
001AA
1FA6E
005D6
0021F
1F5BF
1FF19
1F50C
00EAC
00726
1EBB1
027A6
1E276
1F8F4
1F398
01F7B
00461
00485
01410
1907B
00936

