1D19A
005A7
1ECDD
1FB5C
00323
004E2
00A1B
00E09
01632
00BB8
1EC63
0141A
1F83E
1FDB1
010F9
00815
02076
1EC19
1FBEE
009CE
1FA41
1FAC8
1DA2D
00C48
00DFB
1FBAC
02249
003C5
1FCBB
1F1C5
005E4
00139
1E590
1E54D
00357
1E39A
1F493
00082
1C352
0049A
1EDA0
01AF0
1F917
0104C
1DEE1
1F269
1F1BA
1F5A2
00928
1DF38
1E8E6
007DB
1F97A
1F1AB
00484
1F360
17FD1
06DF2
02122
00321
1F13C
001C7
1D5B7
0078D

