00B6D
3FE7A
00528
03B6E
3FB12
3F598
3E679
3FE8F
02F97
3F4D4
3AE57
3E274
3EDE0
00484
3CDF0
0161F
3FD19
0124A
007B3
00114
013C3
0229C
00A0A
00CCD
3F868
00B0C
0072D
00675
3D4A8
3FDE4
3F8FF
3F5C7
3FDFF
3F2FC
010B6
0066E
20800
3F741
00A0D
01934
00A98
3EEF8
3FBAE
3FD47
3EE77
00577
3C153
007C8
3D3A2
3F3BC
01E61
00EFB
0065E
2879D
00DDE
3FB84
3F5F2
3FDB8
3AC5D
3F13F
3F77A
01FB4
00CDA
01FFE

