EE37
070D
F166
040D
1F5E
F5FA
027B
01C2
2518
F4B5
F010
2E85
FA52
FD56
EA7E
0B93
8200
13C4
FD57
E63F
0707
FD7D
EF55
CD6F
05EE
FEA0
02CE
F2E1
16B8
F6A6
FE79
EE98
1852
7E01
FA4E
01DB
04B3
FFE9
DB31
F22E
1616
DA0C
1E00
1374
046C
28B5
0B3C
FD32
E9A8
FC64
086B
020E
F948
E3AA
FF8D
FE61
FEEB
0539
F5BB
F3D3
EAA5
05BB
03DF
FE18

