EEA3
072C
F215
0419
25C1
F644
02AF
01DE
266D
F4F1
F053
2FFD
FA66
FD60
EB18
0BB3
90F0
14BA
FD67
E6E9
0712
FD84
F1E1
CE80
0616
FEB3
02E2
F2EE
174E
F790
FE81
EEE2
1964
7E01
FA5B
01E9
04BD
000D
DC5D
F2A8
16AC
DAD9
238A
160F
0475
2C4B
0B5E
FDB4
E9B6
FCAE
088A
0222
F961
E3C4
FFAA
FE6D
FEF4
0577
F5C7
F3E1
EC04
05C5
03EA
FE34

