0260
7836
02C8
08FB
067C
06AF
04C1
7AD7
7F7D
0131
096F
0BEC
596A
4E74
0232
01C3
7F87
3307
7963
0A77
7BCF
78CC
7DB7
6339
004D
048C
008F
7DFE
7B27
7D0F
7CDF
7B9A
0332
00FF
032C
7FB1
0CEE
0870
7F51
00B4
7EBB
0068
033F
7F7C
02CD
027F
00BE
0005
7BB1
7C3E
7585
7917
01F5
052F
774E
04E8
0203
064C
7B58
14A1
7A88
7DC7
04BE
7CA6
10B5
044C
018B
0B97
1F27
04DD
7EB6
76E4
6F8E
7A98
02AC
0503
7C1D
1C5F
7192
7EAB
797B
7F1C
06C9
0141
70D9
7C1A
0481
041A
0252
0E9B
7E10
0186
77FD
037F
0880
0726
7ED6
7A1F
7A6F
7D0C
0397
0428
035E
7805
7DE8
7D15
7F96
0557
7EF3
7524
7D10
7C4C
7E30
7CC6
7E66
78E3
7914
0170
7C14
01A9
7BE8
7E26
7BA7
7F4B
0D5F
7C1B
7E87
0263

