01BE
7768
0299
0707
0641
05CC
0419
7AA9
7F4A
00FD
08BD
091A
5450
4513
01C8
017F
7F5E
2C86
793D
096A
7BA1
77B4
7D5B
5969
0028
0433
0070
7D88
7AF8
7CE3
7C77
7B60
0309
00D3
030D
7F89
0B90
0746
7F19
007F
7E91
003D
02F5
7F53
0296
0258
001B
7FC5
7B80
7C12
7486
784F
019D
0509
76D9
04B6
01D0
05F9
7826
11B8
7A58
7D8B
048E
7C71
0B0C
0419
0154
0B05
16B5
04AF
7E6E
75D3
6976
7A65
027B
04DC
7AF4
15DA
6EEF
7E84
794F
7EED
0621
010A
6633
7BE4
044F
03E8
021E
0DDE
7DDF
015F
77C2
0356
0845
06F9
7EA5
73E1
7A3B
7CE0
036D
03F6
0343
7700
7D98
7CE7
7F57
051B
7EAC
73A0
7CBF
7C08
7DF1
7C48
7E2C
786B
6F1F
0118
7BD9
017F
7BBB
7DE6
7B71
7F1A
0B4C
7BED
7E5F
022C

