FA23
0409
F78C
FE4D
0058
013E
07FD
0079
F8F9
037C
FF9D
2362
08B3
F731
F659
037F
F813
FCBC
0294
0560
FF06
0022
FCA1
FAB0
0670
FFE2
0580
FB78
FE3A
0139
FDD1
FC48
06A6
FC41
0187
06C9
0142
036B
FB8A
F364
FAAB
08CD
9925
018A
E7DF
FE26
FEA3
0674
FA92
D6BA
F4E2
0191
FE41
B4EB
DC3C
0336
F6D1
FED3
00B4
0268
0360
FF9E
F4DF
022F
0422
0541
56AA
010A
0552
FB8F
FC7A
013B
F61A
0083
A11C
FFC1
FC61
FFBB
F415
0143
0388
0743
006E
00DC
9700
090B
0094
001C
FD1F
1E8C
FF68
FBD6
FF28
FC7D
0189
FF87
FF27
0925
00DF
FE11
040A
FFAC
FAA3
FBBA
FFFB
040F
DF3F
0129
02B1
0872
0101
ECA4
03A0
FF4A
F7E1
03DC
FF8C
009C
FB9B
00E4
0065
F45D
1594
FABF
FED3
0742
0AD7
0533

