EADE
FE3B
FFBE
FBBB
FBB5
FE26
FC6A
0448
03C0
1886
0D99
E091
FF7C
FBE4
FDC6
043A
FC66
0548
041E
FF0E
CFD7
0056
EDE8
137B
F7C0
04EE
00FF
016A
F72B
F16E
FE65
FCDA
FEF1
017E
01EE
025C
FFF0
F8A7
19BF
06AF
F87D
0402
02DE
03CE
036C
0011
F401
04C6
1FBC
013D
05F7
FE8E
FB20
FF94
048C
04C1
FF3E
FDC6
F9A9
FFCD
0449
F74E
0373
1301
EF23
FFFB
FC93
04FB
FDE9
023F
FEBE
F5E4
0368
EA25
F8D6
FBEB
0112
FDD6
FD23
0002
FF53
01A1
FF88
BDFB
FFD5
04D8
1190
FDC4
0374
FE7D
FB44
EED0
FF30
FF50
FECE
029C
FD5F
0030
FFB9
FDEC
FD27
0104
01D5
F7CB
FF23
0289
FDC3
01FA
FA9B
0125
FF18
00E1
FF7B
0EE1
A39F
F8A9
0DD2
F475
00C5
FC56
FE42
0B59
FD87
FF90
F8AC
1A39
00B3
04DA

