FBA7
EB2B
FF1A
FC93
FB62
0839
FAC7
FB43
0981
FA05
0974
F9DE
01D1
A000
00C0
FA4F
0193
FC0A
F98C
022A
7001
BD41
FC63
F987
0237
FD8E
ECAF
092D
FF53
FD9C
FAF3
FCF9
0084
FB15
F515
03CC
DA5E
0034
FFD2
F3A4
05D0
FB8B
F675
F770
F552
0069
09C4
050B
F1E8
006B
0796
FEF3
118A
FC58
FC8A
FBCD
FBC9
0781
FDDA
0705
0013
0241
0653
FB9C
FE76
FFF2
FAB4
FDB9
03A5
0289
F168
F602
FD19
FBEE
F301
C7BB
F632
0AF7
FAF7
FCA4
FB12
FF39
FE78
FC59
FE48
0044
013A
005B
01C0
0108
00E7
0271
F969
14A3
1527
062F
1134
07BB
FF1F
0002
4B39
F9C3
0046
F231
FDB7
FD3D
FB7B
FB4F
0219
0291
F786
FDB7
FD57
FC29
FBCD
01BB
060B
01FB
7001
FCC5
E795
04C1
FE0B
FB0D
FE08
F939
FBB8
099D

