FE24
16C4
2D65
05F3
F614
0080
FB36
FA6C
FDBE
0269
FC90
F983
0588
FC9A
FF10
0179
011F
FE50
0167
0410
024C
F6F0
FCA9
FBB6
0232
0327
0265
F8E8
0135
C820
F9A9
0387
FCDF
FF59
EEB0
FDDD
005E
EA68
01BB
000E
10D7
EE72
FFDE
FD0F
1474
04D5
FE00
041A
FF96
A0D8
F971
E9CE
D620
FD1A
0875
0014
0750
F979
014B
F9C6
FF4C
F66A
0158
0073
02B5
01D7
02DA
05B8
FCD8
013A
0495
10C2
003E
F7FF
0084
FE2F
EA48
0055
FE10
F933
0551
FCC3
03B1
0203
FEFF
0292
F6FC
0310
0623
FF62
0141
0056
FF2B
001F
E8BF
FC1E
FE43
FE21
FD80
F800
FFA6
F53B
00FE
0678
002B
FF56
04A9
0246
048C
056C
E08F
004C
DA29
025D
021C
04CA
F3E2
367D
FF44
FC38
FF43
0156
F8B3
FC2B
7001
0A00
137E
FF45

