0E9F
E8DB
FA63
FDD2
F9B2
FD11
FE55
12C2
5662
FF58
F363
0369
EBF0
01EA
2415
B5D3
FD9B
FAF4
0C2C
F57C
005B
FF4C
EF91
FDF4
040E
DECD
F5D6
FBE9
F4FA
F947
75F4
FD1F
F3C5
0178
FBA1
FF58
FD24
0F18
F583
0461
0830
FF8F
FC7D
022F
02AD
12C6
0559
FF21
0458
FF54
00A0
F051
0CC6
F994
02E7
FF5B
FCD4
0468
0157
E5B3
05ED
EC48
FDC1
E5BF
FE17
F672
00D5
08FE
0A4F
00F5
242A
EB57
01F1
FB12
015B
0199
01D8
FF30
FBED
020B
FE51
0162
0DBE
DD4D
3CC4
041F
02F4
F60F
0FB9
039C
0202
FD28
0503
010D
08BF
00DD
FDAB
FF73
FF54
FE5A
02BE
2A59
008C
0245
F725
FCC5
FDC5
EA71
FC19
017D
FF30
F923
D962
FFBA
FFB0
0D46
F8A6
0298
FE52
0060
0376
FB8D
015F
FD5C
2063
FEAA
1025
E767

