1FE4E
00174
01161
0059A
1F695
1FDC7
01E3E
00152
00049
1D5CC
00137
0096D
01800
1EAB7
1FFFD
1FFAB
006D5
002A0
1FD40
1FFC0
1F458
1FF3D
1FDBE
1FDF6
01173
0146E
1F9F4
0FC01
1FE8B
0028E
00567
01281
1F679
1E75F
1FDCB
0025A
005EC
002F0
03A28
00050
00766
1F35A
1F14F
0000F
00F2C
001D9
1FBA8
00F0E
1FF03
003AF
058C7
0FC01
0003A
00F27
1FE5B
00070
01D23
017F4
1FA14
1FFC9
1F992
1FEB2
1F444
0018A
00A98
1EB38
0019D
1FA12
1FDE2
1F5CB
00069
0006A
003B6
00ABA
000BD
1FB2B
1FCAC
1FEB6
0008B
1CB68
0022D
00101
1FF39
1FB78
00006
1E5ED
1EB4E
0090F
0098E
1FDDB
1FC81
002B6
1FC4C
1FD7A
00F4C
1FDB3
1FF89
000FC
00542
1F56F
1F217
1FDFC
1FEE1
01615
00480
1F001
1FDAD
19CE4
006B0
1F3BA
1FEB7
00256
00193
1E390
0003D
00127
1FFC6
1FFA6
1E69F
00101
1F92F
000AF
01AFC
01271
00045
1FFBB
1FF42
1FE02

