00F66
1E9AB
1FB39
1FE38
1FCD4
1FD56
1FEBB
013A4
09B28
1FFD8
1F5CF
003F4
1ED4E
00269
02BCC
1C8A8
1FE02
1FBD3
00E63
1F640
00127
00071
1F0B8
1FE4C
0067D
1E510
1F76D
1FCCE
1F5BF
1FD53
0FC01
1FDA7
1FD4F
001C6
1FC46
0001C
1FD6C
01013
1FD18
004F2
0156E
0003E
1FCEB
00295
0038A
0149B
005BE
1FF8F
004AE
1FFD7
002D9
1F4D4
01932
1F9F5
0034E
00070
1FD50
00500
001A7
1F0D7
00A41
1EFDD
1FE41
1E6B1
1FE7B
1F90B
001BE
00985
00B45
00148
02D0F
1FA06
0023B
1FBD2
004C8
00300
0023B
1FF86
1FEA5
002BD
1FEF5
001C2
011CB
1E3DB
07177
00491
00379
1FA94
011AA
003ED
0027B
1FD67
0056D
00168
00CF5
00165
1FE0A
1FFD0
1FFC9
1FED7
00371
03C33
000EC
002A4
1F85D
1FD27
1FE55
1EB3D
1FC8F
00233
1FF93
1F9E9
1ED32
00010
00002
00E30
1F953
00321
0026E
000E6
00444
1FC05
001B3
1FDAE
025E1
1FF45
01C5C
1E941

