ED3C
FC25
FED1
F091
0067
FF84
FC4A
FD27
FC63
FBC1
FE98
08A6
FCCF
FB3A
0509
FBB8
0434
0E8E
1B21
FAAC
1099
0A04
E385
FA74
0024
0274
FCED
B384
FE24
0144
04BF
FAFF
FCF4
023B
06F1
FCAC
0476
FA10
FFA2
02E9
E103
7001
00C2
CBA2
F06F
FCE0
1589
FA40
F83C
02AF
0569
FE06
0181
EE34
01B2
0CA7
F79C
FFE4
F3F9
FE04
FEBC
FB73
FD64
FD76
FF7F
0106
01F1
FB88
02A2
F5B4
02DF
0457
0062
E14C
F90B
00AC
1E92
00AB
071C
F64A
F911
0692
0468
FC07
0374
F709
0460
F80F
0405
F5ED
0080
00DA
F541
0B0E
0546
0585
2583
F550
01CE
011A
064B
0801
FF29
FF7F
FBD4
1321
0035
FCC1
04EF
FD67
054A
FC31
FFB7
FCB4
FE3E
0806
FA0C
FE51
0003
0877
04F0
0092
F89D
02B2
043A
070E
1547
FC35
F08E
FEFC
005C
00D6
FD1A
FB5D
052D
FE5D
FE7D
0434
02C4
0320
FF7F
F49A
F8B4
F6A9
03CD
FD8B
ECB4
FC7E
F94B
F513
FC4D
D479
0178
F6AC
FE64
0D09
FDB4
FB7F
006D
FD79
FFD3
FBA6
020A
FFDC
FFE4
FF19
C931
FD05
004E
FED1
0538
00AA
1536
0210
0090
00B5
03C4
029F
FF2D
01B8
FBE3
01C2
F1FC
07D7
FFD8
FAB7
FFE9
16AC
FF91
184B
033E
06A3
FDCC
1B28
0088
0859
0049
FF7A
FE64
009B
FD88
6736
0179
FA8A
0237
00C8
F833
F2F3
FFB0
FE71
02F2
FDD1
FE31
FC45
025A
FBFE
FB21
02DC
0186
0314
FF7B
F83E
0149
FE23
FFEB
FDAB
1075
FD48
B251
FC7B
F91C
027B
0FDD
06B1
F68C
02BA
0136
7001
FCEC
FD5B
FEA4
EAA8
0D2D
055A
FDE3
FE62
001B
FB7B
F93B
FEB8
1D6C
F9D7
0165
FC6E
0556
0A36

