EADE
FBC1
FE3B
EC3F
FFBE
FF2F
FBBB
FCB0
FBB5
FB75
FE26
084F
FC6A
FADE
0448
FB5B
03C0
0A84
1886
FA26
0D99
0991
E091
F9FC
FF7C
01F2
FBE4
A3E7
FDC6
00DA
043A
FA72
FC66
01B4
0548
FC2A
041E
F9A7
FF0E
0250
CFD7
7001
0056
C021
EDE8
FC7C
137B
F9AC
F7C0
024F
04EE
FDA6
00FF
ECFD
016A
09DF
F72B
FF70
F16E
FDB1
FE65
FB0C
FCDA
FD12
FEF1
009E
017E
FB2C
01EE
F534
025C
03E8
FFF0
DBC1
F8A7
004C
19BF
FFFD
06AF
F42B
F87D
05F7
0402
FBA4
02DE
F692
03CE
F790
036C
F571
0011
007F
F401
0A06
04C6
0523
1FBC
F297
013D
008E
05F7
07AB
FE8E
FF0F
FB20
11DB
FF94
FC6D
048C
FCB6
04C1
FBE1
FF3E
FBF8
FDC6
079B
F9A9
FDF2
FFCD
074F
0449
002C
F74E
0258
0373
0678
1301
FBBB
EF23
FE90
FFFB
0020
FC93
FAD6
04FB
FDDA
FDE9
03C2
023F
02A7
FEBE
F20C
F5E4
F624
0368
FD30
EA25
FC0B
F8D6
F36B
FBEB
CA47
0112
F64A
FDD6
0B61
FD23
FB12
0002
FCCF
FF53
FB30
01A1
FF5A
FF88
FE98
BDFB
FC7B
FFD5
FE64
04D8
0059
1190
0164
FDC4
006D
0374
01EC
FE7D
012B
FB44
0113
EED0
0385
FF30
F9AC
FF50
150B
FECE
15C8
029C
0646
FD5F
1332
0030
07DB
FFB9
FF31
FDEC
0021
FD27
50D2
0104
F9EB
01D5
0060
F7CB
F258
FF23
FDDC
0289
FD5A
FDC3
FBA3
01FA
FB72
FA9B
0240
0125
02AB
FF18
F7AB
00E1
FDCC
FF7B
FD68
0EE1
FC62
A39F
FBF0
F8A9
01E1
0DD2
062C
F475
0221
00C5
7001
FC56
FCE3
FE42
E832
0B59
04E0
FD87
FE1C
FF90
FB23
F8AC
FE2B
1A39
F959
00B3
FBDD
04DA
09BC

