EE1F
FC4B
FF09
F22F
00A6
FFA4
FC7F
FD54
FCA5
FBDE
FEC3
08C7
FCF4
FB5D
0552
FBDB
0460
1012
1C1B
FADE
11B9
0A2F
E4A0
FAA1
0063
02A5
FD50
B95F
FE48
016B
04F1
FB34
FD2A
026E
0790
FCDD
0497
FA37
FFD9
0322
E773
7001
00EB
CFF3
F162
FD06
164F
FA77
F86B
02D3
0597
FE2B
01B1
EEA9
01CE
0DB2
F7C6
0010
F4ED
FE23
FEDC
FB99
FD98
FD9B
FFB4
012C
021C
FBAB
02E6
F5E4
0311
0481
008C
E360
F931
00D0
2061
00EC
0745
F716
F948
06CC
048E
FC2C
03AD
F735
0497
F83E
043F
F61C
00A9
00FC
F5B8
0B70
0576
05AA
27AE
F655
0204
014E
066A
0822
FF63
FFA9
FC17
139B
0071
FCE0
0515
FDA9
057E
FC4F
FFE5
FCFA
FE6B
082E
FA31
FE75
0017
08E6
052F
00B9
F91B
02D3
0484
0746
1621
FC63
F116
FF24
0080
011B
FD4C
FB8F
053F
FE8E
FEB5
045F
02F5
034E
FFC8
F590
F9C3
F6DB
03F3
FDAD
EDA9
FCAA
F977
F5B2
FC71
D84C
019F
F6D1
FE9A
0DA8
FDEB
FBA8
0095
FDB9
0003
FBD2
0231
000D
0007
FF4A
CD66
FD39
007B
FEFA
055C
00C9
1694
0250
019C
00D1
03E2
02E2
FF6F
01ED
FC1F
0204
F32D
0975
0017
FB1B
0022
1748
FFDA
193D
037B
06C5
FDF6
1E24
00AA
0888
007F
FF95
FE91
00C8
FDAC
6F9C
01A5
FAC5
025C
00EF
F85A
F32D
FFE4
FEA8
031A
FDFD
FE5B
FC81
027E
FC32
FB53
0317
01AA
033B
FF9F
F875
0170
FE44
0015
FDC4
110C
FD9E
B7D4
FCAF
F947
02B5
10A2
06E3
F754
02F3
0161
7001
FD25
FD88
FEC8
EB95
0DDD
0588
FE06
FE7D
004F
FB9C
F971
FEEC
1E9F
FA06
01A8
FCA4
0585
0A64

