FAC6
0849
190E
FB6B
F86B
00BD
ECA9
F2C4
D7F2
F08D
FF7E
F5AD
F685
04BA
0C99
2024
E3F4
F6EA
F426
082C
1310
067D
0141
1E7C
BCE6
F1A4
0485
EF93
1700
08BA
BC2C
FE66
0CDC
0612
F5A7
0840
F753
0FFD
F0F0
08B8
1412
0B34
F53D
E7AE
FAA3
05B5
192D
0CD3
00B2
CB5F
01D7
E980
0559
F7AE
F872
FF39
FEF3
0F69
EE97
0078
03E2
012A
F9D5
161F

