FBFF
EEF2
FF64
FCFB
FBA5
0886
FB18
FB95
0D0A
FA7A
09D9
FA47
0243
ADA9
011C
FACA
0209
FC7B
F9E8
02B0
7001
C752
FCBB
FA08
028B
FDE2
EDBF
0B9C
FFB9
FDE5
FB4C
FD50
00DF
FB66
F584
042D
DF38
0088
006A
F57F
0658
FBE2
F6DC
F7DF
F5BE
00B8
0AAB
0561
F44A
00E5
07E1
FF55
12A7
FCA1
FD24
FC13
FC6D
07DE
FE2D
0808
006C
0290
06D6
FC07
FED3
0092
FB2A
FE2C
0409
02F3
F3A5
F677
FD69
FC53
F474
D0A7
F687
0C6A
FB56
FD39
FB7A
FFAB
FEE9
FCD2
FEA8
008C
01CF
009A
025C
0183
0180
0638
FA53
1610
175A
0680
182B
0829
FF5F
006D
5ED0
FA4E
00A1
F2B8
FE39
FDA5
FC08
FBC9
02A2
02EC
F807
FE03
FD92
FCF2
FC47
0241
067F
0281
7001
FD2E
E9BC
052C
FE48
FB5A
FE83
F9A8
FC37
0A08

