ECF0
FEBE
0052
FC38
FC4E
FE8A
FCC2
04F1
0426
1ACE
1039
E326
000F
FCCC
FE19
04AE
FCE3
06BC
046B
FF90
DEDD
00B5
F01E
1548
F82D
055A
0171
01A9
F78E
F3A8
FEB1
FD53
FF6D
01E2
028C
02CF
0054
F8FE
1DF7
070F
F8FE
045B
0362
044E
03F2
0072
F519
0536
24CA
01BB
0640
FF15
FBBD
0021
04E3
0539
FFA8
FE2F
FA00
FFFC
04DB
F873
0421
14FE
F061
0050
FD09
0526
FE6B
02B3
FF67
F85A
03C0
EC62
F93C
FC40
016C
FE53
FDA2
005F
FFC3
01FD
FFD9
C7CA
003E
052C
14C1
0037
03BA
FF17
FBD0
F197
FFC3
FFD6
FF78
032A
FDBF
007D
0037
FE55
FD7C
016A
022B
F826
FF9E
02E5
FE24
024E
FB10
017A
FF6E
013C
FFDD
1042
B07B
F90D
0F9C
F649
0128
FCDA
FE98
0CF3
FDD8
000A
F929
1D05
014F
0547

