EC0D
FE86
0013
FC02
FC0C
FE5F
FC9C
04A9
03FA
19D4
0F19
E20B
FFD0
FC68
FDF5
047D
FCAD
061C
044A
FF58
D86D
008C
EF2C
1482
F7FE
052B
0140
018E
F764
F2B4
FE90
FD1F
FF38
01B7
0248
029E
0029
F8D9
1C28
06E6
F8C7
0435
0329
0417
03B9
0048
F4A1
0506
22A0
0185
0621
FEDC
FB7A
FFE5
04BE
0505
FF7B
FE02
F9DB
FFE8
049C
F7F6
03D6
1424
EFD9
002C
FCD6
0514
FE33
0281
FF1F
F74C
039A
EB6D
F910
FC1C
0145
FE1D
FD6B
0037
FF93
01D5
FFB6
C396
0011
0508
1363
FF2A
039C
FED5
FB94
F066
FF84
FF9C
FF2F
02ED
FD96
005C
0001
FE28
FD57
013E
0206
F7FF
FF69
02BE
FDFA
022A
FADE
0155
FF49
0115
FFB3
0FAB
AAF8
F8E2
0ED8
F580
00FE
FCA1
FE73
0C43
FDB5
FFD6
F8F3
1BD2
010C
0518

