FE60
1971
31CB
064E
F708
00CA
FCEE
FAAD
FDF4
02E4
FCC6
F9C9
05F1
FCEB
FF73
01D8
0167
FEC2
01A8
0451
028A
F73B
FD0D
FC21
028C
036B
02A3
F930
0168
CC58
F9E1
03D6
FD36
FF9F
F008
FE29
00BD
EBA1
021A
0057
124B
EFDB
0048
FD5B
167F
0527
FE4A
046A
FFE1
A823
F9B8
EDFD
DA98
FD4C
08B2
0051
0764
F9B8
0187
FA1A
FF7C
F6B2
01A4
00BF
0302
0231
0345
061E
FD35
0185
04CF
11D6
00A0
F91D
00E6
FE90
EBA5
0099
FE61
F975
0591
FCF8
043D
0245
FF6A
02D2
F745
0374
0669
FFE8
0184
00A8
FF72
0077
EB71
FC7B
FE9B
FE81
FDEC
F859
FFEA
F576
013A
07E4
006E
FF9D
04E9
027E
04C7
05B5
E491
0081
DD59
0292
0267
0506
F43E
3E7A
FF8D
FC8F
FF8D
01BE
F8EA
FC7E
7001
0B4B
16F9
FF7B

