FE90
1B95
3550
0697
F7CB
0106
FE4E
FAE1
FE1F
0346
FCF1
FA01
0645
FD2B
FFC2
0225
01A0
FF1E
01DC
0485
02BB
F777
FD5E
FC78
02D4
03A1
02D4
F96B
0190
CFB8
FA0E
0416
FD7B
FFD7
F11C
FE65
0109
EC9B
0266
0092
1375
F0FB
009D
FD99
1821
0569
FE84
04AA
001D
ADF8
F9F1
F156
DE2C
FD74
08E3
0082
0775
F9EA
01B8
FA5D
FFA2
F6EC
01E1
00FC
033F
0278
039B
066F
FD80
01C1
04FD
12B3
00EE
FA02
0134
FEDD
ECBC
00D0
FEA2
F9A9
05C4
FD23
04AD
0279
FFC0
0306
F77F
03C5
06A1
0052
01B8
00E9
FFAB
00BC
ED99
FCC5
FEE1
FECF
FE42
F8A0
0021
F5A4
016A
0906
00A5
FFD5
051C
02AA
04F6
05F0
E7C5
00AB
DFE7
02BC
02A4
0536
F488
44DD
FFC8
FCD4
FFC8
0212
F916
FCC1
7001
0C54
19C1
FFA6

