FEA8
1CA6
3713
06BB
F82D
0123
FEFE
FAFB
FE35
0377
FD06
FA1D
066F
FD4B
FFEA
024B
01BD
FF4C
01F6
049F
02D4
F796
FD86
FCA3
02F8
03BC
02ED
F988
01A4
D168
FA24
0435
FD9D
FFF4
F1A6
FE84
012F
ED18
028C
00B0
140A
F18B
00C7
FDB7
18F3
058A
FEA2
04CA
003C
B0E3
FA0E
F303
DFF6
FD88
08FB
009B
077D
FA04
01D0
FA7E
FFB5
F709
0200
011A
035D
029C
03C6
0698
FDA5
01DE
0515
1321
0115
FA74
015B
FF04
ED48
00EC
FEC2
F9C4
05DD
FD38
04E4
0293
FFEB
031F
F79C
03ED
06BD
0087
01D3
010A
FFC7
00DF
EEAD
FCEB
FF04
FEF5
FE6D
F8C4
003D
F5BC
0182
0998
00C0
FFF1
0535
02C1
050E
060E
E960
00C1
E12D
02D1
02C2
054E
F4AD
480F
FFE5
FCF6
FFE6
023B
F92C
FCE2
7001
0CD9
1B26
FFBB

