FC3E
F1A5
FF99
FD45
FBD4
08BC
FB52
FBD0
0F90
FACD
0A20
FA92
0295
B76B
015E
FB22
025D
FCCC
FA2A
030F
7001
CE83
FCF9
FA65
02C7
FE1E
EE82
0D59
0001
FE19
FB8D
FD8F
011F
FB9F
F5D4
0473
E2AE
00C4
00D7
F6D2
06B9
FC20
F727
F82F
F60C
00F1
0B4F
059E
F5FE
013D
0817
FF9B
1373
FCD6
FD93
FC45
FCE3
0820
FE69
08C1
00AC
02C8
0733
FC54
FF16
0104
FB7E
FE7E
0451
033E
F53E
F6CA
FDA1
FC9B
F57D
D706
F6C5
0D73
FB9A
FDA4
FBC3
FFFD
FF3A
FD28
FEEC
00BF
023A
00C8
02CB
01DB
01EE
08EB
FAFA
1714
18EC
06BA
1D25
0878
FF8C
00B9
6CCF
FAB1
00E2
F319
FE96
FDEF
FC6D
FC21
0303
032E
F862
FE39
FDBC
FD82
FC9E
02A1
06D3
02E0
7001
FD79
EB46
0579
FE74
FB91
FEDB
F9F7
FC92
0A55

