FE9C
1C1E
3631
06A9
F7FC
0115
FEA6
FAEE
FE2A
035F
FCFC
FA0F
065A
FD3B
FFD6
0238
01AF
FF35
01E9
0492
02C8
F786
FD72
FC8D
02E6
03AF
02E0
F979
019A
D090
FA19
0425
FD8C
FFE5
F161
FE75
011C
ECDA
0279
00A1
13C0
F143
00B2
FDA8
188A
0579
FE93
04BA
002C
AF6E
FA00
F22C
DF11
FD7E
08EF
008F
0779
F9F7
01C4
FA6D
FFAB
F6FA
01F0
010B
034E
028A
03B1
0683
FD93
01D0
0509
12EA
0101
FA3B
0148
FEF1
ED02
00DE
FEB2
F9B7
05D1
FD2D
04C8
0286
FFD6
0312
F78E
03D9
06AF
006D
01C6
00FA
FFB9
00CE
EE23
FCD8
FEF3
FEE2
FE57
F8B2
002F
F5B0
0176
094F
00B2
FFE3
0528
02B5
0502
05FF
E892
00B6
E08A
02C7
02B3
0542
F49B
4676
FFD6
FCE5
FFD7
0226
F921
FCD1
7001
0C97
1A73
FFB0

