00AA8
01AF6
02010
1F5BC
1CD9D
03581
00D5F
02018
1E402
01F77
1B3C9
17A88
01CCB
1EE29
1BAE7
196A7
10400
1DBAD
1B446
1D5A9
1E336
1E434
01DB0
1B019
02C07
1A74F
02E58
079C5
1C87B
1F18D
1E1E6
1DEA6
01DCE
1E6A0
0CD83
10400
015AB
006C8
04631
1ED65
011B2
1C0DA
1D3A1
0198C
1E4A5
1EC6C
00AFC
1E691
1F797
1E840
029C0
1E2AE
00160
038E4
1CAD7
015CC
1E07F
0D0CB
1F485
02090
1E513
03562
1CEEE
04069

