01F10
02AAE
01917
002E0
1D57B
01A3F
1F897
1C7CA
025AD
01AE0
05642
1D610
01E82
069F8
02233
1F9CA
1ECB4
1DB3D
1EA62
1EEF2
1EEFB
00606
1A8F3
1CF2A
01145
0194A
08A2A
046C8
02523
1DB84
04C32
0DAB4
030C0
00E58
1DB02
027B7
038B4
1CF6F
022B3
1DD64
1FBB6
18C55
1F9AE
1E241
1EB41
1A1E1
00EC3
1E47F
1ED08
1EFBE
03323
1A3AB
1D624
01CD6
1472E
051CE
1DA4A
1E673
1DB93
02050
1DB26
01C64
18235
1D4AB

