0188
7723
0289
0660
062E
0580
03E1
7A9A
7F39
00EB
0882
082A
529D
41F3
01A5
0168
7F50
2A5B
7930
0910
7B91
7757
7D3D
5623
001B
0416
0066
7D60
7AE8
7CD4
7C54
7B4C
02FC
00C4
0303
7F7C
0B1B
06E3
7F06
006D
7E83
002F
02DC
7F45
0284
024B
7FE5
7FAF
7B6F
7C03
7431
780C
017F
04FD
76B2
04A5
01BF
05DE
7715
10C0
7A48
7D77
047E
7C5F
092A
0408
0142
0AD4
13E4
04A0
7E56
7578
676E
7A54
026A
04CF
7A91
13AD
6E0E
7E77
7941
7EDD
05EA
00F7
62A6
7BD1
043E
03D7
020D
0D9F
7DCF
0152
77AE
0348
0831
06EA
7E95
71CC
7A2A
7CD2
035F
03E5
0339
76A9
7D7E
7CD8
7F42
0508
7E95
731E
7CA4
7BF1
7DDC
7C1E
7E19
7842
6BCD
00FB
7BC6
0171
7BAB
7DD1
7B60
7F09
0A9A
7BDD
7E51
021A

