0A2B
05A7
FD4F
FB98
FA94
0169
02E0
FC00
F698
F4DA
00DD
0CDF
FBE0
065B
E51D
07C5
00E0
FD19
0DEB
FCDB
008B
023E
04F3
0AA2
0628
FC29
FE1C
FABA
F256
009A
0092
F8F0
0373
FCEA
0507
0413
00EC
08C0
1298
FCC0
FC19
FDCB
FAA5
0C78
FDF2
0466
020D
FCFF
FD88
05DB
053B
FE51
FF31
FBF8
01E2
FAC6
0023
FEAA
FD19
FE9B
F891
0211
01E2
00B9
FA17
F4FA
01EF
02CF
15FC
FF7F
FD05
FFB3
05F0
F12A
057A
02E8
FE91
0BB1
02ED
F82B
F7D2
F6C0
064F
FB35
FD86
FBF3
07E4
02DD
FC83
1C97
FFD6
012E
EFAA
FD2D
F2A1
0296
F9EA
073A
FD3E
0D5E
FE8F
0D14
06B4
01E1
FD59
01E5
03C1
FE24
0092
0B40
003A
0D96
FDC0
04E2
FD9E
F919
1152
6901
01B2
FB33
F8A8
FE35
094F
FFD9
006C
03B5
FD82
0EC5

