7B07
08BC
1D8C
7BC9
78B7
0101
6D71
73A5
64B4
70D6
0016
78EE
76B6
060F
0D37
2A9C
74D2
7720
7471
086A
13C1
0A5F
0178
2260
4CD5
7254
0544
70A2
1CCD
09A7
742C
7EA0
0D11
0997
760C
0980
7800
1327
716D
0A14
174F
0CFE
7921
6B10
7AE1
0615
19B7
0D95
00EA
5560
0222
70ED
06A3
7916
7933
7F63
7F37
0FAB
700F
0332
0439
0151
7A48
1709

