ED2A
06C0
EFB0
03F0
0F66
F543
01F7
017C
21C3
F420
EF67
2AD9
FA22
FD3D
E8FB
0B42
8200
115E
FD30
E497
06EB
FD6A
E8F7
CAC5
0589
FE71
029D
F2BF
153F
F45E
FE65
EDDF
15A4
7E01
FA2E
01B7
049C
FF8F
D842
F0FF
149F
D80B
1026
0CF1
0457
1FBE
0AE7
FBEB
E986
FBAC
081E
01DA
F908
E368
FF45
FE42
FED5
049E
F59B
F3AE
E736
05A3
03C4
FDD2

