FE30
0070
174D
FE04
2E46
F954
0606
F820
F645
0316
008F
FED6
FB8E
06D9
FA79
FF87
FDC9
FEDF
0282
FA55
FC9B
FC09
F991
FB1D
059D
0008
FCAA
001D
FF24
FFC0
018C
C116
012D
FE7B
FE67
FE8A
0174
0997
041D
FC91
0258
F74B
F6FF
0400
FCBD
FBA6
FBCB
BDEA
0244
071D
0334
0184
0271
FC1C
F8F6
07E4
013F
FFE1
C8F8
0209
F9B5
7001
0397
029D
FCF0
FBAA
FF67
01FE
EEF5
FE55
FDED
0772
0071
0363
EAA7
F73C
01CE
EBC7
001C
6F12
1122
0446
EEBA
FE1D
FFF3
0ACB
FD1E
03D5
14DC
02BB
04E5
0321
FE0F
087B
042A
09D6
FFA5
0013
A24E
038C
F97F
FF2B
EAA4
FED0
D705
FFFC
FD24
F59B
0881
027B
0020
0495
0754
FCBF
F985
FA43
0157
F5E9
F9D7
FBF1
FF56
01F5
F678
08F2
0167
0368
0082
0271
02C4
0746
01E9
F796
02F0
0CA8
05CC
0097
FCEB
FD10
0149
01A7
04A1
08FB
10F9
01BA
0051
0296
F838
FD74
0097
F98E
FE42
0851
EA8E
025C
0062
0360
FE20
084E
F940
FEAA
055E
022B
FCCD
0BFB
03CD
01F2
0210
0072
FF14
FF9A
029E
FADD
F70B
FFB9
0324
032B
0631
0458
FF7D
E7F2
014F
0E59
0066
02F5
FF39
0014
0031
06E4
E949
02C3
FC30
1598
FE54
EF8B
FE34
EEF7
FD96
FD6B
F812
FCD2
FFB4
1FB0
F547
FA47
010A
FFB2
06C1
FA62
0038
FD29
FF64
045B
04B6
065F
0251
FD2F
0497
FFC5
057B
FD2B
E15C
0564
0056
059F
DACC
FDF5
0267
0B6D
022B
FED9
04D6
FF31
F3F4
00BA
3816
0000
FF53
FFD6
FC4A
FFB5
FF51
F9D3
016B
FD9E
F8BE
0296
FC3C
031E
7001
2FF6
0A42
006D
1430
033A
FF50
FD8A

