FE48
008A
185F
FE1F
3009
F967
062A
F841
F6A6
032E
00AD
FEFD
FC3E
06FF
FA93
FFAE
FDDF
FF03
02B3
FA6E
FCB1
FC30
F9AD
FB3C
05C7
0027
FCCA
0035
FF4C
FFE2
01B2
C349
014A
FE93
FE94
FEA2
018E
09DA
0437
FCB6
0271
F765
F71D
041E
FCE5
FBC4
FBF6
BFD8
0268
0743
0350
019C
028A
FC3A
F913
0887
0154
0003
CAA8
0224
F9CB
7001
03B7
02C4
FD13
FBC1
FF83
021E
EF7F
FE7D
FE0B
078D
0097
038C
EB24
F75B
01F4
EC51
003A
7001
11B6
0465
EF4A
FE3A
001E
0B87
FD3D
03FA
15AD
02D6
0506
034D
FE2C
0897
044A
09F3
FFC3
002E
A538
03AC
F99C
FF48
EC50
FEEF
D8CF
001B
FD38
F5B3
0899
029A
0039
04B6
075C
FD01
F99F
FA62
016F
F63A
F9F8
FC18
FF69
020F
F695
090B
0186
038C
00A1
028B
02E3
0769
020D
F847
031B
0D43
05F5
00AD
FD10
FD30
0167
01CB
04B8
0914
1168
01EB
0078
02B1
F8AA
FD93
00BE
F9C2
FE69
086B
EB1A
029B
007E
040A
FE40
0865
F95A
FED9
0577
0256
FCE3
0C6F
0405
0214
022A
00A3
FF3F
FFB6
02B8
FB01
F728
FFD0
034C
0349
064D
046E
FFB2
E921
0169
0ED3
0087
031D
FF56
002B
0054
0702
EA5D
02E2
FC56
163F
FE78
EFE1
FE5B
EFBC
FDC1
FD8C
F835
FCEB
FFCF
215F
F55E
FA5A
0122
FFC2
0752
FA7D
0053
FD45
FF80
0478
04CF
067E
0268
FD52
04AF
FFE4
0598
FD50
E2F7
0584
006C
05C3
DC13
FE0D
027C
0BC9
0249
FF05
04EE
FF65
F419
00D6
3B48
001E
FF70
FFEC
FC6C
FFD5
FF6F
F9F1
0194
FDD6
F8D4
02B8
FC5D
0339
7001
35F2
0AC7
0083
1595
035D
FF65
FDA1

