0E7B
E8B6
FA3C
FDC0
F920
FD05
FE43
1298
49E1
FF41
F2F2
034F
EBB0
01D3
22AE
B266
FD88
FACC
0BC5
F558
0036
FF17
EF5B
FDE4
039D
DDA9
F58C
FBBF
F4D6
F88B
4948
FD07
F209
0169
FB83
FF35
FD17
0EEB
F422
0446
05C8
FF70
FC69
021C
0285
1271
0547
FF0D
0448
FF3C
0038
EF7F
0A84
F982
02D5
FF29
FCBE
044C
0148
E3AC
0523
EBA1
FDA9
E593
FE05
F5F9
00AB
08E5
0A22
00E6
228C
E8AB
01E4
FAF0
00BC
0157
01C6
FF20
FB6F
01EB
FE33
0150
0D02
DC1C
332F
040A
02DB
F53C
0F5F
038D
01EC
FD1D
04EF
00FC
07FB
00C4
FD9A
FF63
FF3E
FE44
029D
271A
007B
0234
F6EC
FCB3
FDAB
EA4C
FC03
015C
FF1D
F8FF
D5C8
FFAA
FFA1
0D1B
F887
027F
FD93
0048
0350
FB77
0150
FD4D
1F63
FE8E
0DED
E710

