1FE13
00121
0100B
00500
1F3C2
1FD6D
00E94
0010E
1FFF7
18870
000E9
008AB
01703
1E680
1FFC2
1FCBE
006A2
00260
1FC4C
1FF63
1F352
1FEC3
1FD5E
1FDB2
00F9E
01316
1F9AF
0FC01
1FE36
00238
004EA
0109F
1F594
1DFF2
1FD1F
001EB
00592
002B7
01A2A
00008
0070A
1ED62
1F069
1FFC9
00D64
00148
1FB60
00DAB
1FE84
00378
0279D
09A87
1FFFF
00CBF
1FE10
00024
01729
0173C
1F9D0
1FF35
1F935
1FE64
1F07D
0012C
0086E
1E6BC
0011E
1F953
1FD67
1F050
1FFE2
00026
0037B
009BB
0004E
1FAE3
1FC4D
1FE5C
00027
1C1C3
001F5
000A0
1FEB0
1FB25
1FFB6
1E43D
1E4DB
0081E
00902
1FD68
1FC3E
00279
1FC0E
1FD1F
00E56
1FD63
1FF25
1FC36
000A4
1E399
1F147
1FDC3
1FE5D
00F93
00426
1EF3F
1FD42
18937
00673
1F103
1FE46
001ED
000FF
1DE1C
1FFCE
000DA
1FF77
1FF57
1E478
00097
1F8F2
00006
01965
011A6
00001
1FF68
1FED5
1FD5E

