00EC3
1E901
1FA8A
1FDE5
1FA44
1FD1E
1FE68
012EB
062E3
1FF6F
1F3D4
00382
1EC2F
00201
0257D
1B940
1FDAD
1FB1D
00C93
1F59F
00080
1FF82
1EFC7
1FE04
0047F
1DFF0
1F620
1FC13
1F51D
1FA04
0A2A1
1FD38
1F581
00186
1FBBF
1FF7C
1FD31
00F46
1F6E4
0047B
00A99
1FFAF
1FC91
00242
002D5
0131B
0056B
1FF35
00467
1FF6C
00107
1F123
00F09
1F9A6
002FA
1FF8D
1FCEB
00483
00165
1E7B9
006B6
1ECEF
1FDD8
1E5EB
1FE29
1F6EB
00100
00916
00A7B
00104
025C8
1EE02
001FF
1FB35
001FA
001DA
001EA
1FF3F
1FC6C
0022C
1FE6F
00173
00E7B
1DE7E
04659
00434
0030C
1F6E1
01014
003AB
00218
1FD34
00516
0011D
00983
000F5
1FDBC
1FF84
1FF69
1FE71
002DE
02D98
0009E
00256
1F75E
1FCD6
1FDDF
1EA96
1FC2E
0019E
1FF42
1F947
1DCFC
1FFCA
1FFBF
00D70
1F8C5
002B1
1FF12
00079
0039B
1FBA3
0016F
1FD6A
02162
1FEC6
0125E
1E7BD

