1FE29
00140
0108B
0053A
1F4D1
1FD8F
01474
00128
00016
1A573
00106
008F4
01762
1E815
1FFD8
1FDD7
006B5
00278
1FCA7
1FF86
1F3B4
1FEF1
1FD82
1FDCC
0104E
01397
1F9C9
0FC01
1FE56
00258
00519
01153
1F5EA
1E2BB
1FD5F
00214
005B4
002CC
02629
00023
0072C
1EF9F
1F0BF
1FFE3
00E0F
0017E
1FB7B
00E30
1FEB4
0038D
03A0D
0CAE6
00015
00DA6
1FE2C
00040
01967
01781
1F9E9
1FF6C
1F958
1FE82
1F1E7
0014F
0093D
1E86A
0014D
1F99B
1FD95
1F25E
00015
0003F
00391
00A1A
00077
1FAFE
1FC71
1FE7E
0004C
1C561
0020A
000C4
1FEE4
1FB44
1FFD4
1E4DF
1E746
00878
00937
1FD93
1FC57
00290
1FC25
1FD41
00EB2
1FD81
1FF4B
1FE00
0025F
1EA49
1F195
1FDD8
1FE8F
01204
00448
1EF88
1FD6A
19098
0068A
1F208
1FE71
00214
00137
1E028
1FFF7
000F7
1FF94
1FF75
1E547
000BF
1F909
00046
019FE
011F2
0001A
1FF87
1FEFE
1FD9C

