00F0B
1E94C
1FAD8
1FE0A
1FB67
1FD37
1FE8C
0133D
07BE6
1FF9E
1F4B5
003B4
1ECAF
00230
0284B
1C019
1FDD3
1FB6E
00D62
1F5E7
000CA
1FFEC
1F032
1FE24
00562
1E237
1F6B4
1FC66
1F565
1FB7C
0FBF9
1FD69
1F8F9
001A2
1FBFB
1FFC3
1FD4B
00FA1
1F9A6
004B0
00F69
1FFEF
1FCB9
00267
00326
013C6
00590
1FF5D
00487
1FF9C
001D6
1F2C7
0138D
1F9C9
0031F
1FFF2
1FD18
004BB
00183
1EBC6
00849
1EE3C
1FE07
1E643
1FE4E
1F7DD
00154
00947
00AD5
00122
02904
1F359
0021A
1FB7B
00339
0025C
0020E
1FF5F
1FD69
0026C
1FEAA
00196
00FF4
1E0E0
05983
0045D
0033D
1F886
010C8
003C8
00244
1FD4A
0053D
0013F
00B0B
00127
1FDDF
1FFA6
1FF94
1FE9E
00320
03416
000C0
00279
1F7CF
1FCFA
1FE14
1EAE1
1FC59
001E0
1FF66
1F98F
1E431
1FFE9
1FFDD
00DC6
1F904
002E2
00090
000A9
003E6
1FBCF
0018D
1FD88
02362
1FEFF
016CF
1E86A

