00EE7
1E927
1FAB1
1FDF7
1FAD6
1FD2A
1FE7A
01314
06F64
1FF86
1F444
0039B
1EC6F
00218
026E4
1BCAC
1FDC0
1FB45
00CFB
1F5C3
000A5
1FFB7
1EFFC
1FE14
004F0
1E114
1F66A
1FC3D
1F541
1FAC0
0CF4D
1FD51
1F73D
00194
1FBDD
1FF9F
1FD3E
00F74
1F845
00495
00D01
1FFCF
1FCA5
00254
002FD
01371
0057E
1FF49
00477
1FF84
0016F
1F1F5
0114B
1F9B7
0030D
1FFC0
1FD01
0049F
00174
1E9C0
00780
1ED95
1FDEF
1E617
1FE3B
1F764
0012A
0092F
00AA8
00113
02766
1F0AE
0020C
1FB58
0029A
0021B
001FC
1FF4F
1FCEA
0024C
1FE8C
00185
00F37
1DFAF
04FEE
00448
00324
1F7B4
0106E
003B9
0022E
1FD3F
00529
0012E
00A47
0010E
1FDCD
1FF95
1FF7E
1FE88
002FF
030D7
000AF
00268
1F796
1FCE8
1FDFA
1EABB
1FC44
001BF
1FF54
1F96B
1E096
1FFD9
1FFCE
00D9B
1F8E5
002C9
1FFD1
00091
003C1
1FBB9
0017E
1FD79
02262
1FEE2
01496
1E813

