1FE55
0017E
0118B
005AE
1F6EF
1FDD3
02033
0015A
00054
1DF78
00141
00985
0181F
1EB3E
00004
00008
006DB
002A8
1FD5E
1FFCC
1F478
1FF4C
1FDCA
1FDFE
011AD
01499
1F9FD
0FC01
1FE96
00299
00577
012BD
1F696
1E84D
1FDE1
00268
005F7
002F8
03E28
00059
00772
1F419
1F16B
00018
00F65
001EB
1FBB1
00F3B
1FF13
003B6
05EEC
0FC01
00041
00F74
1FE65
00079
01DE2
0180B
1FA1D
1FFDB
1F99E
1FEBC
1F4BD
00196
00ADD
1EBC7
001AC
1FA2A
1FDF2
1F67A
0007A
00073
003BD
00ADA
000CB
1FB34
1FCB7
1FEC2
00097
1CC9D
00233
0010D
1FF4A
1FB83
00010
1E623
1EC1C
0092E
0099F
1FDEA
1FC89
002BD
1FC54
1FD85
00F6B
1FDBD
1FF96
00195
005D6
1F7A9
1F231
1FE03
1FEF2
016E6
0048C
1F01A
1FDBA
19F5A
006B8
1F410
1FEC5
00263
001A6
1E43F
0004A
00131
1FFD0
1FFB0
1E6E4
0010E
1F936
000C4
01B2F
0128B
0004D
1FFC5
1FF50
1FE16

