1FE1A
0012B
01036
00513
1F41C
1FD79
01089
00117
00001
1921B
000F2
008C3
01722
1E707
1FFC9
1FD1C
006A8
00268
1FC6A
1FF6E
1F372
1FED2
1FD6A
1FDBB
00FD8
01341
1F9B7
0FC01
1FE40
00243
004FA
010DB
1F5B1
1E0DF
1FD34
001F9
0059E
002BE
01E2A
00011
00715
1EE21
1F086
1FFD2
00D9D
0015A
1FB69
00DD7
1FE94
0037F
02DC2
0AAA7
00006
00D0C
1FE19
0002D
017E9
01753
1F9D8
1FF47
1F941
1FE6E
1F0F6
00137
008B3
1E74B
0012E
1F96B
1FD76
1F0FF
1FFF3
0002E
00383
009DA
0005B
1FAEC
1FC59
1FE67
00033
1C2F8
001FC
000AC
1FEC2
1FB30
1FFC0
1E473
1E5A9
0083C
00914
1FD76
1FC46
00280
1FC16
1FD2A
00E75
1FD6D
1FF31
1FCCF
00138
1E5D4
1F161
1FDCA
1FE6E
01063
00431
1EF58
1FD50
18BAC
0067B
1F15A
1FE54
001FA
00111
1DECB
1FFDC
000E4
1FF81
1FF61
1E4BD
000A4
1F8FA
0001C
01998
011C0
00009
1FF73
1FEE2
1FD73

