1FE46
00169
01136
00587
1F63B
1FDBC
01C49
00149
0003F
1CC21
0012D
00955
017E0
1EA30
1FFF5
1FF4D
006CE
00298
1FD21
1FFB4
1F437
1FF2D
1FDB2
1FDEE
01138
01443
1F9EB
0FC01
1FE81
00283
00557
01244
1F65D
1E672
1FDB6
0024C
005E1
002E9
03629
00047
0075B
1F29B
1F132
00006
00EF3
001C7
1FB9F
00EE2
1FEF3
003A9
052A2
0FC01
00032
00EDA
1FE52
00066
01C64
017DD
1FA0C
1FFB6
1F987
1FEA8
1F3CB
0017F
00A52
1EAA8
0018D
1F9FA
1FDD3
1F51B
00058
00062
003AF
00A9A
000AF
1FB22
1FCA0
1FEAB
0007E
1CA34
00226
000F5
1FF28
1FB6E
1FFFC
1E5B7
1EA7F
008F1
0097C
1FDCD
1FC78
002AE
1FC45
1FD6E
00F2E
1FDA9
1FF7D
00063
004AE
1F334
1F1FD
1FDF5
1FED1
01545
00475
1EFE9
1FD9F
19A6E
006A9
1F363
1FEA9
00249
00181
1E2E2
0002F
0011E
1FFBC
1FF9C
1E65A
000F4
1F927
0009A
01AC9
01258
0003C
1FFB1
1FF34
1FDED

