00F42
1E985
1FB12
1FE26
1FC42
1FD49
1FEA8
0137B
08EA7
1FFC0
1F55E
003DA
1ED0E
00252
02A65
1C53C
1FDEF
1FBAA
00DFC
1F61D
00102
0003C
1F082
1FE3C
0060C
1E3EC
1F723
1FCA5
1F59B
1FC97
0FC01
1FD8E
1FB93
001B8
1FC28
1FFF8
1FD5F
00FE5
1FBB7
004D7
01306
0001E
1FCD7
00283
00362
01446
005AC
1FF7B
0049E
1FFBF
00271
1F402
016F0
1F9E3
0033B
0003D
1FD39
004E4
00198
1EED0
00978
1EF36
1FE2A
1E685
1FE69
1F892
00194
0096C
00B18
00139
02B71
1F75B
0022E
1FBAF
00429
002BE
00229
1FF77
1FE26
0029D
1FED7
001B1
0110F
1E2AA
067E2
0047C
00361
1F9C2
01150
003DF
00265
1FD5C
0055A
00158
00C31
0014C
1FDF8
1FFBF
1FFB4
1FEC0
00350
038F4
000DA
00293
1F825
1FD15
1FE3B
1EB18
1FC7A
00212
1FF81
1F9C5
1E998
00001
1FFF3
00E05
1F934
00308
001AF
000CD
0041F
1FBF0
001A4
1FD9F
024E2
1FF29
01A23
1E8EB

