1FE22
00136
01060
00527
1F477
1FD84
0127F
0011F
0000B
19BC7
000FC
008DB
01742
1E78E
1FFD1
1FD79
006AF
00270
1FC89
1FF7A
1F393
1FEE1
1FD76
1FDC3
01013
0136C
1F9C0
0FC01
1FE4B
0024D
00509
01117
1F5CD
1E1CD
1FD4A
00206
005A9
002C5
0222A
0001A
00721
1EEE0
1F0A3
1FFDA
00DD6
0016C
1FB72
00E04
1FEA4
00386
033E7
0BAC7
0000D
00D59
1FE23
00037
018A8
0176A
1F9E1
1FF5A
1F94C
1FE78
1F16F
00143
008F8
1E7DB
0013E
1F983
1FD86
1F1AF
00004
00037
0038A
009FA
00069
1FAF5
1FC65
1FE72
00040
1C42C
00203
000B8
1FED3
1FB3A
1FFCA
1E4A9
1E677
0085A
00925
1FD85
1FC4F
00288
1FC1E
1FD36
00E93
1FD77
1FF3E
1FD67
001CC
1E80F
1F17B
1FDD1
1FE7E
01133
0043D
1EF70
1FD5D
18E22
00683
1F1B1
1FE62
00207
00124
1DF79
1FFE9
000ED
1FF8A
1FF6B
1E502
000B2
1F901
00031
019CB
011D9
00012
1FF7D
1FEF0
1FD87

