00F1E
1E95F
1FAEB
1FE13
1FBB0
1FD3D
1FE96
01352
08226
1FFA9
1F4ED
003C1
1ECCF
0023B
028FE
1C1CF
1FDDC
1FB82
00D95
1F5F9
000DD
00007
1F04D
1FE2C
0059A
1E2C9
1F6D9
1FC7B
1F577
1FBDB
0FC01
1FD76
1F9D7
001AA
1FC0A
1FFD5
1FD52
00FB8
1FA56
004BD
0109D
1FFFF
1FCC3
00270
0033A
013F1
00599
1FF67
0048E
1FFA8
0020A
1F330
014AE
1F9D2
00328
0000B
1FD23
004C9
0018A
1ECCA
008AE
1EE8F
1FE12
1E659
1FE57
1F819
00169
00954
00AEB
0012A
029D3
1F4AF
00220
1FB8C
00389
0027D
00217
1FF67
1FDA8
0027C
1FEB9
0019F
01052
1E179
05E4D
00468
00349
1F8F0
010F6
003D0
0024F
1FD50
00547
00147
00B6D
00134
1FDE7
1FFAE
1FF9E
1FEAA
00330
035B5
000C9
00282
1F7EC
1FD03
1FE21
1EAF3
1FC64
001F1
1FF6F
1F9A1
1E5FE
1FFF1
1FFE4
00DDB
1F914
002EF
000EF
000B5
003F9
1FBDA
00195
1FD90
023E2
1FF0D
017EB
1E895

