1FE30
0014A
010B6
0054D
1F52B
1FD9A
01669
00130
00020
1AF1E
00110
0090C
01781
1E89C
1FFDF
1FE34
006BB
00280
1FCC6
1FF91
1F3D5
1FF00
1FD8E
1FDD4
01088
013C2
1F9D1
0FC01
1FE60
00263
00529
01190
1F607
1E3A9
1FD75
00222
005BF
002D3
02A29
0002C
00738
1F05E
1F0DC
1FFEC
00E48
00190
1FB84
00E5D
1FEC4
00394
04032
0DB06
0001C
00DF3
1FE36
0004A
01A26
01798
1F9F2
1FF7F
1F964
1FE8B
1F260
0015B
00983
1E8FA
0015D
1F9B3
1FDA5
1F30D
00026
00048
00399
00A3A
00085
1FB07
1FC7C
1FE89
00059
1C696
00211
000D0
1FEF5
1FB4F
1FFDE
1E515
1E814
00897
00948
1FDA1
1FC5F
00297
1FC2D
1FD4C
00ED1
1FD8B
1FF57
1FE99
002F3
1EC84
1F1AF
1FDDF
1FE9F
012D4
00453
1EFA0
1FD78
1930D
00692
1F25E
1FE7F
00221
00149
1E0D6
00005
00101
1FF9E
1FF7F
1E58C
000CC
1F910
0005B
01A31
0120C
00023
1FF92
1FF0B
1FDB0

