1FE04
0010C
00FB6
004DA
1F30D
1FD57
00AAA
000FE
1FFE2
17519
000D5
0087A
016C3
1E572
1FFB3
1FC03
00695
00250
1FC0F
1FF4B
1F310
1FEA5
1FD47
1FDA1
00F28
012C0
1F99D
0FC01
1FE20
00223
004CB
01026
1F55B
1DE16
1FCF3
001CF
0057C
002A8
0122A
1FFF6
006F3
1EBE4
1F030
1FFB8
00CF2
00124
1FB4E
00D52
1FE65
0036A
01B52
07A48
1FFF0
00C25
1FDFD
00011
015AB
0170E
1F9BF
1FF10
1F91D
1FE51
1EF8B
00114
007E3
1E59D
000FE
1F924
1FD48
1EEF1
1FFC1
00014
0036D
0097B
00032
1FAD1
1FC36
1FE45
0000E
1BF59
001E8
00087
1FE8E
1FB11
1FFA1
1E3D0
1E33E
007E1
008E0
1FD4B
1FC2D
0026A
1FBFF
1FD08
00E18
1FD4F
1FF0C
1FB04
1FF7D
1DF24
1F113
1FDB5
1FE3C
00DF2
0040F
1EF0F
1FD28
1844B
00664
1F056
1FE2A
001D2
000DA
1DCBF
1FFB2
000C7
1FF63
1FF44
1E3EE
0007D
1F8E3
1FFDC
01900
01174
1FFEF
1FF53
1FEB9
1FD36

