1FE64
00193
011E1
005D4
1F7A4
1FDE9
0241E
0016B
00068
1F2CF
00154
009B6
0185E
1EC4C
00013
000C4
006E8
002B8
1FD9B
1FFE3
1F4BA
1FF6A
1FDE2
1FE0F
01223
014EF
1FA0E
0FC01
1FEAB
002AE
00596
01335
1F6D0
1EA29
1FE0C
00284
0060D
00306
04628
0006B
00789
1F597
1F1A5
00029
00FD7
0020F
1FBC3
00F93
1FF33
003C4
06B37
0FC01
00050
0100E
1FE78
0008C
01F61
01838
1FA2E
00000
1F9B6
1FECF
1F5AF
001AE
00B68
1ECE6
001CC
1FA5A
1FE11
1F7D9
0009B
00084
003CC
00B19
000E7
1FB46
1FCCF
1FED8
000B1
1CF07
00241
00125
1FF6D
1FB97
00024
1E68F
1EDB9
0096A
009C2
1FE07
1FC9A
002CC
1FC64
1FD9C
00FA9
1FDD1
1FFAF
002C6
006FD
1FC1F
1F265
1FE11
1FF13
01886
004A2
1F04A
1FDD5
1A445
006C7
1F4BE
1FEE2
0027E
001CB
1E59C
00066
00144
1FFE4
1FFC3
1E76E
00129
1F946
000EF
01B95
012BD
0005F
1FFDA
1FF6B
1FE3F

