0101
F677
0261
04BF
05FD
04C3
0355
FA73
FF0F
00C0
07EE
05D1
CE5D
BA21
014D
012E
FF2D
24EF
F910
082F
FB6A
F66E
FCF0
CDF6
FFFC
03CC
004D
FCFE
FAC1
FCAE
FBFD
FB1C
02DA
00A0
02E9
FF5A
09F7
05EC
FED7
0040
FE5F
000B
029E
FF22
0257
022A
FF5D
FF79
FB46
FBDF
F35C
F766
0136
04DE
F650
047B
0195
0599
F46B
0E53
FA20
FD45
0457
FC33
0473
03DF
0114
0A5A
0CDA
0479
FE1B
F495
E25A
FA29
0241
04AE
F99A
0E3E
EBDB
FE57
F91C
FEB6
055E
00C9
D9C7
FBA4
0414
03AD
01E1
0D02
FDA6
0132
F77D
0326
0800
06C3
FE6C
EC98
F9FE
FCAD
033D
03BB
0323
F5CF
FD3B
FCB2
FF0E
04D6
FE5A
F1DA
FC60
FBB8
FDA7
FBB5
FDE9
F7DE
E380
00B2
FB94
014E
FB86
FD9C
FB33
FEE0
08DF
FBB6
FE30
01ED

