FA50
0442
F7CF
FE6F
0087
0170
0942
00A8
F92D
03AA
FFBD
3CF0
096D
F9D7
F73C
044E
F8D9
FCE2
0343
058C
FF77
0050
FDD9
FAF6
071B
0018
05B7
FBC1
FE77
016E
FE01
FC77
06E3
FC69
01BB
0A23
017D
03B0
FBB5
F63A
FB02
097E
A57C
01BD
EFAC
FE64
FED7
06A9
FB1F
E34D
F5A4
01D6
FE67
BC08
EB07
035F
F76C
FF00
00EB
0297
0398
FFC4
F823
025C
0447
05EA
6107
0160
05A5
FBD5
FCA8
015D
F6B1
00BB
A8BF
FFF3
FC91
FFF2
F61D
0190
03C0
07E0
00AA
0107
9700
0BAF
00CF
0049
FD33
2441
FFA1
FC0D
FF5F
FCAD
01DF
FFBB
FF42
09BF
0111
FE49
0439
FFE1
FAD3
FC2B
002A
0447
E4E1
015D
02E9
09EE
0134
EEAD
03D5
FF81
F86A
040A
FFA7
00DA
FBCC
0123
0085
F572
1828
FAEA
FF4B
076E
0B93
0557

