FE8A
FEDF
FD1E
0E55
FF1E
01E2
F819
06C0
FFCC
0CDE
0B06
0355
FEFB
FCD8
0500
FDEE
0996
038F
FF0B
0931
FCD8
FC05
F9CD
F4C4
F88A
03E9
9700
00F2
FCEA
F296
0580
FCFB
3CF6
FA53
05FD
111F
FA08
FC26
05A0
0045
FD06
0398
0324
FD98
0479
07ED
FC97
FC5C
0AF8
F70A
07E6
042E
FD25
F165
0B1A
05C3
0420
FE99
F415
0040
FB93
0005
051F
0417
0601
000F
FAD6
FD7B
FF4D
FB11
0454
0138
08DD
F921
0586
065C
021D
011C
F6AC
FCD0
F846
0586
020A
0047
0000
FCDA
FC6A
FCF0
FCC7
FE67
F61E
0C8A
F54D
FDC0
0AD0
0B37
FCAE
FC71
005C
07DE
0916
02A4
FBDD
F3AA
027A
032E
022D
FFF3
0165
0060
0009
0A1B
0222
FF1F
02E6
05FE
FF9C
05F6
03B4
F6AD
FB86
053F
02B8
00F7
0336
FAC4
0116
FFF8

