FA67
045F
F7F0
FE80
009E
0189
09E4
00C0
F947
03C2
FFCD
49B8
09C9
FB29
F7AD
04B6
F93C
FCF6
039A
05A2
FFB0
0067
FE75
FB18
0771
0033
05D2
FBE5
FE96
0189
FE19
FC8E
0702
FC7E
01D4
0BCF
019B
03D3
FBCB
F7A6
FB2E
09D7
ABA8
01D7
F393
FE83
FEF1
06C3
FB65
E997
F606
01F8
FE7A
BF96
F26C
0373
F7BA
FF17
0107
02AE
03B4
FFD7
F9C5
0272
045A
063E
6636
018C
05CE
FBF8
FCBF
016E
F6FC
00D6
AC90
000C
FCA8
000E
F721
01B6
03DC
082F
00C9
011C
9700
0D01
00ED
0060
FD3D
271C
FFBE
FC28
FF7B
FCC5
020A
FFD6
FF4F
0A0C
012B
FE66
0450
FFFC
FAEB
FC63
0042
0463
E7B2
0177
0305
0AAC
014D
EFB1
03EF
FF9C
F8AF
0421
FFB4
00F9
FBE5
0143
0094
F5FC
1972
FAFF
FF86
0784
0BF2
0568

