FE93
FEE9
FD24
0E82
FF28
01EC
F83C
06C8
FFD8
0D04
0B7E
035B
FF03
FCE0
0507
FDF6
0A04
0397
FF0F
094D
FCE4
FC2E
F9D7
F4E2
F8A4
03EF
9700
00FD
FCF2
F2D2
0586
FD01
3ECD
FA5B
0604
1160
FA0E
FC3C
05C5
004D
FD0F
03B7
032E
FDAC
0483
080B
FCA0
FC67
0B2D
F721
0804
0436
FD30
F182
0B6B
05CE
043F
FEA5
F469
004A
FB9B
0010
0528
041D
0621
0014
FAEA
FD83
FF55
FB19
04B1
013F
08F8
F93A
05C3
067A
0224
0145
F6C2
FCD9
F892
058D
0212
005C
0008
FCEB
FC77
FCF3
FCCD
FE70
F635
0CB1
F583
FDCB
0BE1
0B8C
FCB6
FC78
0063
08A1
092C
02B0
FBE8
F3D2
0284
0337
0232
0004
016C
007A
0010
0A47
0226
FF33
02FC
0603
FFA2
067B
03BC
F6B4
FB8B
0545
02C9
00FE
033D
FAD1
011B
000B

