07B8
0137
FA23
FE9C
0562
F6BC
0409
FEF3
FD0A
0271
F78C
FD2A
FB4B
0566
FE4D
0EAE
FA4B
0611
0058
FF32
0132
050F
013E
01F6
0299
038D
07FD
F860
FBBF
FA83
0079
06D0
F5D6
FF20
F8F9
FFE4
F268
00D1
037C
0D2A
009D
0829
FF9D
0BF7
0C34
06C1
2362
0361
FBC0
D010
08B3
FF0B
0612
BD42
F731
FCE8
DFF6
0171
F659
050E
06FB
0145
037F
FDFE
00AC
FF3B
F813
0A72
FCC6
271A
FCBC
03A0
0A7C
F91D
0294
FF13
FC9A
0889
0560
0969
002E
FB7A
FF06
FCF1
0200
F6CB
0022
FC58
0496
FD0F
FCA1
F9E2
0A4F
D13B
FAB0
F4FF
0513
0008
0670
F8BF
FBE9
03EA
FFE2
03F5
FDDB
0057
0580
9700
FA79
FD25
FB78
0108
ECB2
FAD1
FE3A
FCFA
000B
FCBD
0139
F30F
0052
FC20
FDD1
058D
F8B3
FB30
FC48
FD07
0332
02E7
06A6
40A4
FC98
00AE
FC41
FA63
045E
02F4
0187
060C
03D8
FF68
06C9
11A0
00A0
0A6C
0142
FA15
0646
064F
036B
FC52
0FCF
FEEA
FB8A
05EB
FC6A
0052
F364
0055
FBBB
FE6E
FAAB
FD17
FD74
0019
08CD
03D6
FA32
02B7
9925
0338
0B7C
FF30
018A
FDBF
FDA6
0269
E7DF
048E
03F9
0237
FE26
0828
01CE
FF93
FEA3
FCA8
FCB8
FF8E
0674
FC72
FD60
FB56
FA92
0B62
059C
FBEE
D6BA
F738
04D1
F3B1
F4E2
0821
FDFA
F7A9
0191
043E
FEEC
0153
FE41
FD3B
FAFE
04EA
B4EB
F19E
01AB
F677
DC3C
0BBC
FA87
048C
0336
05D9
FF6B
01A6
F6D1
045D
FE53
05B5
FED3
FEB1
FCC5
F57C
00B4
F4BE
FE53
0F4B
0268
0054
F7D5
FA30
0360
FBA4
01C2
FD59
FF9E
001B
01A9
0466
F4DF
0531
006C
FC44
022F
0423
F9C9
0655
0422
0642
F45F
03EF
0541
001A
01BE
0126
56AA
FAFE
0294
0A8B
010A
FD8B
0EAC
0FAB
0552
FF5C
FF31
0489
FB8F
FB21
FCD1
FE33
FC7A
050E
FF71
F4F0
013B
0146
05AF
E462
F61A
0913
EE08
FA3A
0083
F954
0526
0251
A11C
0600
02A4
04BB
FFC1
0697
FE51
F9FD
FC61
022C
0B20
106A
FFBB
016E
02A0
ECBC
F415
F6D7
F776
FE64
0143
FCE2
F78B
F92B
0388
F8DD
F597
FEC6
0743
0595
05F6
0596
006E
021B
FAE5
00DC
00DC
0070
FD40
DD53
9700
0011
FBA3
FBB6
090B
FCFB
05B6
0425
0094
FC84
02B8
03BD
001C
FCF7
FC5B
01F3
FD1F
FCD2
16A9
0D41
1E8C
FE78
FF86
FDB6
FF68
F64C
00EA
013F
FBD6
0CD8
E687
F791
FF28
F5B8
FCF9
0334
FC7D
FDD6
EA6D
0813
0189
0CF2
0243
06D3
FF87
0BE2
F9A4
FE7C
FF27
FCBF
06E2
EEAD
0925
FC7F
FCE4
FA10
00DF
0069
0C00
FCBC
FE11
0964
FE41
034A
040A
0942
0A3A
03CC
FFAC
02BB
067A
032C
FAA3
FBF3
0196
F627
FBBA
F3FB
FCDE
FD56
FFFB
028E
019B
FCC1
040F
0340
037F
FF23
DF3F
0238
FDA9
04EA
0129
0015
003D
FE71
02B1
0173
092E
F25B
0872
0094
FFFF
FC7B
0101
0017
0C7D
FBCF
ECA4
0A73
FD74
FDBC
03A0
022B
04A0
FBDF
FF4A
FF48
FD65
FDFC
F7E1
0311
F742
F806
03DC
0609
0F0C
E6D2
FF8C
FFA9
411D
00CF
009C
06FF
00D8
FBA8
FB9B
03C4
F9C8
015C
00E4
F6BB
F787
FB95
0065
FB91
FE07
FDB1
F45D
054B
08FC
FB45
1594
02DA
FF9A
FEF1
FABF
0106
0029
0991
FED3
0344
0342
FBC6
0742
FADE
FD6A
FE3D
0AD7
0121
0C3A
01FF
0533
001E

