0855
016D
FA32
FEAE
0573
F701
041C
FF08
FD1C
0281
F7A2
FD36
FB5E
060C
FE59
0F06
FA5D
0624
0067
FF45
0140
055A
014F
020B
02AB
03C5
0869
F8A7
FBCF
FA92
0088
06E1
F607
FF31
F90A
FFFB
F305
00E2
038B
0D76
00AD
0864
FFA8
0CE8
0C5F
07B2
2BE7
036E
FBC8
D1C3
08F1
FF1B
0624
C062
F813
FCF8
E140
0194
F6A4
051C
072D
015C
03C4
FE0E
00B9
FF49
F855
0B4E
FCDB
2945
FCC9
03B1
0B58
F92A
02CE
FF1B
FCAA
08E3
056F
09A1
0045
FB89
FF2C
FD0B
020F
F728
0032
FCAA
04AD
FD2D
FD09
F9F7
0A64
D481
FAC7
F53B
0558
0015
06A9
F8F3
FBF9
0407
FFF4
0400
FDEB
0061
0593
9700
FA89
FD4D
FB91
011E
EE1B
FAE0
FE4E
FD0A
002F
FCCC
014B
F388
0062
FC43
FDE1
059A
F8C2
FB43
FC57
FD13
0342
02F5
06BA
4451
FCAC
00BD
FC4E
FA73
0488
02FE
0198
061B
03E7
FF75
07E7
1222
00B3
0AE1
0156
FA23
06E5
06B2
0382
FC7D
1081
FEFC
FB98
0635
FC7F
0064
F456
0065
FBD3
FE7C
FAC8
FD29
FD8A
0028
0908
0415
FA4F
02D0
9D42
034D
0BBB
FF3E
019B
FDE6
FDB9
027B
EA78
04A3
0415
0244
FE3B
0862
01DE
FFC9
FEB4
FCBA
FCCA
FFA4
0685
FC87
FD6A
FB67
FAC1
0BCC
05AC
FBFC
DAEB
F766
04EB
F407
F522
085D
FE10
F7EB
01A8
044E
FEFD
0170
FE4E
FD51
FB3D
04F7
B74A
F1D7
01B8
F69E
E12A
0C5D
FA97
049D
0343
05EE
FF99
01B7
F705
0499
FE69
05D0
FEE2
FEC9
FCDA
F68D
00C7
F566
FE65
1044
0278
0068
F804
FA40
0373
FBB4
01D6
FD6D
FFAB
0030
01B7
0476
F5F6
0542
007F
FC56
023E
042E
F9DC
0838
042F
0683
F485
0400
0579
0025
01CA
0139
5A1E
FB25
02A2
0ABB
0127
FD9C
1080
127C
056D
FF6B
FF45
0498
FBA6
FB31
FCDE
FE4A
FC8A
05C8
FF81
F54B
0147
0154
05BF
E66A
F64C
0949
EED0
FA4B
0096
F986
053B
0262
A3A8
067A
02B5
04C8
FFD1
06D2
FE61
FA60
FC71
023B
0B45
1297
FFCE
01BF
02B4
ED9D
F4C3
F703
F7A3
FE71
015D
FCF3
F79D
F93A
039B
F974
F5E1
FED6
0777
05A4
060C
05CE
0082
022C
FAF9
00EE
00EA
0099
FD51
E0E0
9700
0021
FBB7
FBC8
09EC
FD1C
0642
0436
00A8
FC9E
02C1
03CE
002B
FCFF
FC65
0204
FD26
FCDD
1824
0D80
2073
FE8A
FF9A
FDC6
FF7B
F67A
00FB
014C
FBE8
0D27
E8D0
F7A5
FF3B
F623
FD06
0342
FC8D
FDEC
EC7A
0827
01A5
0F13
0258
06E2
FF98
0C8C
F9B6
FE8D
FF30
FCCF
06F8
F0C1
0959
FC8E
FCFA
FA21
00F0
0077
0C58
FCCA
FE24
0AE9
FE54
0358
0419
096D
0AF1
03DD
FFBE
02D2
0689
0335
FAB3
FC09
01A9
F67E
FBE0
F44B
FCFD
FD70
000B
02A2
01AD
FCD0
0422
0353
038F
FF38
E120
0242
FDC8
04FE
013A
0038
0052
FE89
02C4
0182
09B2
F2DD
08F1
00C8
000D
FC97
0112
0025
0CC3
FBE5
ED51
0ACC
FD87
FDD1
03B1
0234
04B1
FC09
FF5C
FF71
FD73
FE10
F80F
033D
F7B8
F82E
03EB
0614
0F9D
EA24
FF95
FFB6
4D21
00EC
00B1
0808
010F
FBBC
FBAB
03D3
FA22
016A
00F9
F6CA
F7CF
FBA4
0070
FB9B
FE12
FDC6
F4B9
0556
0911
FB57
1670
02FC
FFA9
FF01
FACD
0116
003A
0A42
FEFB
0351
035F
FBD5
0750
FAF7
FD70
FE4B
0B16
012B
0CDD
0211
053F
0045

