0A2B
020F
FA5F
FEE5
05A7
F7CF
0455
FF44
FD4F
02B0
F7E5
FD5C
FB98
0801
FE7A
100F
FA94
065F
0096
FF81
0169
063D
0181
0248
02E0
046D
09AE
F97C
FC00
FAC0
00B8
0712
F698
FF64
F93E
0042
F4DA
0117
03BA
0E5B
00DD
0916
FFC7
0FBB
0CDF
0A83
4575
0392
FBE0
D6DD
09AB
FF4A
065B
C9C4
FAB9
FD28
E51D
01FD
F788
0546
07C5
01A1
0493
FE3F
00E0
FF72
F91B
0DE2
FD19
2FC7
FCEF
03E3
0DEB
F950
037D
FF32
FCDB
09F0
059B
0A4A
008B
FBB8
FF9D
FD57
023E
F840
0060
FDA3
04F3
FD89
FE41
FA35
0AA2
DE51
FB0D
F5EC
0628
003B
0754
F98F
FC29
0460
002A
0422
FE1C
0080
05C9
9700
FABA
FDC3
FBD9
0160
F256
FB0F
FE8C
FD39
009A
FCF9
0180
F4F4
0092
FCAB
FE11
05C1
F8F0
FB7D
FC86
FD37
0373
031E
06F8
4F58
FCEA
00E9
FC77
FAA2
0507
031C
01CC
0647
0413
FF9D
0B41
13A5
00EC
0C3F
0191
FA4D
08C0
07DB
03C7
FD00
1298
FF35
FBC4
0716
FCC0
0099
F72D
0095
FC19
FEA6
FB1F
FD5E
FDCB
0052
09B9
04D1
FAA5
031A
A999
0389
0C78
FF68
01CE
FE5A
FDF2
02B2
F246
04E2
0466
026B
FE79
0912
020D
006D
FEE8
FCED
FCFF
FFE5
06BA
FCC7
FD88
FB98
FB4E
0D0A
05DB
FC28
E77F
F7EF
053B
F506
F5E5
0910
FE51
F8B3
01ED
047E
FF31
01C9
FE74
FD94
FBF8
051C
BE67
F282
01E2
F713
EFF5
0E42
FAC6
04CF
036C
062E
0023
01E9
F7A0
054F
FEAA
0623
FF0F
FF11
FD19
F9BF
00FE
F760
FE9B
132D
02A7
00A4
F891
FA70
03AB
FBE6
0211
FDA9
FFD1
0070
01E2
04A6
F93A
0577
00B9
FC8B
026B
0450
FA17
0DE1
0453
0747
F4FA
0432
0622
0046
01EF
016F
647B
FB9C
02CF
0B4E
017D
FDCE
15FC
1AEE
05C0
FF98
FF7F
04C6
FBEC
FB61
FD05
FE92
FCB8
07F7
FFB3
F65B
0168
017D
05F0
EC82
F6E3
09EC
F12A
FA7F
00CD
FA1C
057A
0293
AB4A
07E8
02E8
04EF
0003
0784
FE91
FB88
FCA0
0268
0BB1
191C
0005
02B5
02ED
F040
F6CA
F786
F82B
FE98
01A9
FD29
F7D2
F965
03D2
FB38
F6C0
FF05
0815
05D1
064F
0675
00BE
025F
FB35
0126
0115
0115
FD86
EB86
9700
0052
FBF3
FBFF
0C91
FD80
07E4
0468
00E3
FCEC
02DD
0401
0058
FD16
FC83
0238
FD39
FCFE
1C97
0E3C
2628
FEBE
FFD6
FDF7
FFB4
F704
012E
0173
FC1F
0E11
EFAA
F7E0
FF72
F764
FD2D
036B
FCBD
FE2F
F2A1
0862
01FB
1578
0296
0710
FFCD
0E8B
F9EA
FEBE
FF4B
FCFF
073A
F700
09F3
FCB8
FD3E
FA55
0122
009F
0D5E
FCF6
FE5C
0F7A
FE8F
0382
0448
09F0
0D14
040F
FFF3
0317
06B4
0350
FAE3
FC4B
01E1
F783
FC50
F53D
FD59
FDC0
003A
02DE
01E5
FCFE
0459
0389
03C1
FF76
E6C1
0262
FE24
0539
016E
00A1
0092
FED0
02FC
01AF
0B40
F462
0A6C
0163
003A
FCE8
0145
0050
0D96
FC2A
EF5A
0BD5
FDC0
FE10
03E6
0251
04E2
FC87
FF93
FFEE
FD9E
FE49
F898
03BE
F919
F8A7
0419
0635
1152
F41A
FFB0
FFDE
6901
0144
00EF
0B24
01B2
FBF7
FBDC
0403
FB33
0194
0138
F6F6
F8A8
FBD1
008F
FBBB
FE35
FE06
F5CE
057A
094F
FB8C
1904
0362
FFD9
FF33
FAF8
0144
006C
0C55
FF72
0378
03B5
FC04
077D
FB44
FD82
FE73
0BD2
014C
0EC5
0248
0562
00B8

