0A79
022A
FA67
FEEE
05AF
F7F2
045F
FF4E
FD58
02B8
F7F0
FD62
FBA2
0854
FE80
103C
FA9D
0668
009E
FF8B
0170
0663
0189
0252
02E9
0489
09E4
F9A0
FC08
FAC7
00C0
071B
F6B1
FF6C
F947
004E
F528
011F
03C2
0E81
00E5
0934
FFCD
1034
0CF5
0AFB
49B8
0398
FBE4
D7B6
09C9
FF52
0664
CB54
FB29
FD30
E5C2
020F
F7AD
054D
07DE
01AD
04B6
FE47
00E7
FF79
F93C
0E50
FD24
30DC
FCF6
03EC
0E59
F956
039A
FF36
FCE3
0A1D
05A2
0A66
0096
FBC0
FFB0
FD64
0246
F86E
0067
FDCC
04FE
FD98
FE75
FA40
0AAC
DFF4
FB18
F60A
064B
0041
0771
F9A9
FC31
046E
0033
0428
FE24
0085
05D2
9700
FAC2
FDD7
FBE5
016B
F30A
FB17
FE96
FD41
00AC
FD00
0189
F531
009A
FCBC
FE19
05C7
F8F7
FB86
FC8E
FD3D
037B
0325
0702
512F
FCF4
00F0
FC7E
FAAA
051C
0321
01D4
064E
041B
FFA4
0BCF
13E6
00F6
0C7A
019B
FA54
090F
080D
03D3
FD16
12F1
FF3E
FBCB
073B
FCCA
00A2
F7A6
009D
FC25
FEAD
FB2E
FD67
FDD6
005A
09D7
04F0
FAB4
0326
ABA8
0393
0C98
FF6E
01D7
FE6D
FDFC
02BB
F393
04EC
0474
0272
FE83
092F
0215
0088
FEF1
FCF6
FD08
FFF0
06C3
FCD1
FD8D
FBA1
FB65
0D3F
05E3
FC2F
E997
F806
0548
F530
F606
092D
FE5C
F8D4
01F8
0486
FF3A
01D8
FE7A
FD9F
FC17
0522
BF96
F29E
01E9
F727
F26C
0E93
FACE
04D7
0373
0639
003A
01F2
F7BA
056D
FEB5
0630
FF17
FF1D
FD24
FA47
0107
F7B5
FEA4
13A9
02AE
00AD
F8A9
FA78
03B4
FBEE
021B
FDB3
FFD7
007B
01E9
04AE
F9C5
057F
00C3
FC94
0272
0456
FA21
0ED2
045A
0767
F50D
043B
063E
004B
01F5
0179
6636
FBB0
02D6
0B66
018C
FDD6
16E6
1C56
05CE
FF9F
FF89
04CE
FBF8
FB69
FD0B
FE9E
FCBF
0855
FFBB
F689
016E
0184
05F8
ED86
F6FC
0A07
F18F
FA87
00D6
FA35
0585
029C
AC90
0825
02F1
04F6
000C
07A1
FE99
FBBA
FCA8
026F
0BC4
1A33
000E
02DE
02F7
F0B1
F721
F79C
F841
FE9E
01B6
FD32
F7DB
F96D
03DC
FB83
F6E5
FF0C
082F
05D9
065A
0691
00C9
0268
FB3F
012F
011C
012A
FD8F
ED4C
9700
005A
FBFD
FC08
0D01
FD91
082A
0470
00ED
FCF9
02E2
0409
0060
FD1A
FC88
0241
FD3D
FD03
1D55
0E5C
271C
FEC7
FFE0
FE00
FFBE
F71B
0136
0179
FC28
0E38
F0CF
F7E9
FF7B
F799
FD34
0372
FCC5
FE3A
F3A7
086C
020A
1689
02A1
0717
FFD6
0EE0
F9F3
FEC6
FF4F
FD07
0745
F80A
0A0C
FCBF
FD49
FA5D
012B
00A5
0D8A
FCFE
FE66
103D
FE99
0389
0450
0A05
0D6F
0418
FFFC
0323
06BB
0355
FAEB
FC56
01EB
F7AE
FC63
F565
FD69
FDCD
0042
02E8
01EE
FD05
0463
0393
03CA
FF81
E7B2
0267
FE33
0543
0177
00B2
009C
FEDB
0305
01B7
0B82
F4A3
0AAC
017D
0042
FCF5
014D
0057
0DB9
FC35
EFB1
0C01
FDC9
FE1B
03EF
0255
04EB
FC9C
FF9C
0002
FDA5
FE53
F8AF
03D4
F954
F8BB
0421
063B
119B
F5C3
FFB4
FFE4
6901
0153
00F9
0BA8
01CD
FC01
FBE5
040B
FB60
019B
0143
F6FE
F8CC
FBD9
0094
FBC0
FE3B
FE10
F5FC
057F
0959
FB95
1972
0373
FFE1
FF3B
FAFF
014C
0074
0CAE
FF86
037F
03C3
FC0C
0784
FB51
FD85
FE7A
0BF2
0152
0F17
0251
0568
00CB

