0807
0152
FA2B
FEA5
056B
F6DE
0413
FEFD
FD13
0279
F797
FD30
FB54
05B9
FE53
0EDA
FA54
061A
0060
FF3C
0139
0535
0146
0201
02A2
03A9
0833
F883
FBC7
FA8A
0080
06D9
F5EF
FF28
F902
FFEF
F2B7
00DA
0383
0D50
00A5
0847
FFA2
0C6F
0C49
0739
27A4
0367
FBC4
D0EA
08D2
FF13
061B
BED2
F7A2
FCF0
E09B
0182
F67F
0515
0714
0151
03A1
FE06
00B3
FF42
F834
0AE0
FCD0
2830
FCC2
03A8
0AEA
F923
02B1
FF17
FCA2
08B6
0567
0985
0039
FB81
FF19
FCFE
0208
F6FA
002A
FC81
04A1
FD1E
FCD5
F9EC
0A5A
D2DE
FABC
F51D
0536
000E
068D
F8D9
FBF1
03F9
FFEB
03FA
FDE3
005C
0589
9700
FA81
FD39
FB85
0113
ED67
FAD8
FE44
FD02
001D
FCC5
0142
F34C
005A
FC31
FDD9
0593
F8BA
FB39
FC4F
FD0D
033A
02EE
06B0
427A
FCA2
00B6
FC48
FA6B
0473
02F9
0190
0613
03E0
FF6E
0758
11E1
00AA
0AA6
014C
FA1C
0695
0680
0377
FC68
1028
FEF3
FB91
0610
FC75
005B
F3DD
005D
FBC7
FE75
FAB9
FD20
FD7F
0020
08EB
03F6
FA40
02C3
9B33
0343
0B9C
FF37
0192
FDD2
FDB0
0272
E92C
0498
0407
023E
FE31
0845
01D6
FFAE
FEAC
FCB1
FCC1
FF99
067C
FC7C
FD65
FB5F
FAAA
0B97
05A4
FBF5
D8D3
F74F
04DE
F3DC
F502
083F
FE05
F7CA
019D
0446
FEF4
0162
FE48
FD46
FB1E
04F1
B61B
F1BA
01B2
F68B
DEB3
0C0D
FA8F
0494
033D
05E3
FF82
01AF
F6EB
047B
FE5E
05C2
FEDB
FEBD
FCCF
F604
00BD
F512
FE5C
0FC7
0270
005E
F7EC
FA38
0369
FBAC
01CC
FD63
FFA5
0026
01B0
046E
F56A
0539
0076
FC4D
0237
0428
F9D2
0747
0429
0662
F472
03F8
055D
001F
01C4
0130
5864
FB11
029B
0AA3
0118
FD94
0F96
1114
0560
FF63
FF3B
0490
FB9A
FB29
FCD7
FE3E
FC82
056B
FF79
F51D
0141
014D
05B7
E566
F633
092E
EE6C
FA42
008D
F96D
0531
0259
A262
063D
02AC
04C2
FFC9
06B5
FE59
FA2F
FC69
0233
0B32
1180
FFC5
0196
02AA
ED2D
F46C
F6ED
F78D
FE6A
0150
FCEB
F794
F932
0391
F928
F5BC
FECE
075D
059C
0601
05B2
0078
0223
FAEF
00E5
00E3
0085
FD49
DF1A
9700
0019
FBAD
FBBF
097C
FD0C
05FC
042D
009E
FC91
02BD
03C6
0024
FCFB
FC60
01FB
FD23
FCD8
1767
0D60
1F7F
FE81
FF90
FDBE
FF71
F663
00F3
0145
FBDF
0CFF
E7AB
F79B
FF31
F5EE
FCFF
033B
FC85
FDE1
EB74
081D
0197
0E03
024D
06DA
FF8F
0C37
F9AD
FE85
FF2C
FCC7
06ED
EFB7
093F
FC87
FCEF
FA18
00E7
0070
0C2C
FCC3
FE1A
0A26
FE4A
0351
0412
0957
0A96
03D5
FFB5
02C7
0682
0330
FAAB
FBFE
019F
F652
FBCD
F423
FCEE
FD63
0003
0298
01A4
FCC9
0418
0349
0387
FF2D
E02F
023D
FDB8
04F4
0132
0027
0048
FE7D
02BA
017B
0970
F29C
08B2
00AE
0006
FC89
0109
001E
0CA0
FBDA
ECFA
0A9F
FD7E
FDC7
03A9
0230
04A8
FBF4
FF53
FF5D
FD6C
FE06
F7F8
0327
F77D
F81A
03E3
060E
0F54
E87B
FF91
FFAF
471F
00DE
00A6
0784
00F3
FBB2
FBA3
03CC
F9F5
0163
00EE
F6C3
F7AB
FB9C
006B
FB96
FE0C
FDBB
F48B
0550
0906
FB4E
1602
02EB
FFA2
FEF9
FAC6
010E
0032
09E9
FEE7
034A
0351
FBCE
0749
FAEA
FD6D
FE44
0AF6
0126
0C8B
0208
0539
0031

