09DC
01F4
FA58
FEDC
059E
F7AD
044C
FF3A
FD46
02A8
F7DA
FD56
FB8F
07AD
FE75
0FE3
FA8B
0655
008F
FF77
0162
0617
0178
023D
02D7
0451
0978
F959
FBF8
FAB8
00B0
070A
F680
FF5B
F935
0036
F48C
010E
03B2
0E35
00D5
08F9
FFC2
0F42
0CCA
0A0B
4133
038C
FBDC
D603
098C
FF43
0652
C833
FA48
FD20
E478
01EC
F762
053F
07AB
0196
0471
FE37
00DA
FF6B
F8FA
0D74
FD0F
2EB1
FCE9
03DB
0D7D
F94A
0360
FF2E
FCD3
09C4
0593
0A2E
007F
FBB0
FF8A
FD4B
0236
F811
0058
FD79
04E7
FD7A
FE0D
FA2B
0A98
DCAE
FB01
F5CE
0606
0034
0738
F975
FC21
0451
0021
041C
FE14
007A
05C0
9700
FAB2
FDAF
FBCD
0155
F1A1
FB07
FE81
FD31
0088
FCF1
0177
F4B7
008A
FC9A
FE09
05BA
F8E8
FB73
FC7E
FD31
036B
0317
06ED
4D82
FCE0
00E2
FC70
FA9A
04F2
0317
01C3
063F
040C
FF97
0AB2
1365
00E3
0C05
0187
FA46
0871
07A9
03BC
FCEA
123F
FF2B
FBBD
06F0
FCB5
0090
F6B3
008D
FC0D
FE9F
FB11
FD55
FDC0
004B
099C
04B2
FA97
030E
A78B
037F
0C59
FF61
01C6
FE46
FDE9
02A8
F0F9
04D7
0459
0265
FE6E
08F4
0205
0051
FEDF
FCE5
FCF6
FFDA
06B1
FCBC
FD83
FB90
FB37
0CD5
05D3
FC21
E566
F7D8
052D
F4DB
F5C5
08F2
FE46
F892
01E1
0476
FF28
01BA
FE6E
FD89
FBD8
0516
BD37
F265
01DB
F700
ED7E
0DF1
FABF
04C7
0366
0624
000C
01E1
F786
0531
FE9F
0615
FF08
FF05
FD0F
F937
00F5
F70C
FE92
12B0
029F
009A
F87A
FA68
03A2
FBDD
0207
FD9F
FFCA
0066
01DB
049E
F8AF
056E
00B0
FC82
0263
044B
FA0D
0CEF
044D
0726
F4E6
042A
0606
0040
01E9
0166
62C1
FB88
02C7
0B36
016F
FDC5
1512
1986
05B2
FF90
FF75
04BE
FBE0
FB59
FCFE
FE86
FCB0
079A
FFAA
F62E
0162
0176
05E8
EB7E
F6CA
09D0
F0C6
FA76
00C4
FA03
0570
028B
AA04
07AB
02E0
04E9
FFFB
0766
FE89
FB57
FC99
0260
0B9F
1806
FFFB
028C
02E4
EFD0
F674
F770
F814
FE91
019D
FD20
F7C9
F95E
03C9
FAEC
F69B
FEFD
07FB
05CA
0644
0659
00B4
0257
FB2B
011C
010E
0100
FD7D
E9BF
9700
0049
FBE9
FBF6
0C20
FD6F
079F
0460
00D9
FCDF
02D8
03F8
0051
FD12
FC7E
022F
FD36
FCF8
1BD9
0E1D
2535
FEB5
FFCC
FDEF
FFAB
F6ED
0125
016C
FC16
0DEA
EE86
F7D6
FF69
F72E
FD27
0364
FCB5
FE24
F19A
0858
01ED
1467
028C
0708
FFC4
0E36
F9E1
FEB6
FF46
FCF7
072F
F5F5
09D9
FCB1
FD33
FA4C
011A
0098
0D33
FCEF
FE53
0EB7
FE86
037B
0440
09DA
0CB9
0407
FFEA
030C
06AD
034C
FADB
FC40
01D8
F757
FC3E
F514
FD4A
FDB3
0032
02D4
01DC
FCF6
0450
0380
03B9
FF6C
E5D1
025D
FE15
052F
0166
008F
0087
FEC4
02F2
01A8
0AFD
F421
0A2D
0149
0033
FCDA
013C
0048
0D73
FC1F
EF04
0BA9
FDB6
FE06
03DD
024C
04DA
FC72
FF8A
FFD9
FD97
FE40
F881
03A9
F8DE
F893
0411
0630
1109
F271
FFAB
FFD7
6901
0136
00E4
0A9F
0197
FBED
FBD4
03FB
FB05
018D
012E
F6EF
F884
FBCA
008A
FBB6
FE2F
FDFB
F5A0
0574
0944
FB83
1896
0351
FFD1
FF2A
FAF1
013C
0064
0BFD
FF5E
0372
03A7
FBFC
0775
FB37
FD7F
FE6C
0BB3
0147
0E74
023E
055C
00A5

