098E
01D9
FA50
FED3
0596
F78A
0442
FF30
FD3E
02A0
F7CF
FD4F
FB85
075A
FE6F
0FB7
FA82
064B
0087
FF6D
015B
05F2
0170
0233
02CE
0435
0942
F935
FBF0
FAB1
00A8
0702
F668
FF53
F92D
002A
F43E
0105
03AA
0E0F
00CD
08DB
FFBD
0ECA
0CB4
0993
3CF0
0386
FBD8
D52A
096D
FF3B
0649
C6A3
F9D7
FD18
E3D3
01DA
F73C
0538
0792
018A
044E
FE2F
00D3
FF64
F8D9
0D06
FD04
2D9C
FCE2
03D3
0D0F
F943
0343
FF2A
FCCB
0997
058C
0A12
0073
FBA8
FF77
FD3E
022F
F7E3
0050
FD50
04DB
FD6A
FDD9
FA20
0A8D
DB0C
FAF6
F5B1
05E3
002E
071B
F95B
FC19
0442
0018
0417
FE0C
0075
05B7
9700
FAAA
FD9C
FBC1
014A
F0ED
FB00
FE77
FD29
0076
FCEA
016E
F47B
0082
FC88
FE01
05B4
F8E0
FB69
FC77
FD2B
0363
0310
06E3
4BAB
FCD6
00DA
FC69
FA92
04DD
0312
01BB
0638
0405
FF90
0A23
1324
00D9
0BCA
017D
FA3F
0822
0778
03B0
FCD4
11E6
FF22
FBB5
06CB
FCAA
0088
F63A
0085
FC01
FE98
FB02
FD4C
FDB5
0044
097E
0492
FA89
0301
A57C
0375
0C39
FF5A
01BD
FE33
FDDF
029F
EFAC
04CD
044B
025E
FE64
08D7
01FD
0036
FED7
FCDC
FCED
FFCF
06A9
FCB1
FD7E
FB88
FB1F
0CA0
05CB
FC19
E34D
F7C1
0520
F4B1
F5A4
08D4
FE3B
F870
01D6
046E
FF20
01AB
FE67
FD7E
FBB9
0510
BC08
F249
01D4
F6EC
EB07
0DA0
FAB7
04BE
035F
0619
FFF5
01D9
F76C
0512
FE94
0607
FF00
FEF9
FD04
F8AE
00EB
F6B8
FE89
1234
0297
0090
F862
FA60
0398
FBD5
01FD
FD95
FFC4
005B
01D4
0496
F823
0565
00A6
FC79
025C
0445
FA04
0BFE
0447
0705
F4D3
0422
05EA
003B
01E3
015D
6107
FB74
02C0
0B1D
0160
FDBD
1428
181D
05A5
FF89
FF6C
04B7
FBD5
FB51
FCF8
FE7A
FCA8
073D
FFA2
F600
015D
0170
05E0
EA7A
F6B1
09B5
F062
FA6D
00BB
F9EA
0565
0283
A8BF
076E
02D7
04E2
FFF3
0749
FE81
FB26
FC91
0259
0B8D
16F0
FFF2
0263
02DA
EF5F
F61D
F75A
F7FE
FE8B
0190
FD17
F7C0
F957
03C0
FAA1
F675
FEF5
07E0
05C2
0639
063D
00AA
024E
FB21
0113
0107
00EC
FD74
E7F9
9700
0041
FBDF
FBED
0BAF
FD5F
0759
0457
00CF
FCD2
02D4
03F0
0049
FD0E
FC79
0227
FD33
FCF3
1B1C
0DFE
2441
FEAD
FFC2
FDE7
FFA1
F6D6
011D
0166
FC0D
0DC3
ED61
F7CC
FF5F
F6F9
FD20
035D
FCAD
FE19
F094
084F
01DF
1356
0281
0700
FFBB
0DE1
F9D9
FEAD
FF42
FCEF
0724
F4EB
09BF
FCAA
FD27
FA43
0111
0091
0D07
FCE8
FE49
0DF4
FE7C
0374
0439
09C4
0C5E
03FE
FFE1
0300
06A6
0347
FAD3
FC35
01CE
F72C
FC2B
F4EC
FD3B
FDA5
002A
02CA
01D2
FCEF
0447
0377
03B1
FF61
E4E1
0258
FE05
0525
015D
007E
007D
FEB8
02E9
01A0
0ABB
F3E0
09EE
012F
002B
FCCD
0134
0041
0D50
FC13
EEAD
0B7C
FDAD
FDFB
03D5
0247
04D2
FC5D
FF81
FFC4
FD90
FE36
F86A
0393
F8A3
F87F
040A
062A
10C0
F0C8
FFA7
FFD1
6529
0127
00DA
0A1B
017B
FBE3
FBCC
03F3
FAD8
0186
0123
F6E7
F860
FBC2
0085
FBB0
FE29
FDF0
F572
056E
093A
FB7A
1828
0340
FFC9
FF22
FAEA
0135
005B
0BA4
FF4B
036B
0398
FBF5
076E
FB2A
FD7C
FE66
0B93
0141
0E22
0235
0557
0092

