0B16
0260
FA76
FF00
05C0
F836
0472
FF62
FD69
02C8
F806
FD6E
FBB5
08FB
FE8B
1094
FAB0
067C
00AE
FF9F
017E
06AF
019A
0266
02FB
04C1
0A50
F9E7
FC19
FAD7
00D0
072B
F6E1
FF7D
F958
0065
F5C5
0131
03D1
0ECE
00F6
096F
FFD7
1125
0D20
0BEC
523C
03A4
FBEC
D96A
0A07
FF62
0677
CE74
FC0B
FD40
E70B
0232
F7F9
055B
0810
01C3
04FB
FE57
00F4
FF87
F97E
0F2C
FD39
3307
FD02
03FD
0F34
F963
03D5
FF3D
FCF4
0A77
05B1
0A9E
00AD
FBCF
FFD6
FD7E
0255
F8CC
0077
FE1F
0516
FDB7
FEDE
FA55
0AC1
E339
FB30
F645
0691
004D
07AA
F9DD
FC41
048C
0045
0433
FE34
008F
05E5
9700
FAD2
FDFE
FBFD
0181
F473
FB27
FEAA
FD50
00D0
FD0F
019A
F5AA
00A9
FCDF
FE29
05D4
F907
FB9A
FC9E
FD49
038B
0332
0716
54DC
FD09
00FF
FC8B
FABA
0546
032C
01E5
065D
042A
FFB1
0CED
1467
0109
0CEE
01AF
FA61
09AE
0870
03EA
FD41
13A3
FF51
FBDA
0786
FCE0
00B4
F898
00AD
FC3C
FEBB
FB4B
FD78
FDEB
0068
0A11
052F
FAD1
033F
AFC5
03A7
0CD7
FF7C
01E8
FE94
FE0F
02CD
F62C
0501
048F
027F
FE98
0969
0225
00BE
FF02
FD07
FD1A
0005
06D5
FCE7
FD96
FBB1
FB94
0DA9
05F3
FC3E
EDC8
F834
0562
F585
F647
0969
FE71
F917
020F
0496
FF4B
01F5
FE87
FDB5
FC55
052F
C1F5
F2D7
01F7
F74E
F75B
0F34
FADE
04E8
0381
064F
0068
0203
F7ED
05AA
FECB
064C
FF26
FF34
FD39
FB58
011A
F85D
FEB6
14A1
02BE
00C1
F8D8
FA88
03C7
FBFE
022E
FDC7
FFE3
0090
01F8
04BE
FADC
0591
00D6
FCA6
0281
0461
FA35
10B5
0466
07A9
F534
044C
0677
0056
0202
018B
6901
FBD8
02E5
0B97
01A8
FDE6
18BA
1F27
05EA
FFAE
FF9C
04DD
FC0F
FB79
FD18
FEB6
FCCF
090F
FFCB
F6E4
0179
0192
0609
EF8E
F72E
0A3D
F258
FA98
00E8
FA67
059A
02AC
AF1B
089F
0302
0503
001C
07DC
FEA9
FC1D
FCB8
027E
0BE8
1C5F
0020
0330
030A
F192
F7CE
F7C7
F86F
FEAB
01D0
FD44
F7ED
F97B
03EE
FC1A
F72F
FF1C
0864
05E8
0670
06C9
00DD
0279
FB53
0141
012A
0153
FDA0
F0D9
9700
006A
FC11
FC1A
0DE3
FDB2
08B6
0481
0100
FD13
02EB
041A
006F
FD21
FC92
0252
FD43
FD0E
1ED1
0E9B
2903
FED8
FFF5
FE10
FFD1
F749
0147
0186
FC3A
0E86
F317
F7FD
FF8D
F804
FD41
037F
FCD4
FE50
F5B4
0880
0226
18AA
02B5
0726
FFE7
0F8A
FA04
FED6
FF58
FD17
075B
FA1F
0A40
FCCD
FD60
FA6F
013C
00B3
0DE2
FD0C
FE78
11C2
FEAD
0397
045F
0A31
0E26
0428
000D
033A
06CA
035E
FAFA
FC6C
01FD
F805
FC89
F5B5
FD87
FDE8
0051
02FC
0201
FD15
0475
03A5
03DA
FF96
E992
0272
FE52
0557
0189
00D5
00B1
FEF3
0317
01C5
0C06
F524
0B2A
01B1
0050
FD10
015E
0065
0DFF
FC4C
F05F
0C59
FDDC
FE30
0401
025F
04FB
FCC6
FFAF
002C
FDB3
FE66
F8DC
03FF
F9C9
F8E3
0430
0646
122D
F914
FFBD
FFF2
6901
0170
010E
0CB1
0203
FC14
FBF5
041A
FBBB
01A9
0158
F70C
F915
FBE8
009F
FBCB
FE46
FE26
F658
058B
096D
FBA7
1A4E
0395
FFF1
FF4B
FB0D
015B
0085
0D5F
FFAE
038C
03E0
FC1B
0793
FB6A
FD8A
FE87
0C31
015D
0FBA
0263
0574
00F2

