0940
01BE
FA49
FEC9
058D
F768
0439
FF26
FD35
0299
F7C4
FD49
FB7B
0707
FE6A
0F8B
FA79
0641
007F
FF63
0154
05CC
0168
0229
02C5
0419
090B
F912
FBE8
FAA9
00A0
06FA
F650
FF4A
F924
001F
F3F0
00FD
03A3
0DE9
00C5
08BD
FFB7
0E51
0C9F
091A
38AE
0380
FBD4
D450
094E
FF33
0640
C513
F966
FD10
E32E
01C8
F716
0531
0779
017F
042B
FE27
00CD
FF5E
F8B8
0C98
FCFA
2C86
FCDC
03CA
0CA1
F93D
0326
FF26
FCC3
096A
0585
09F6
0068
FBA1
FF64
FD31
0227
F7B4
0049
FD26
04D0
FD5B
FDA5
FA16
0A83
D969
FAEA
F593
05C0
0028
06FF
F941
FC11
0433
000F
0411
FE04
0070
05AE
9700
FAA1
FD88
FBB5
013F
F038
FAF8
FE6D
FD21
0064
FCE3
0165
F43E
007A
FC77
FDF9
05AD
F8D9
FB60
FC6F
FD25
035A
0309
06D9
49D5
FCCB
00D3
FC63
FA8B
04C7
030D
01B2
0631
03FD
FF89
0994
12E3
00D0
0B90
0173
FA38
07D2
0746
03A5
FCBF
118C
FF19
FBAE
06A5
FCA0
007F
F5C1
007D
FBF6
FE91
FAF3
FD43
FDAA
003D
0961
0473
FA7A
02F5
A36E
036B
0C1A
FF53
01B4
FE20
FDD6
0296
EE5F
04C2
043E
0258
FE5A
08BA
01F5
001B
FECE
FCD3
FCE4
FFC5
06A0
FCA7
FD79
FB80
FB08
0C6B
05C3
FC12
E135
F7AA
0513
F486
F584
08B6
FE30
F84F
01CB
0466
FF17
019D
FE61
FD72
FB9A
0509
BAD9
F22C
01CD
F6D9
E890
0D50
FAAF
04B6
0358
060E
FFDE
01D0
F752
04F4
FE8A
05F9
FEF9
FEED
FCFA
F826
00E2
F663
FE80
11B8
028F
0086
F84B
FA58
038F
FBCD
01F4
FD8B
FFBE
0050
01CC
048E
F798
055C
009C
FC71
0255
043F
F9FA
0B0C
0441
06E5
F4C0
0419
05CE
0035
01DD
0154
5F4D
FB61
02B8
0B05
0152
FDB5
133E
16B5
0597
FF81
FF62
04AF
FBC9
FB49
FCF1
FE6E
FCA1
06E0
FF9A
F5D3
0157
0169
05D8
E976
F698
099A
EFFD
FA65
00B1
F9D1
055B
027B
A779
0731
02CF
04DC
FFEA
072B
FE79
FAF4
FC89
0251
0B7B
15DA
FFE9
023A
02D1
EEEF
F5C6
F745
F7E7
FE84
0183
FD0E
F7B7
F94F
03B7
FA56
F650
FEED
07C6
05BB
062E
0621
00A0
0246
FB17
010A
0100
00D7
FD6C
E633
9700
0039
FBD5
FBE4
0B3E
FD4E
0713
044F
00C5
FCC5
02CF
03E8
0042
FD0A
FC74
021E
FD30
FCED
1A5E
0DDE
234E
FEA4
FFB8
FDDF
FF98
F6BF
0114
015F
FC03
0D9C
EC3D
F7C2
FF56
F6C3
FD1A
0356
FCA5
FE0E
EF8D
0845
01D0
1246
0277
06F9
FFB3
0D8B
F9D0
FEA5
FF3D
FCE7
0719
F3E1
09A6
FCA3
FD1C
FA3B
0109
008B
0CDB
FCE0
FE40
0D32
FE72
036D
0431
09AE
0C02
03F6
FFD8
02F5
069E
0343
FACB
FC2A
01C5
F700
FC18
F4C4
FD2B
FD98
0022
02C0
01C9
FCE7
043E
036E
03A8
FF57
E3F1
0252
FDF6
051B
0154
006C
0072
FEAC
02E0
0199
0A79
F3A0
09AF
0115
0024
FCBF
012B
003A
0D2C
FC08
EE56
0B50
FDA3
FDF1
03CC
0243
04C9
FC48
FF78
FFB0
FD89
FE2C
F853
037E
F868
F86B
0402
0624
1078
EF1F
FFA2
FFCA
5F27
0118
00D0
0996
0160
FBD9
FBC4
03EB
FAAA
017F
0119
F6E0
F83C
FBBB
007F
FBAB
FE23
FDE6
F544
0568
0930
FB71
17BA
032F
FFC1
FF1A
FAE2
012D
0053
0B4C
FF37
0365
038A
FBED
0766
FB1E
FD79
FE5F
0B74
013C
0DD1
022C
0551
007E

