076A
011C
FA1B
FE93
055A
F69A
0400
FEE9
FD02
0269
F781
FD24
FB41
0512
FE48
0E82
FA42
0607
0050
FF28
012B
04E9
0135
01EC
0290
0371
07C7
F83C
FBB6
FA7B
0071
06C8
F5BE
FF17
F8F1
FFD8
F21A
00C8
0374
0D04
0095
080B
FF98
0B7E
0C1E
0649
1F1F
035B
FBBC
CF37
0894
FF03
0609
BBB2
F6C0
FCE0
DF51
015F
F633
0507
06E2
013A
035C
FDF6
00A6
FF34
F7F2
0A04
FCBB
2604
FCB6
0397
0A0E
F916
0277
FF0F
FC92
085C
0559
094D
0022
FB72
FEF3
FCE4
01F8
F69D
001B
FC2E
048A
FD00
FC6D
F9D7
0A45
CF98
FAA5
F4E2
04F0
0002
0654
F8A4
FBE1
03DB
FFDA
03EF
FDD3
0052
0577
9700
FA70
FD11
FB6C
00FD
EBFE
FAC9
FE30
FCF2
FFF9
FCB6
0130
F2D2
004A
FC0F
FDC9
0586
F8AB
FB26
FC40
FD01
032A
02E0
069B
3ECD
FC8D
00A7
FC3A
FA5B
0449
02EF
017F
0604
03D1
FF61
063B
1160
0097
0A31
0138
FA0E
05F7
061D
0360
FC3C
0F75
FEE0
FB83
05C5
FC5F
0049
F2EA
004D
FBAF
FE67
FA9C
FD0F
FD69
0012
08B0
03B7
FA23
02AB
9716
032E
0B5C
FF29
0181
FDAC
FD9D
0260
E692
0483
03EC
0231
FE1C
080B
01C6
FF78
FE9B
FCA0
FCAF
FF84
066B
FC67
FD5B
FB4E
FA7B
0B2D
0594
FBE6
D4A2
F721
04C4
F387
F4C1
0804
FDEF
F787
0186
0436
FEE3
0144
FE3B
FD30
FADF
04E4
B3BC
F182
01A4
F663
D9C5
0B6B
FA7F
0483
032F
05CE
FF54
019E
F6B8
043F
FE49
05A7
FECC
FEA5
FCBA
F4F3
00AB
F469
FE4A
0ECF
0260
004A
F7BD
FA28
0356
FB9B
01B9
FD4F
FF98
0010
01A1
045E
F453
0528
0062
FC3B
0228
041D
F9BF
0564
041C
0621
F44B
03E7
0525
0014
01B8
011D
54F0
FAEA
028C
0A72
00FB
FD83
0DC1
0E43
0544
FF55
FF27
0481
FB83
FB19
FCCA
FE27
FC73
04B1
FF69
F4C2
0136
013F
05A6
E35E
F601
08F8
EDA3
FA31
007A
F93A
051C
0249
9FD6
05C3
029B
04B5
FFB9
067A
FE49
F9CC
FC5A
0224
0B0E
0F54
FFB2
0145
0297
EC4C
F3BF
F6C2
F760
FE5D
0136
FCD9
F782
F924
037F
F892
F572
FEBE
0729
058D
05EB
057A
0064
0212
FADB
00D2
00D5
005C
FD37
DB8D
9700
0008
FB99
FBAD
089A
FCEB
0571
041C
008A
FC77
02B3
03B5
0015
FCF3
FC56
01EA
FD1C
FCCD
15EB
0D21
1D98
FE70
FF7C
FDAE
FF5E
F635
00E2
0138
FBCC
0CB1
E562
F787
FF1F
F583
FCF2
032D
FC75
FDCB
E967
0809
017A
0BE1
0238
06CB
FF7E
0B8C
F99C
FE74
FF23
FCB6
06D7
EDA2
090C
FC78
FCD8
FA07
00D6
0063
0BD4
FCB5
FE08
08A1
FE37
0344
0402
092C
09DF
03C4
FFA4
02B0
0673
0327
FA9B
FBE8
018C
F5FB
FBA7
F3D2
FCCF
FD49
FFF3
0284
0192
FCBA
0406
0337
0376
FF18
DE4F
0232
FD99
04E0
0120
0004
0033
FE66
02A8
016C
08EC
F21B
0833
007A
FFF7
FC6E
00F8
0010
0C59
FBC3
EC4D
0A47
FD6B
FDB2
0397
0226
0498
FBCA
FF41
FF33
FD5E
FDF3
F7CA
02FC
F708
F7F2
03D4
0603
0EC3
E529
FF88
FFA2
3B1C
00C0
0092
067B
00BD
FB9E
FB93
03BC
F99A
0155
00D9
F6B4
F763
FB8D
0060
FB8B
FE01
FDA6
F42F
0545
08F2
FB3C
1526
02C9
FF92
FEE8
FAB8
00FE
0021
0938
FEC0
033D
0334
FBBE
073A
FAD1
FD67
FE36
0AB7
011B
0BE9
01F6
052D
000B

