FA32
041C
F7A2
FE59
0067
014F
0869
0088
F90A
038B
FFA8
2BE7
08F1
F813
F6A4
03C4
F855
FCC9
02CE
056F
FF2C
0032
FD09
FAC7
06A9
FFF4
0593
FB91
FE4E
014B
FDE1
FC57
06BA
FC4E
0198
07E7
0156
0382
FB98
F456
FAC8
0908
9D42
019B
EA78
FE3B
FEB4
0685
FAC1
DAEB
F522
01A8
FE4E
B74A
E12A
0343
F705
FEE2
00C7
0278
0373
FFAB
F5F6
023E
042F
0579
5A1E
0127
056D
FBA6
FC8A
0147
F64C
0096
A3A8
FFD1
FC71
FFCE
F4C3
015D
039B
0777
0082
00EA
9700
09EC
00A8
002B
FD26
2073
FF7B
FBE8
FF3B
FC8D
01A5
FF98
FF30
0959
00F0
FE24
0419
FFBE
FAB3
FBE0
000B
0422
E120
013A
02C4
08F1
0112
ED51
03B1
FF5C
F80F
03EB
FF95
00B1
FBAB
00F9
0070
F4B9
1670
FACD
FEFB
0750
0B16
053F

