FF00
FF62
FD6E
1094
FF9F
0266
F9E7
072B
0065
0ECE
1125
03A4
FF62
FD40
055B
FE57
0F2C
03FD
FF3D
0A9E
FD7E
FE1F
FA55
F645
F9DD
0433
9700
0181
FD50
F5AA
05D4
FD49
54DC
FABA
065D
1467
FA61
FD41
0786
00AD
FD78
052F
03A7
FE94
0501
0969
FD07
FCE7
0DA9
F834
0969
0496
FDB5
F2D7
0F34
064F
05AA
FF34
F85D
00C1
FBFE
0090
0591
0461
07A9
0056
FBD8
FDE6
FFAE
FB79
090F
0192
0A3D
FA67
089F
07DC
027E
0330
F7C7
FD44
FC1A
05E8
0279
0153
006A
FDB2
FD13
FD21
FD0E
FED8
F749
0E86
F804
FE50
18AA
0F8A
FD17
FCCD
00B3
11C2
0A31
033A
FC6C
F5B5
02FC
03A5
0272
00D5
01C5
01B1
0065
0C59
025F
002C
03FF
0646
FFF2
0CB1
041A
F70C
FBCB
058B
0395
015B
038C
FB6A
015D
00F2

