FEE5
FF44
FD5C
100F
FF81
0248
F97C
0712
0042
0E5B
0FBB
0392
FF4A
FD28
0546
FE3F
0DE2
03E3
FF32
0A4A
FD57
FDA3
FA35
F5EC
F98F
0422
9700
0160
FD39
F4F4
05C1
FD37
4F58
FAA2
0647
13A5
FA4D
FD00
0716
0095
FD5E
04D1
0389
FE5A
04E2
0912
FCED
FCC7
0D0A
F7EF
0910
047E
FD94
F282
0E42
062E
054F
FF11
F760
00A4
FBE6
0070
0577
0450
0747
0046
FB9C
FDCE
FF98
FB61
07F7
017D
09EC
FA1C
07E8
0784
0268
02B5
F786
FD29
FB38
05D1
025F
0115
0052
FD80
FCEC
FD16
FCFE
FEBE
F704
0E11
F764
FE2F
1578
0E8B
FCFF
FCB8
009F
0F7A
09F0
0317
FC4B
F53D
02DE
0389
0262
00A1
01AF
0163
0050
0BD5
0251
FFEE
03BE
0635
FFDE
0B24
0403
F6F6
FBBB
057A
0362
0144
0378
FB44
014C
00B8

