FA14
03F6
F776
FE42
0048
012D
0791
0069
F8E8
036C
FF92
1ADD
0875
F650
F60D
0339
F7D1
FCAF
025A
0551
FEE0
0013
FC39
FA99
0637
FFD1
056E
FB60
FE26
0128
FDC1
FC38
0691
FC33
0176
05AC
012E
0354
FB7B
F271
FA8E
0892
9700
0178
E545
FE12
FE92
0662
FA64
D289
F4A1
017B
FE35
B28D
D74E
0328
F69E
FEC4
00A2
0258
034D
FF92
F3C8
0220
0416
0509
5336
00ED
0536
FB77
FC6B
0130
F5E8
0071
9E91
FFB0
FC52
FFA9
F368
0129
0375
070E
005A
00CE
9700
082A
0080
000D
FD19
1CA5
FF54
FBC3
FF16
FC6D
016C
FF75
FF1E
08F2
00CE
FDFE
03FA
FF9B
FA93
FB95
FFEB
03FD
DD5E
0117
029E
07F4
00F0
EBF6
038E
FF38
F7B3
03CD
FF83
0087
FB8A
00CF
005B
F401
14B8
FAB0
FEAC
0733
0A98
0527

