0AC7
05B8
FD60
FBAC
FAA7
0177
02F2
FC11
F6C9
F577
00ED
0D0A
FBE8
066E
E666
07F7
00ED
FD2E
0EC6
FCEB
00A2
024E
050A
0AB6
066E
FC39
FE2C
FACA
F3BF
00BE
00A1
F8FF
0383
FCFF
0531
0422
00FF
095F
134A
FCD5
FC30
FDE1
FAC2
0CB7
FE05
0482
021D
FD11
FD91
05EB
0555
FE67
FF42
FC36
01F0
FAD6
0051
FEC0
FD2F
FEAD
F8C1
0225
01F0
00CD
FA2B
F520
01FB
02DD
17D0
FF93
FD12
FFC3
0601
F1F3
058F
02F9
FEA1
0BD6
0301
F858
F7E4
F70A
0665
FB49
FD97
FC07
0870
02E6
FC8D
1E13
FFEB
013E
F1F3
FD3A
F4AE
02AB
F9FC
0750
FD55
0DB6
FEA3
0DCB
06C2
01F4
FD78
01F7
03D2
FE43
00A7
0BC4
0049
0DDC
FDD2
04F3
FDAC
F98E
11E4
6901
01E8
FB8D
F8F0
FE40
0963
FFE9
007D
03D2
FD87
0F68

