FED3
FF30
FD4F
0FB7
FF6D
0233
F935
0702
002A
0E0F
0ECA
0386
FF3B
FD18
0538
FE2F
0D06
03D3
FF2A
0A12
FD3E
FD50
FA20
F5B1
F95B
0417
9700
014A
FD29
F47B
05B4
FD2B
4BAB
FA92
0638
1324
FA3F
FCD4
06CB
0085
FD4C
0492
0375
FE33
04CD
08D7
FCDC
FCB1
0CA0
F7C1
08D4
046E
FD7E
F249
0DA0
0619
0512
FEF9
F6B8
0090
FBD5
005B
0565
0445
0705
003B
FB74
FDBD
FF89
FB51
073D
0170
09B5
F9EA
076E
0749
0259
0263
F75A
FD17
FAA1
05C2
024E
00EC
0041
FD5F
FCD2
FD0E
FCF3
FEAD
F6D6
0DC3
F6F9
FE19
1356
0DE1
FCEF
FCAA
0091
0DF4
09C4
0300
FC35
F4EC
02CA
0377
0258
007E
01A0
012F
0041
0B7C
0247
FFC4
0393
062A
FFD1
0A1B
03F3
F6E7
FBB0
056E
0340
0135
036B
FB2A
0141
0092

