EF0F
074B
F2C5
0425
2C24
F68D
02E4
01FA
27C2
F52C
F097
3175
FA79
FD6A
EBB3
0BD3
A7FB
15B0
FD77
E793
071D
FD8C
F46D
CF91
063F
FEC5
02F6
F2FB
17E5
F87A
FE89
EF2C
1A76
7E01
FA68
01F7
04C6
0030
DD89
F321
1742
DBA6
2914
18AA
047D
2FE1
0B80
FE36
E9C4
FCF8
08A8
0237
F97B
E3DF
FFC7
FE79
FEFD
05B5
F5D4
F3F0
ED63
05CF
03F4
FE50

