EE01
06FD
F10E
0408
1C2C
F5D6
0260
01B4
246D
F497
EFEE
2DC9
FA49
FD51
EA30
0B82
8200
1349
FD50
E5EB
0701
FD79
EE0F
CCE7
05DA
FE97
02C4
F2DA
166C
F631
FE75
EE73
17C9
7E01
FA48
01D4
04AF
FFD7
DA9A
F1F2
15CB
D9A5
1B3B
1227
0468
26EA
0B2B
FCF0
E9A2
FC40
085B
0203
F93B
E39D
FF7F
FE5A
FEE7
051A
F5B4
F3CB
E9F5
05B6
03DA
FE0A

