FAC0
083D
189B
FB62
F863
00B6
EC95
F2AD
D6AB
F086
FF6F
F55A
F680
0498
0C89
1F18
E244
F6E5
F41F
0826
12FE
0619
013C
1E18
BB4E
F192
0472
EF77
166C
08A2
B693
FE60
0CD7
05B8
F59D
0820
F742
0FAC
F0E4
0896
13BF
0B06
F4D9
E758
FA9D
05AB
191F
0CC0
00AD
CA5F
01D0
E8C2
0538
F78A
F85F
FF35
FEEC
0F62
EE72
0032
03D9
0126
F9CA
1608

