1FE3F
0015F
0110B
00574
1F5E0
1FDB1
01A54
00141
00035
1C275
00123
0093C
017C0
1E9A9
1FFEE
1FEF0
006C8
00290
1FD03
1FFA9
1F416
1FF1E
1FDA6
1FDE5
010FD
01418
1F9E3
0FC01
1FE76
00278
00548
01208
1F640
1E584
1FDA0
0023E
005D5
002E2
03229
0003E
0074F
1F1DC
1F115
1FFFD
00EBA
001B5
1FB96
00EB5
1FEE3
003A2
04C7D
0FB45
0002B
00E8D
1FE49
0005D
01BA5
017C6
1FA03
1FFA4
1F97B
1FE9F
1F352
00173
00A0D
1EA19
0017D
1F9E2
1FDC3
1F46C
00047
00059
003A7
00A7A
000A1
1FB19
1FC94
1FEA0
00072
1C8FF
0021F
000E9
1FF17
1FB63
1FFF2
1E581
1E9B1
008D3
0096B
1FDBE
1FC70
002A6
1FC3D
1FD63
00F0F
1FD9F
1FF70
1FFCA
0041B
1F0F9
1F1E3
1FDEE
1FEC0
01475
0046A
1EFD1
1FD92
197F9
006A1
1F30C
1FE9B
0023C
0016E
1E233
00021
00114
1FFB2
1FF92
1E615
000E7
1F920
00085
01A97
0123E
00034
1FFA6
1FF27
1FDD9

