0B16
05C0
FD69
FBB5
FAB0
017E
02FB
FC19
F6E1
F5C5
00F6
0D20
FBEC
0677
E70B
0810
00F4
FD39
0F34
FCF4
00AD
0255
0516
0AC1
0691
FC41
FE34
FAD2
F473
00D0
00A9
F907
038B
FD09
0546
042A
0109
09AE
13A3
FCE0
FC3C
FDEB
FAD1
0CD7
FE0F
048F
0225
FD1A
FD96
05F3
0562
FE71
FF4B
FC55
01F7
FADE
0068
FECB
FD39
FEB6
F8D8
022E
01F8
00D6
FA35
F534
0202
02E5
18BA
FF9C
FD18
FFCB
0609
F258
059A
0302
FEA9
0BE8
030A
F86F
F7ED
F72F
0670
FB53
FDA0
FC11
08B6
02EB
FC92
1ED1
FFF5
0147
F317
FD41
F5B4
02B5
FA04
075B
FD60
0DE2
FEAD
0E26
06CA
01FD
FD87
0201
03DA
FE52
00B1
0C06
0050
0DFF
FDDC
04FB
FDB3
F9C9
122D
6901
0203
FBBB
F915
FE46
096D
FFF1
0085
03E0
FD8A
0FBA

