FEAE
FF08
FD36
0F06
FF45
020B
F8A7
06E1
FFFB
0D76
0CE8
036E
FF1B
FCF8
051C
FE0E
0B4E
03B1
FF1B
09A1
FD0B
FCAA
F9F7
F53B
F8F3
0400
9700
011E
FD0A
F388
059A
FD13
4451
FA73
061B
1222
FA23
FC7D
0635
0065
FD29
0415
034D
FDE6
04A3
0862
FCBA
FC87
0BCC
F766
085D
044E
FD51
F1D7
0C5D
05EE
0499
FEC9
F566
0068
FBB4
0030
0542
042E
0683
0025
FB25
FD9C
FF6B
FB31
05C8
0154
0949
F986
067A
06D2
023B
01BF
F703
FCF3
F974
05A4
022C
0099
0021
FD1C
FC9E
FCFF
FCDD
FE8A
F67A
0D27
F623
FDEC
0F13
0C8C
FCCF
FC8E
0077
0AE9
096D
02D2
FC09
F44B
02A2
0353
0242
0038
0182
00C8
0025
0ACC
0234
FF71
033D
0614
FFB6
0808
03D3
F6CA
FB9B
0556
02FC
0116
0351
FAF7
012B
0045

