09DC
059E
FD46
FB8F
FA8B
0162
02D7
FBF8
F680
F48C
00D5
0CCA
FBDC
0652
E478
07AB
00DA
FD0F
0D7D
FCD3
007F
0236
04E7
0A98
0606
FC21
FE14
FAB2
F1A1
0088
008A
F8E8
036B
FCE0
04F2
040C
00E3
0871
123F
FCB5
FC0D
FDC0
FA97
0C59
FDE9
0459
0205
FCF6
FD83
05D3
052D
FE46
FF28
FBD8
01DB
FABF
000C
FE9F
FD0F
FE92
F87A
0207
01DB
00B0
FA0D
F4E6
01E9
02C7
1512
FF75
FCFE
FFAA
05E8
F0C6
0570
02E0
FE89
0B9F
02E4
F814
F7C9
F69B
0644
FB2B
FD7D
FBE9
079F
02D8
FC7E
1BD9
FFCC
0125
EE86
FD27
F19A
028C
F9E1
072F
FD33
0D33
FE86
0CB9
06AD
01D8
FD4A
01DC
03B9
FE15
0087
0AFD
0033
0D73
FDB6
04DA
FD97
F8DE
1109
6901
0197
FB05
F884
FE2F
0944
FFD1
0064
03A7
FD7F
0E74

