FA6E
0468
F7FB
FE86
00A6
0192
0A1A
00C8
F94F
03CA
FFD2
4DFA
09E8
FB9A
F7D3
04D8
F95D
FCFC
03B7
05AA
FFC3
006F
FEAA
FB24
078D
003C
05DC
FBF1
FEA0
0191
FE21
FC96
070C
FC85
01DD
0C5E
01A5
03DE
FBD2
F81F
FB3C
09F4
ADB7
01DF
F4DF
FE8D
FEF9
06CC
FB7D
EBB0
F626
0204
FE80
C0C6
F4E4
037A
F7D3
FF1E
0110
02B6
03BE
FFDD
FA51
027A
0460
065B
67F0
019A
05DC
FC03
FCC7
0173
F715
00DF
ADD6
0014
FCB0
0017
F777
01C3
03E5
084A
00D3
0123
9700
0D72
00F6
0067
FD40
280F
FFC8
FC31
FF84
FCCD
0218
FFDF
FF54
0A26
0133
FE6F
0458
0004
FAF2
FC76
004A
046C
E8A2
0180
030E
0AEB
0156
F008
03F8
FFA5
F8C6
0428
FFB9
0103
FBED
014D
009A
F62A
19E0
FB06
FF9A
078B
0C11
056E

