01A3
7746
0291
06B3
0638
05A6
03FD
7AA1
7F42
00F4
08A0
08A2
5376
4383
01B7
0173
7F57
2B70
7936
093D
7B99
7786
7D4C
57C6
0021
0425
006B
7D74
7AF0
7CDB
7C66
7B56
0303
00CC
0308
7F82
0B55
0715
7F0F
0076
7E8A
0036
02E9
7F4C
028D
0251
0000
7FBA
7B77
7C0B
745C
782E
018E
0503
76C5
04AD
01C8
05EC
779D
113C
7A50
7D81
0486
7C68
0A1B
0411
014B
0AEC
154D
04A7
7E62
75A6
6872
7A5C
0272
04D5
7AC3
14C3
6E7E
7E7E
7948
7EE5
0606
0101
646D
7BDB
0446
03DF
0215
0DBF
7DD7
0159
77B8
034F
083B
06F1
7E9D
72D6
7A32
7CD9
0366
03EE
033E
76D5
7D8B
7CE0
7F4D
0512
7EA0
735F
7CB2
7BFC
7DE6
7C33
7E23
7856
6D76
010A
7BCF
0178
7BB3
7DDB
7B69
7F12
0AF3
7BE5
7E58
0223

