FEA5
FEFD
FD30
0EDA
FF3C
0201
F883
06D9
FFEF
0D50
0C6F
0367
FF13
FCF0
0515
FE06
0AE0
03A8
FF17
0985
FCFE
FC81
F9EC
F51D
F8D9
03FA
9700
0113
FD02
F34C
0593
FD0D
427A
FA6B
0613
11E1
FA1C
FC68
0610
005D
FD20
03F6
0343
FDD2
0498
0845
FCB1
FC7C
0B97
F74F
083F
0446
FD46
F1BA
0C0D
05E3
047B
FEBD
F512
005E
FBAC
0026
0539
0428
0662
001F
FB11
FD94
FF63
FB29
056B
014D
092E
F96D
063D
06B5
0233
0196
F6ED
FCEB
F928
059C
0223
0085
0019
FD0C
FC91
FCFB
FCD8
FE81
F663
0CFF
F5EE
FDE1
0E03
0C37
FCC7
FC87
0070
0A26
0957
02C7
FBFE
F423
0298
0349
023D
0027
017B
00AE
001E
0A9F
0230
FF5D
0327
060E
FFAF
0784
03CC
F6C3
FB96
0550
02EB
010E
034A
FAEA
0126
0031

