FEEE
FF4E
FD62
103C
FF8B
0252
F9A0
071B
004E
0E81
1034
0398
FF52
FD30
054D
FE47
0E50
03EC
FF36
0A66
FD64
FDCC
FA40
F60A
F9A9
0428
9700
016B
FD41
F531
05C7
FD3D
512F
FAAA
064E
13E6
FA54
FD16
073B
009D
FD67
04F0
0393
FE6D
04EC
092F
FCF6
FCD1
0D3F
F806
092D
0486
FD9F
F29E
0E93
0639
056D
FF1D
F7B5
00AD
FBEE
007B
057F
0456
0767
004B
FBB0
FDD6
FF9F
FB69
0855
0184
0A07
FA35
0825
07A1
026F
02DE
F79C
FD32
FB83
05D9
0268
012A
005A
FD91
FCF9
FD1A
FD03
FEC7
F71B
0E38
F799
FE3A
1689
0EE0
FD07
FCBF
00A5
103D
0A05
0323
FC56
F565
02E8
0393
0267
00B2
01B7
017D
0057
0C01
0255
0002
03D4
063B
FFE4
0BA8
040B
F6FE
FBC0
057F
0373
014C
037F
FB51
0152
00CB

