0807
056B
FD13
FB54
FA54
0139
02A2
FBC7
F5EF
F2B7
00A5
0C49
FBC4
061B
E09B
0714
00B3
FCD0
0AEA
FCA2
0039
0208
04A1
0A5A
0536
FBF1
FDE3
FA81
ED67
001D
005A
F8BA
033A
FCA2
0473
03E0
00AA
0695
1028
FC75
FBC7
FD7F
FA40
0B9C
FDB0
0407
01D6
FCC1
FD65
05A4
04DE
FE05
FEF4
FB1E
01B2
FA8F
FF82
FE5E
FCCF
FE5C
F7EC
01CC
01B0
0076
F9D2
F472
01C4
029B
0F96
FF3B
FCD7
FF79
05B7
EE6C
0531
02AC
FE59
0B32
02AA
F78D
F794
F5BC
0601
FAEF
FD49
FBAD
05FC
02BD
FC60
1767
FF90
00F3
E7AB
FCFF
EB74
024D
F9AD
06ED
FCEF
0C2C
FE4A
0A96
0682
019F
FCEE
01A4
0387
FDB8
0048
0970
0006
0CA0
FD7E
04A8
FD6C
F77D
0F54
471F
00F3
F9F5
F7AB
FE0C
0906
FFA2
0032
0351
FD6D
0C8B

