FA3A
0426
F7AD
FE5E
006F
0157
089F
0090
F913
0393
FFAD
3029
0910
F884
F6CA
03E6
F876
FCCF
02EB
0576
FF3F
0039
FD3D
FAD3
06C6
FFFD
059C
FB9D
FE59
0154
FDE9
FC5F
06C4
FC55
01A1
0876
0160
038E
FBA0
F4CF
FAD6
0926
9F50
01A3
EBC5
FE45
FEBD
068E
FAD9
DD04
F543
01B4
FE54
B87A
E3A1
034A
F71F
FEEA
00D0
027F
037C
FFB1
F681
0246
0435
0595
5BD9
0135
057B
FBB2
FC91
014C
F666
009F
A4ED
FFDA
FC79
FFD7
F519
0169
03A4
0792
008C
00F1
9700
0A5D
00B1
0033
FD29
2166
FF84
FBF1
FF44
FC95
01B4
FFA1
FF35
0972
00F8
FE2D
0421
FFC7
FABB
FBF3
0013
042B
E210
0143
02CD
0930
011A
EDA8
03BA
FF65
F825
03F3
FF99
00BB
FBB3
0104
0075
F4E7
16DE
FAD4
FF0F
0758
0B35
0545

