08A3
057C
FD24
FB68
FA67
0147
02B4
FBD7
F61F
F353
00B5
0C74
FBCC
062D
E1E5
0746
00C0
FCE5
0BC6
FCB2
0051
0217
04B9
0A6E
057B
FC01
FDF3
FA91
EED0
0041
006A
F8CA
034A
FCB7
049D
03EF
00BD
0734
10DA
FC8A
FBDE
FD95
FA5D
0BDB
FDC3
0422
01E6
FCD2
FD6F
05B4
04F9
FE1B
FF06
FB5C
01BF
FA9F
FFB0
FE74
FCE5
FE6E
F81B
01E0
01BE
0089
F9E6
F499
01D1
02AA
116A
FF4E
FCE4
FF89
05C7
EF35
0546
02BE
FE69
0B57
02BD
F7BA
F7A6
F606
0617
FB03
FD5A
FBC1
0688
02C6
FC6A
18E2
FFA4
0104
E9F4
FD0D
ED81
0262
F9BF
0703
FD06
0C83
FE5E
0B4C
0690
01B2
FD0C
01B7
0398
FDD7
005D
09F4
0015
0CE6
FD90
04B9
FD7A
F7F3
0FE6
5323
012A
FA50
F7F3
FE18
091B
FFB1
0042
036D
FD73
0D2E

