011C
F69A
0269
0512
0607
04E9
0371
FA7B
FF17
00C8
080B
0649
CF37
BBB2
015F
013A
FF34
2604
F916
085C
FB72
F69D
FD00
CF98
0002
03DB
0052
FD11
FAC9
FCB6
FC0F
FB26
02E0
00A7
02EF
FF61
0A31
061D
FEE0
0049
FE67
0012
02AB
FF29
0260
0231
FF78
FF84
FB4E
FBE6
F387
F787
0144
04E4
F663
0483
019E
05A7
F4F3
0ECF
FA28
FD4F
045E
FC3B
0564
03E7
011D
0A72
0E43
0481
FE27
F4C2
E35E
FA31
0249
04B5
F9CC
0F54
EC4C
FE5D
F924
FEBE
057A
00D2
DB8D
FBAD
041C
03B5
01EA
0D21
FDAE
0138
F787
032D
0809
06CB
FE74
EDA2
FA07
FCB5
0344
03C4
0327
F5FB
FD49
FCBA
FF18
04E0
FE66
F21B
FC6E
FBC3
FDB2
FBCA
FDF3
F7F2
E529
00C0
FB9E
0155
FB8D
FDA6
FB3C
FEE8
0938
FBBE
FE36
01F6

