FEDC
FF3A
FD56
0FE3
FF77
023D
F959
070A
0036
0E35
0F42
038C
FF43
FD20
053F
FE37
0D74
03DB
FF2E
0A2E
FD4B
FD79
FA2B
F5CE
F975
041C
9700
0155
FD31
F4B7
05BA
FD31
4D82
FA9A
063F
1365
FA46
FCEA
06F0
008D
FD55
04B2
037F
FE46
04D7
08F4
FCE5
FCBC
0CD5
F7D8
08F2
0476
FD89
F265
0DF1
0624
0531
FF05
F70C
009A
FBDD
0066
056E
044B
0726
0040
FB88
FDC5
FF90
FB59
079A
0176
09D0
FA03
07AB
0766
0260
028C
F770
FD20
FAEC
05CA
0257
0100
0049
FD6F
FCDF
FD12
FCF8
FEB5
F6ED
0DEA
F72E
FE24
1467
0E36
FCF7
FCB1
0098
0EB7
09DA
030C
FC40
F514
02D4
0380
025D
008F
01A8
0149
0048
0BA9
024C
FFD9
03A9
0630
FFD7
0A9F
03FB
F6EF
FBB6
0574
0351
013C
0372
FB37
0147
00A5

