022A
77F2
02B8
0854
0668
0663
0489
7AC7
7F6C
011F
0934
0AFB
57B6
4B54
020F
01AD
7F79
30DC
7956
0A1D
7BC0
786E
7D98
5FF4
0041
046E
0085
7DD7
7B17
7D00
7CBC
7B86
0325
00F0
0321
7FA4
0C7A
080D
7F3E
00A2
7EAD
005A
0326
7F6E
02BB
0272
0088
7FF0
7BA1
7C2F
7530
78D4
01D8
0522
7727
04D7
01F2
0630
7A47
13A9
7A78
7DB3
04AE
7C94
0ED2
043B
0179
0B66
1C56
04CE
7E9E
7689
6D86
7A87
029C
04F6
7BBA
1A33
70B1
7E9E
796D
7F0C
0691
012F
6D4C
7C08
0470
0409
0241
0E5C
7E00
0179
77E9
0372
086C
0717
7EC6
780A
7A5D
7CFE
0389
0418
0355
77AE
7DCD
7D05
7F81
0543
7EDB
74A3
7CF5
7C35
7E1B
7C9C
7E53
78BB
75C3
0153
7C01
019B
7BD9
7E10
7B95
7F3B
0CAE
7C0C
7E7A
0251

