FACD
0854
1981
FB74
F872
00C4
ECBD
F2DA
D939
F094
FF8D
F600
F68A
04DC
0CA9
2130
E5A4
F6EF
F42E
0832
1322
06E0
0147
1EDF
BE7E
F1B6
0498
EFAE
1795
08D2
C1C6
FE6B
0CE2
066D
F5B1
0860
F764
104E
F0FD
08DB
1465
0B62
F5A1
E805
FAAA
05BF
193A
0CE7
00B8
CC5F
01DF
EA3E
057A
F7D2
F885
FF3D
FEFA
0F70
EEBD
00BD
03EB
012E
F9E1
1637

