7AE7
0882
1B4D
7B9A
7891
00DF
6D0D
7334
5E53
70B2
7FCA
774D
769E
0564
0CE8
2560
6C63
7705
744C
084B
1368
086E
015D
206E
44DD
71FC
04E5
701A
19E7
0931
582C
7E83
0CF7
07D5
75DA
08E0
77A9
1192
712F
0966
15B0
0C19
772F
695F
7AC2
05E5
1972
0D34
00CE
5060
01FD
6D36
05FE
7862
78D2
7F4E
7F15
0F8A
6F53
01D5
040E
013D
7A0E
1694

