03A07
009B1
3C7A9
00CCE
3EF86
3FD67
003F0
000F6
3F6D3
00418
3EBCA
014B0
3F9A1
027EE
3F9B2
00EC6
3E9EC
3F945
00181
3FE74
3E524
3F346
00416
3EF3E
3F773
3E0BC
00964
3E225
3ED6D
3FD9A
00D54
350FD
00983
027C1
01569
3FABD
015F7
3F3BE
00AAC
3C6EF
3F353
39F61
3EB31
3FDE4
00832
3E11E
00FEE
3FDCC
3E95C
3EC74
3F6FF
3C263
3FAC6
002FB
3FC11
3FD01
3C693
3BD3C
01009
004D5
3F3A1
00DD9
0069A
00E5F
3D3B2
3FB2A
01503
3D929
3FE71
00C55
3EA13
3F454
01A23
00694
3FA05
3F558
01DF2
0000F
008BD
01725
026CC
0119D
3F894
3FFAE
02970
01F9C
3F9FF
3C6FC
3FD25
0090B
3C920
00F2E
3FF13
00BCD
00B2A
3EF8A
001CE
3F73A
00CE4
018DC
3F951
00A04
3FA44
3F729
3EEB9
005E2
01F44
00841
3E7DE
00432
001F2
3FE51
3FD10
3D233
3FBFE
3BD24
3FBF5
3FCEA
3F0ED
01B28
3E2E1
3F680
00525
025F7
006D6
3F4F2
00085
01262
01225
3FD01
3E408
3FCAA
3F236
3F0CA
3E3BE
3F75E
00E52
00F79
001CA
30D20
00533
00451
3E193
3E581
07FA3
20800
3F3C7
3F590
00D53
3F512
3FE8F
00F51
3F0F8
008EF
3B774
00B85
025F1
0155B
003AA
077A0
3ECF8
00981
3EBC8
001C4
01D2A
3ED99
01914
3F9CF
00A79
3FA89
3F805
00460
3EC50
3FB33
00FB7
0049B
038CC
3EC41
3DDF0
00105
3ECF5
00413
3F122
3F8FD
003BD
398E4
3F0E7
00346
3FB9A
006ED
3F460
0014D
3F69B
3BD14
0083D
3F454
0000A
3F287
3DE5E
3FD2E
38BC6
00EB3
3E85B
3F3D5
3EF56
00CB2
006C9
00C8D
011BC
004FA
3F8C0
00520
3EBFA
254AB
3F030
3E946
00A3B
00BBF
003E5
01EC2
3F333
3FA66
3F0DA
3DA68
3FD4B
3F442
358F3
3F6D5
3FB3F
3FB22
04F46
3F284
00E17
39D2B
01EF4
01C5D
018A8
3F007
0023C
00339
3ED78
3F61E
3F08E
00291
3F11B
01B48
00049
012E5
00FC4
00A94
3CEC3
34A30
3FA20
01C7C
006FB
007FA

