03FAF
00C6A
3DD89
00FD8
3F38B
3FF16
007B6
002ED
3F9E0
005C3
3EE26
01847
3FB9A
04693
3FD5B
01210
3EE57
3FC19
00518
0006D
3ED29
3F6EC
005D7
3F243
3FAA6
3E9C1
00AF7
3E4CD
3EEDF
3FF1B
00EE3
3DF4C
00ECE
03412
01723
3FD67
01CB7
3F573
00CFB
3E4EF
3F681
3B6E3
3EDD2
0013B
00A73
3E338
0191B
3FFBA
3F275
3EEB1
3F9BD
3C85F
3FE55
00564
3FFA5
3FF6D
3CE90
3D77B
01218
00673
3F62E
01AD9
009DB
02FC4
3EA78
3FE34
02E33
3E3D9
001C2
015B1
3EE85
3F63C
021E5
00857
3FE38
3F756
02855
001AA
00B17
01C7C
02D10
014FD
3FC44
0015B
03D97
02452
3FBB9
3D0ED
3FF7F
00A9C
3EEA2
01A41
002BF
00D5F
00D9F
3F106
0058D
3F914
00F49
01AF6
3FAFA
00BA3
3FD5C
3F93E
3F0D0
007EA
025E9
00B09
3EBF2
007BF
005F5
001D3
3FF11
3D60F
3FD9D
3CFEE
3FFEB
3FE73
3F2C9
02146
3EBB0
3FA6C
006CB
029F6
00DA9
3F641
00212
0160B
01639
3FE91
3E767
3FE17
3F408
3F43E
3E72C
3FA94
010A4
0116A
00533
38FBA
008FA
007A3
3E608
3E734
0A553
234CC
3F587
3F6CA
00EBF
3F880
002D9
0161B
3F2BA
00AB0
3D190
00DB0
02EC7
01B67
005BB
11C21
3F0D5
00B37
3EFD7
004FA
01F19
3EFC0
01D2B
3FBB9
00CA5
3FC55
3FA61
00629
3EDE5
3FE77
010FE
00654
04054
3EFBA
3E001
00234
3EE83
00643
3F3F2
3FBA3
00737
3D86F
3F2B6
007F8
3FEEA
00845
3F724
002CE
3F911
3E085
00A42
3F6EE
003F8
3F46C
3E03E
000B3
3A98F
02757
3E98C
3F60F
3F0E0
0104A
00925
01071
01504
00729
3FA5A
008D6
3F0B1
2A4BA
3F371
3EDB4
028AA
00F14
00544
02F0F
3F4A2
3FC28
3F668
3E92C
000B5
3F6EA
3AE76
3FAB9
3FEC6
3FF33
092C0
3F47D
00FBA
3B50D
023C0
02215
01C69
3F1F1
00433
00558
3F099
3F840
3F20C
00626
3F292
0223B
00391
01509
01219
00E27
3DE0F
3CB0F
3FC47
021FF
0083C
00A3E

