03D1D
00B2D
3D397
00E77
3F1B7
3FE52
005FF
00208
3F87D
00501
3ED14
016A5
3FAB5
038A5
3FBB1
01091
3EC55
3FAD0
00376
3FF87
3E984
3F544
0050B
3F0E4
3F932
3E5A7
00A40
3E398
3EE37
3FE6C
00E2E
39E9C
00C66
02E79
0165A
3FC31
019A5
3F4AC
00BEE
3D74C
3F50F
3AC34
3ECA0
3FFB6
0096D
3E244
014EF
3FED9
3EE52
3EDAC
3F87E
3C5A6
3FCB7
0044C
3FE04
3FE53
3CAEE
3CB8D
01129
005B7
3F505
014F0
00860
02096
3E01E
3FCD2
022C0
3DEFD
00040
01170
3EC80
3F55E
01E5E
0078A
3FC50
3F66E
0239D
000EF
00A05
01A0F
02A37
01374
3FA97
00098
0346E
0222E
3FAF0
3CC68
3FE6E
009E6
3DD96
01538
00114
00CA8
00C81
3F059
003D9
3F83D
00E33
01A01
3FA38
00AE6
3FBF4
3F84C
3EFDD
006FE
022E4
009C5
3EA18
00622
00422
0003B
3FE28
3D44E
3FCE0
3C764
3FE1E
3FDC1
3F1F0
01E7E
3E7AF
3F8A3
0060B
02825
00A8F
3F5A9
0015E
01461
0145F
3FDDB
3E5DE
3FD71
3F334
3F2AC
3E59D
3F91E
00F96
01088
003A6
3545D
00743
00621
3E402
3E66E
09432
20800
3F4BB
3F63C
00E1A
3F6F1
000E6
01305
3F1EE
009E4
3C5B2
00CB4
02AC3
018A8
004CA
0D15B
3EF13
00A70
3EDFF
00384
01E38
3EEC6
01B4F
3FADA
00BA9
3FB84
3F94E
00559
3ED2D
3FCFB
01069
0058C
03CE8
3EE26
3DF11
001AA
3EDCE
00544
3F2AB
3FA6E
005A3
3BB8D
3F1E4
005D6
3FD69
007A9
3F5E2
0021F
3F7F3
3D069
00957
3F5BF
0022F
3F390
3DF64
3FF19
39C05
01C24
3E902
3F50C
3F02D
00EA8
00812
00EAC
01386
0062B
3F99F
00726
3EE8C
28056
3F1F7
3EBB1
01AD5
00D90
004A4
027A6
3F3FB
3FB5C
3F3E2
3E276
3FF28
3F5B5
38798
3F8F4
3FD2B
3FD5A
07414
3F398
00EFB
3AA32
02192
01F7B
01AB4
3F112
0034E
00461
3EF2D
3F748
3F15E
00485
3F1E7
01F12
00213
01410
01109
00C87
3D71B
3907B
3FB4D
01F7E
007AA
00936

