03EA8
00BEC
3D98E
00F4B
3F2D0
3FEC8
00707
00292
3F952
00575
3EDB9
017A0
3FB3F
04101
3FCB1
01177
3ED8A
3FB96
00471
00011
3EBB4
3F642
00585
3F1B6
3FA11
3E81D
00AAD
3E451
3EE9C
3FED5
00E9B
3C56C
00DD8
031D4
016D3
3FCEB
01B7D
3F524
00C90
3DF7B
3F5ED
3B29D
3ED58
000A0
00A0A
3E2D6
01770
3FF60
3F0CD
3EE48
3F93D
3C748
3FDAF
004F4
3FEFE
3FEFC
3CD1C
3D2B6
011B8
00628
3F5B7
0187C
00943
029B2
3E654
3FDA7
0299E
3E1E7
00127
013FD
3EDB6
3F5E3
0207C
00805
3FD75
3F6F9
02672
0015F
00AA9
01B84
02BED
01460
3FB98
0010D
039ED
02377
3FB69
3CF1E
3FF12
00A53
3E7D0
0183D
00214
00D16
00D2D
3F0C1
004DE
3F8BE
00EDA
01A94
3FAAC
00B57
3FCCC
3F8DD
3F06F
0078C
024B4
00A88
3EB34
0071A
0053A
0012F
3FEB4
3D55B
3FD52
3CC83
3FF33
3FE2C
3F272
0202A
3EA16
3F9B5
0067E
0293C
00C6B
3F604
001CA
01561
0157B
3FE48
3E6CA
3FDD4
3F3B3
3F39D
3E68C
3F9FF
01038
01110
00494
377FB
0084A
00708
3E539
3E6E5
09E79
20800
3F535
3F691
00E7D
3F7E0
00211
014DF
3F269
00A5E
3CCD1
00D4B
02D2C
01A4E
0055B
0FE38
3F021
00AE7
3EF1A
00465
01EBF
3EF5C
01C6D
3FB60
00C40
3FC02
3F9F3
005D5
3ED9B
3FDDF
010C2
00604
03EF6
3EF18
3DFA1
001FD
3EE3A
005DD
3F36F
3FB27
00695
3CCE1
3F262
0071E
3FE50
00806
3F6A3
00288
3F89E
3DA14
009E4
3F675
00341
3F414
3DFE7
0000F
3A425
022DC
3E955
3F5A7
3F098
00FA3
008B7
00FBC
0146B
006C3
3FA0F
00829
3EFD5
2962C
3F2DA
3ECE6
02322
00E79
00504
02C19
3F45F
3FBD6
3F566
3E67C
00016
3F66E
39EEA
3FA04
3FE22
3FE76
0867C
3F422
00F6E
3B0B5
022E1
0210A
01BBB
3F198
003D7
004F5
3F007
3F7DD
3F1C6
00580
3F24E
020F8
002F8
014A6
011AC
00D81
3DB47
3B3A0
3FBE3
020FE
00802
009D4

