03C99
00AEE
3D19A
00E30
3F15A
3FE2B
005A7
001DB
3F836
004DA
3ECDD
01652
3FA87
035DC
3FB5C
01044
3EBEE
3FA8F
00323
3FF59
3E8C9
3F4EF
004E2
3F09D
3F8E7
3E4D6
00A1B
3E35A
3EE15
3FE49
00E09
391AD
00BEB
02D5A
01632
3FBF3
01908
3F485
00BB8
3D492
3F4C5
3AA10
3EC63
3FF69
00938
3E213
0141A
3FEAC
3ED7E
3ED78
3F83E
3C51B
3FC64
00413
3FDB1
3FE1A
3CA35
3C92A
010F9
00591
3F4CA
013C2
00815
01D8D
3DE0C
3FC8B
02076
3DE05
3FFF3
01096
3EC19
3F532
01DAA
00761
3FBEE
3F640
022AB
000C9
009CE
01992
029A5
01326
3FA41
00071
03299
021C0
3FAC8
3CB81
3FE37
009C1
3DA2D
01436
000BE
00C84
00C48
3F037
00382
3F811
00DFB
019D0
3FA12
00AC0
3FBAC
3F81B
3EFAC
006CF
02249
00985
3E9B9
005CF
003C5
3FFE9
3FDF9
3D3F4
3FCBB
3C5AE
3FDC2
3FD9D
3F1C5
01DF0
3E6E2
3F848
005E4
027C8
009F0
3F58A
00139
0140C
01400
3FDB7
3E590
3FD50
3F30A
3F25C
3E54D
3F8D4
00F60
0105B
00357
3487D
006EB
005D3
3E39A
3E647
090C4
20800
3F493
3F61F
00DF9
3F6A1
00082
01267
3F1C5
009BB
3C352
00C81
029F5
0181B
0049A
0C266
3EEB9
00A48
3EDA0
0033A
01E0B
3EE94
01AF0
3FAAE
00B76
3FB5A
3F917
0052F
3ED08
3FCAF
0104C
00564
03C39
3EDD5
3DEE1
0018F
3EDAA
00512
3F269
3FA31
00552
3B5C6
3F1BA
00569
3FD1C
00789
3F5A2
001FC
3F7B9
3CD30
00928
3F582
001D3
3F363
3DF38
3FEC7
39950
019E6
3E8E6
3F4D8
3F009
00E54
007DB
00E52
0133A
005F8
3F97A
006D0
3EE1E
2790F
3F1AB
3EB49
01810
00D43
00484
0262B
3F3DA
3FB33
3F360
3E11E
3FED9
3F577
37FD1
3F89A
3FCD9
3FCFB
06DF2
3F36A
00ED5
3A806
02122
01EF6
01A5D
3F0E6
00321
00430
3EEE4
3F716
3F13C
00432
3F1C5
01E71
001C7
013DE
010D3
00C34
3D5B7
384C3
3FB1A
01EFD
0078D
00901

