03F2B
00C2B
3DB8C
00F92
3F32E
3FEEF
0075E
002BF
3F999
0059C
3EDF0
017F3
3FB6C
043CA
3FD06
011C3
3EDF0
3FBD8
004C5
0003F
3EC6F
3F697
005AE
3F1FD
3FA5C
3E8EF
00AD2
3E48F
3EEBD
3FEF8
00EBF
3D25C
00E53
032F3
016FB
3FD29
01C1A
3F54B
00CC5
3E235
3F637
3B4C0
3ED95
000ED
00A3E
3E307
01846
3FF8D
3F1A1
3EE7C
3F97D
3C7D3
3FE02
0052C
3FF51
3FF34
3CDD6
3D519
011E8
0064D
3F5F3
019AA
0098F
02CBB
3E866
3FDED
02BE9
3E2E0
00175
014D7
3EE1E
3F610
02131
0082E
3FDD6
3F727
02763
00184
00AE0
01C00
02C7E
014AE
3FBEE
00134
03BC2
023E4
3FB91
3D005
3FF49
00A77
3EB39
0193F
0026A
00D3B
00D66
3F0E3
00535
3F8E9
00F12
01AC5
3FAD3
00B7D
3FD14
3F90D
3F09F
007BB
0254F
00AC8
3EB93
0076D
00598
00181
3FEE3
3D5B5
3FD78
3CE38
3FF8F
3FE50
3F29E
020B8
3EAE3
3FA10
006A4
02999
00D0A
3F622
001EE
015B6
015DA
3FE6C
3E718
3FDF5
3F3DE
3F3EE
3E6DC
3FA49
0106E
0113D
004E4
383DA
008A2
00755
3E5A0
3E70D
0A1E6
21D36
3F55E
3F6AE
00E9E
3F830
00275
0157D
3F292
00A87
3CF30
00D7E
02DFA
01ADB
0058B
10D2C
3F07B
00B0F
3EF79
004AF
01EEC
3EF8E
01CCC
3FB8C
00C73
3FC2C
3FA2A
005FF
3EDC0
3FE2B
010E0
0062C
03FA5
3EF69
3DFD1
00219
3EE5E
00610
3F3B1
3FB65
006E6
3D2A8
3F28C
0078B
3FE9D
00826
3F6E3
002AB
3F8D7
3DD4C
00A13
3F6B1
0039D
3F440
3E012
00061
3A6DA
0251A
3E971
3F5DB
3F0BC
00FF6
008EE
01016
014B8
006F6
3FA34
0087F
3F043
29D73
3F326
3ED4D
025E6
00EC6
00524
02D94
3F481
3FBFF
3F5E7
3E7D4
00066
3F6AC
3A6B0
3FA5F
3FE74
3FED4
08C9E
3F450
00F94
3B2E1
02350
02190
01C12
3F1C5
00405
00527
3F050
3F80F
3F1E9
005D3
3F270
02199
00344
014D7
011E2
00DD4
3DCAB
3BF57
3FC15
0217E
0081F
00A09

