03A8B
009F1
3C9A6
00D15
3EFE3
3FD8E
00448
00124
3F71A
0043F
3EC01
01504
3F9CF
02AB7
3FA07
00F12
3EA53
3F987
001D5
3FEA2
3E5DF
3F39B
0043F
3EF84
3F7BD
3E18E
00989
3E262
3ED8F
3FDBD
00D78
35DED
009FE
028E0
01591
3FAFB
01694
3F3E6
00AE1
3C9AA
3F39D
3A184
3EB6E
3FE32
00866
3E14F
010C4
3FDF9
3EA2F
3ECA8
3F73E
3C2EE
3FB19
00333
3FC64
3FD39
3C74D
3BF9F
01039
004FA
3F3DC
00F08
006E6
01168
3D5C4
3FB70
0174D
3DA22
3FEBE
00D2F
3EA7B
3F480
01AD7
006BD
3FA67
3F586
01EE4
00034
008F4
017A1
0275E
011EB
3F8E9
3FFD5
02B45
0200A
3FA28
3C7E3
3FD5C
00930
3CC89
0102F
3FF68
00BF1
00B63
3EFAD
00226
3F765
00D1C
0190D
3F977
00A2A
3FA8C
3F75A
3EEE9
00612
01FDF
00882
3E83D
00485
00250
3FEA3
3FD3E
3D28D
3FC24
3BED9
3FC52
3FD0E
3F118
01BB7
3E3AE
3F6DB
0054B
02654
00775
3F511
000A9
012B7
01284
3FD25
3E456
3FCCB
3F260
3F11A
3E40E
3F7A9
00E88
00FA7
00219
31900
0058B
0049E
3E1FB
3E5A8
08310
20800
3F3F0
3F5AD
00D74
3F562
3FEF3
00FEF
3F121
00918
3B9D4
00BB7
026BF
015E8
003DA
08694
3ED52
009A8
3EC26
0020F
01D57
3EDCC
01973
3F9FC
00AAC
3FAB3
3F83B
00489
3EC75
3FB7F
00FD5
004C3
0397C
3EC92
3DE21
00120
3ED19
00446
3F164
3F93A
0040E
39EAB
3F111
003B4
3FBE7
0070D
3F4A0
00170
3F6D4
3C04D
0086C
3F490
00065
3F2B3
3DE89
3FD80
38E7B
010F0
3E877
3F409
3EF7A
00D06
00700
00CE8
01208
0052D
3F8E5
00576
3EC68
25BF2
3F07C
3E9AD
00CFF
00C0D
00405
0203D
3F354
3FA8F
3F15B
3DBC0
3FD9B
3F480
360B9
3F730
3FB91
3FB81
05568
3F2B2
00E3D
39F57
01F64
01CE2
01900
3F034
0026A
0036B
3EDC1
3F64F
3F0B1
002E5
3F13D
01BEA
00095
01317
00FFA
00AE7
3D027
355E7
3FA52
01CFD
00718
0082F

