FC0C
EF7C
FF6F
FD0A
FBAE
0890
FB23
FBA1
0D8B
FA8A
09E7
FA56
0254
AF9D
0129
FADC
021A
FC8B
F9F5
02C3
7001
C8C2
FCC7
FA1B
0297
FDEE
EDE6
0BF5
FFC7
FDEF
FB59
FD5D
00EC
FB71
F594
043B
DFE9
0094
0080
F5C2
066B
FBEE
F6EB
F7EF
F5CE
00C3
0ACC
056D
F4A1
00F7
07EC
FF63
12D0
FCAC
FD3A
FC1D
FC85
07EB
FE39
082D
0079
029B
06E8
FC16
FEE1
00A9
FB3B
FE3C
0418
0302
F3F7
F687
FD74
FC62
F4A9
D1ED
F694
0C9F
FB64
FD4F
FB88
FFBC
FEF9
FCE3
FEB5
0096
01E5
00A3
0272
0195
0196
06C3
FA74
1644
17AA
068C
192A
0839
FF68
007C
619D
FA62
00AE
F2CC
FE4C
FDB3
FC1D
FBDB
02B5
02F9
F819
FE0D
FD9A
FD0F
FC58
0255
0690
0294
7001
FD3D
EA0B
053C
FE51
FB65
FE95
F9B8
FC4A
0A18

