FE6C
19FA
32AC
0660
F739
00D9
FD46
FABA
FDFF
02FD
FCD1
F9D7
0606
FCFB
FF87
01EC
0175
FED9
01B5
045E
0296
F74A
FD21
FC37
029E
0378
02AF
F93F
0172
CD30
F9EC
03E6
FD47
FFAD
F04D
FE38
00D0
EBE0
022D
0066
1296
F023
005D
FD6B
16E7
0538
FE58
047A
FFF0
A998
F9C7
EED3
DB7D
FD56
08BE
005D
0769
F9C5
0194
FA2A
FF85
F6C1
01B3
00CE
0311
0242
035B
0632
FD48
0194
04DB
120D
00B3
F956
00F9
FEA3
EBEB
00A7
FE71
F982
059E
FD03
0459
0252
FF80
02DF
F754
0389
0677
0002
0191
00B8
FF80
0088
EBFB
FC8E
FEAC
FE95
FE01
F86B
FFF8
F581
0146
082C
007C
FFAB
04F5
0289
04D3
05C4
E55E
008B
DDFD
029C
0277
0512
F451
4012
FF9C
FCA0
FF9C
01D3
F8F5
FC8F
7001
0B8D
17AB
FF85

