FBCD
ECCA
FF3A
FCBF
FB7F
085A
FAEA
FB67
0B05
FA37
099F
FA0B
0202
A5DB
00E7
FA84
01C5
FC3A
F9B4
0263
7001
C191
FC88
F9BE
025B
FDB2
ED24
0A38
FF7F
FDBB
FB19
FD1F
00AB
FB38
F544
03F5
DC72
0058
0013
F46F
060B
FBB0
F6A1
F7A0
F580
008B
0A27
0530
F2EE
009F
07B6
FF1D
1204
FC77
FCCC
FBEB
FC0F
07A9
FDFD
0774
0039
0263
068B
FBCA
FE9E
0037
FAE7
FDEA
03D0
02B6
F25E
F634
FD3B
FC1A
F3A0
CB8E
F656
0B96
FB1F
FCE4
FB3F
FF6A
FEA8
FC8D
FE71
0063
017A
0076
0203
013D
0129
0410
F9CD
1540
1618
0652
1431
07EA
FF3A
0030
539E
F9FF
006D
F26B
FDEF
FD69
FBB8
FB83
0254
02B8
F7BD
FDD7
FD70
FC7F
FC01
01F4
063D
0234
7001
FCF2
E881
04EF
FE25
FB2E
FE3D
F969
FBEF
09CB

