EB75
FE60
FFE8
FBDF
FBE0
FE43
FC83
0478
03DD
192D
0E59
E14E
FFA6
FC26
FDDE
045B
FC8A
05B2
0434
FF33
D422
0071
EE8A
13FF
F7DF
050C
0120
017C
F747
F211
FE7B
FCFC
FF14
019B
021B
027D
000D
F8C0
1AF4
06CA
F8A2
041B
0304
03F3
0392
002D
F451
04E6
212E
0161
060C
FEB5
FB4D
FFBD
04A5
04E3
FF5D
FDE4
F9C2
FFDB
0472
F7A2
03A4
1392
EF7E
0014
FCB4
0508
FE0E
0260
FEEF
F698
0381
EAC9
F8F3
FC04
012B
FDFA
FD47
001C
FF73
01BB
FF9F
C0C8
FFF3
04F0
1279
FE77
0388
FEA9
FB6C
EF9B
FF5A
FF76
FEFF
02C5
FD7A
0046
FFDD
FE0A
FD3F
0121
01EE
F7E5
FF46
02A3
FDDE
0212
FABD
013D
FF31
00FB
FF97
0F46
A74C
F8C5
0E55
F4FB
00E1
FC7C
FE5B
0BCE
FD9E
FFB3
F8D0
1B06
00DF
04F9

