FC25
F091
FF84
FD27
FBC1
08A6
FB3A
FBB8
0E8E
FAAC
0A04
FA74
0274
B384
0144
FAFF
023B
FCAC
FA10
02E9
7001
CBA2
FCE0
FA40
02AF
FE06
EE34
0CA7
FFE4
FE04
FB73
FD76
0106
FB88
F5B4
0457
E14C
00AC
00AB
F64A
0692
FC07
F709
F80F
F5ED
00DA
0B0E
0585
F550
011A
0801
FF7F
1321
FCC1
FD67
FC31
FCB4
0806
FE51
0877
0092
02B2
070E
FC35
FEFC
00D6
FB5D
FE5D
0434
0320
F49A
F6A9
FD8B
FC7E
F513
D479
F6AC
0D09
FB7F
FD79
FBA6
FFDC
FF19
FD05
FED1
00AA
0210
00B5
029F
01B8
01C2
07D7
FAB7
16AC
184B
06A3
1B28
0859
FF7A
009B
6736
FA8A
00C8
F2F3
FE71
FDD1
FC45
FBFE
02DC
0314
F83E
FE23
FDAB
FD48
FC7B
027B
06B1
02BA
7001
FD5B
EAA8
055A
FE62
FB7B
FEB8
F9D7
FC6E
0A36

