00A4
FE3A
F97A
F863
0346
FF24
0726
FFD5
FF28
FA86
FC57
FB5B
0046
004D
0004
C57D
FEAA
FEBA
0A1C
FCDA
F77F
043B
FBE2
C1C6
0768
01B3
FC57
0929
0024
023E
7001
02EB
FBD8
023E
FEA5
07A8
03B4
F77B
ECDA
7001
0484
FE57
0C43
041F
02F1
0378
08B3
0A0F
0048
03CC
FF64
FF0E
003A
F5CC
02B8
04D8
FD42
FA81
F68B
FC40
0229
0924
03B1
02A5
078C
F8F9
0DDE
00C4
FD50
01F0
092D
021C
02CD
FDB2
F9F7
0886
02DA
04B5
087B
FF08
0281
0CE4
0236
00D4
FFD1
FB25
FFE7
0367
0484
EA4F
0F4D
0345
0042
0721
0300
16E7
F037
F081
FDAE
FD03
230F
FA6E
FFD2
FA98
FD62
0495
069D
FD76
0004
FD75
05A5
05E8
FE24
0C24
FF31
FF99
00F1
003C
0003
FFF6
FA10
FE0D
02D9
0355
3BEE
009A
0380
FDB9

