EA46
FE16
FF94
FB98
FB89
FE0A
FC51
0417
03A3
17E0
0CD9
DFD4
FF52
FBA2
FDAF
0419
FC43
04DE
0408
FEEA
CB8C
003B
ED46
12F8
F7A1
04CF
00DF
0158
F70F
F0CC
FE50
FCB7
FECD
0161
01C1
023B
FFD4
F88E
188A
0694
F858
03E8
02B9
03AA
0345
FFF5
F3B1
04A6
1E4A
0118
05E2
FE68
FAF3
FF6C
0473
049E
FF20
FDA9
F991
FFC0
041F
F6FB
0341
126F
EEC8
FFE3
FC71
04EF
FDC4
021E
FE8E
F52F
034E
E982
F8B8
FBD3
00F8
FDB3
FCFE
FFE7
FF33
0187
FF71
BB2D
FFB7
04BF
10A6
FD12
0360
FE51
FB1C
EE05
FF06
FF2A
FE9D
0274
FD44
001A
FF95
FDCE
FD0F
00E7
01BD
F7B1
FEFF
026E
FDA7
01E2
FA7A
010C
FF00
00C7
FF5F
0E7C
9FF3
F88C
0D4F
F3EF
00A8
FC31
FE2A
0AE4
FD6F
FF6D
F888
196D
0086
04BB

