01E2C
02A3E
017C9
001F2
1D503
019FC
1F807
1C5D6
02501
01A59
04AE1
1D521
01DA7
0685D
021F8
1F97C
1EBB4
1DA50
1E990
1EE4C
1EE85
00516
1A6E5
1CDF4
01059
018F6
0787D
045EC
021CC
1DA94
04B50
0CBF6
02DDD
00E1B
1DA55
022FF
03818
1CE2C
02269
1DC98
1FB2E
18A3C
1F8CA
1E1D1
1EAF7
19ED9
00E3E
1E3CD
1EBFC
1EF48
02CF9
1A125
1D4FC
01C7B
13EFE
04C42
1D7B8
1E5AB
1DA30
01F37
1DA34
019C0
17F57
1D23B

