01D48
029CE
0167B
00103
1D48C
019B8
1F777
1C3E1
02455
019D1
03F81
1D432
01CCB
066C1
021BD
1F92E
1EAB4
1D964
1E8BE
1EDA6
1EE10
00425
1A4D6
1CCBD
00F6E
018A3
066D1
04510
01E76
1D9A3
04A6E
0BD37
02AF9
00DDE
1D9A8
01E47
0377C
1CCE8
0221F
1DBCC
1FAA7
18824
1F7E6
1E162
1EAAC
19BD1
00DB9
1E31B
1EAF0
1EED2
026CF
19E9F
1D3D5
01C20
136CD
046B5
1D527
1E4E2
1D8CD
01E1D
1D943
0171C
17C7A
1CFCB

