02631
02E30
02388
00A56
1D939
01C59
1FD17
1D76D
02B0D
01F1A
0B144
1DD8A
02561
076D2
02409
1FC39
1F4B7
1E2A1
1F0F1
1F41F
1F2AA
00D89
1B964
1D8DD
0189F
01BE7
0FC01
04DA7
03FD8
1E309
05343
0FC01
047DD
01042
1E06C
04D79
03D94
1D98A
02505
1E3C5
1FFF0
19D1C
000CC
1E5BF
1ED93
1BA24
012EC
1EA12
1F568
1F370
06471
1B7DA
1DF5F
01FAD
188B4
07E32
1EED9
1ECB7
1E6AD
0291E
1E2B5
03181
19921
1E828

