022A1
02C6F
01E50
0069B
1D75A
01B4C
1FAD7
1CF9B
0285D
01CFD
083C3
1D9CD
021F2
07065
0231E
1FB01
1F0B6
1DEEF
1EDA9
1F188
1F0D2
009C8
1B12B
1D403
014F2
01A99
0D0DB
04A38
0327D
1DF47
04FBA
0FC01
03C4E
00F4D
1DDB7
03A98
03B24
1D47C
023DC
1E094
1FDD3
194B9
1FD3D
1E400
1EC6A
1AE03
010D8
1E749
1F138
1F197
04BCA
1ADC2
1DAC1
01E42
167F1
06800
1E492
1E995
1E120
024B7
1DEED
026F2
18DAB
1DE69

