0100D
01D73
02E0D
1F974
1E0E9
03F66
01015
02EA0
1E735
02276
1C715
193FF
03B36
1F1B3
1C46B
1BF41
10400
1E120
1C23B
1D9BF
1E62D
1E863
03984
1B62D
0350D
1B4F6
03238
08907
1D275
1F7EF
1E9E1
1E6FD
02363
1E9F7
0F6A6
10400
02305
00DF7
04E6E
1F2CE
013B6
1CCAB
1DEA1
01DED
1EAD1
1EFE1
011AD
1EA47
1FC8F
1EF16
02FC3
1E757
00695
066D8
1D061
01ABA
1E5CD
0FC01
1F944
0256E
1EAFE
03A13
1D505
06803

