01FF4
02B1E
01A66
003CF
1D5F3
01A82
1F927
1C9BE
02659
01B67
061A2
1D6FF
01F5E
06B93
0226D
1FA18
1EDB5
1DC29
1EB34
1EF97
1EF71
006F6
1AB01
1D060
01230
0199E
09BD6
047A4
0287A
1DC75
04D14
0E973
033A4
00E95
1DBAF
02C6F
03950
1D0B2
022FD
1DE30
1FC3D
18E6E
1FA92
1E2B1
1EB8B
1A4EA
00F48
1E532
1EE14
1F035
0394D
1A631
1D74B
01D31
14F5F
0575B
1DCDC
1E73C
1DCF6
0216A
1DC18
01F07
18512
1D71A

