02385
02CDF
01F9E
0078A
1D7D2
01B8F
1FB67
1D190
02909
01D84
08F23
1DABC
022CD
07200
02359
1FB4F
1F1B6
1DFDC
1EE7B
1F22E
1F148
00AB8
1B33A
1D53A
015DD
01AEC
0E287
04B14
035D4
1E037
0509C
0FC01
03F32
00F8A
1DE65
03F50
03BC0
1D5C0
02427
1E161
1FE5A
196D2
1FE21
1E470
1ECB4
1B10B
0115D
1E7FB
1F244
1F20D
051F4
1B048
1DBE9
01E9D
17022
06D8D
1E723
1EA5E
1E283
025D1
1DFDF
02996
19089
1E0D9

