01B80
028ED
013DF
1FF26
1D39C
01932
1F657
1BFF8
022FE
018C3
028C0
1D253
01B13
0638B
02147
1F892
1E8B3
1D78B
1E71A
1EC5B
1ED24
00244
1A0BA
1CA51
00D97
017FB
04378
04359
017C9
1D7C2
048AA
09FB9
02532
00D63
1D84D
014D6
03643
1CA62
0218A
1DA34
1F998
183F2
1F61F
1E082
1EA18
195C0
00CAF
1E1B6
1E8D8
1EDE6
01A7C
19993
1D186
01B6B
1266C
03B9C
1D003
1E351
1D606
01BEA
1D75F
011D5
176BE
1CAEC

