0254D
02DC0
0223A
00967
1D8C1
01C16
1FC87
1D579
02A61
01E92
0A5E4
1DC9A
02485
07536
023CE
1FBEB
1F3B7
1E1B5
1F01F
1F379
1F234
00C99
1B756
1D7A6
017B4
01B93
0FC01
04CCB
03C81
1E219
05261
0FC01
044F9
01004
1DFBF
048C1
03CF8
1D846
024BB
1E2F9
1FF69
19B03
1FFE8
1E550
1ED49
1B71B
01267
1E960
1F45C
1F2FA
05E47
1B554
1DE37
01F52
18083
078A6
1EC47
1EBEF
1E54A
02804
1E1C3
02EDD
19644
1E5B9

