020D9
02B8F
01BB4
004BE
1D66B
01AC5
1F9B7
1CBB3
02705
01BEE
06D02
1D7EF
0203A
06D2E
022A8
1FA65
1EEB5
1DD16
1EC06
1F03D
1EFE7
007E7
1AD0F
1D197
0131B
019F1
0AD82
04880
02BD0
1DD65
04DF6
0F832
03687
00ED2
1DC5D
03128
039EC
1D1F6
02348
1DEFC
1FCC4
19087
1FB75
1E321
1EBD5
1A7F2
00FCE
1E5E4
1EF20
1F0AB
03F76
1A8B7
1D873
01D8C
15790
05CE7
1DF6E
1E804
1DE59
02284
1DD0A
021AB
187F0
1D98A

