02715
02EA0
024D6
00B44
1D9B1
01C9C
1FDA6
1D961
02BB9
01FA1
0BCA5
1DE79
0263C
0786D
02444
1FC87
1F5B8
1E38E
1F1C3
1F4C5
1F31F
00E7A
1BB72
1DA13
0198B
01C3B
0FC01
04E83
0432E
1E3FA
05425
0FC01
04AC0
0107F
1E11A
05231
03E30
1DACD
02550
1E491
00077
19F35
001AF
1E62F
1EDDD
1BD2C
01371
1EAC4
1F674
1F3E6
06A9B
1BA60
1E086
02008
190E5
083BE
1F16B
1ED7F
1E810
02A38
1E3A6
03425
19BFF
1EA98

