00CF8
01C07
0260F
1F754
1D5E2
039BF
00E88
02652
1E561
020C0
1BC0E
18572
029D4
1EFAD
1BEFB
1A80E
10400
1DE03
1BA41
1D76A
1E47B
1E5FF
0299D
1B2B4
02FE5
1AD29
03001
0804F
1CCC2
1F449
1E552
1E239
02032
1E80E
0DF24
10400
01B64
009DC
049B9
1EFB7
0128F
1C5EA
1D858
01B6D
1E74A
1EDE7
00DDA
1E828
1F9B8
1EB2E
02C54
1E4AD
0039C
04C96
1CD37
017E9
1E2C5
0FC01
1F68E
022A6
1E79C
03764
1D18A
05162

