01C64
0295D
0152D
00014
1D414
01975
1F6E7
1C1ED
023AA
0194A
03421
1D343
01BEF
06526
02182
1F8E0
1E9B3
1D877
1E7EC
1ED01
1ED9A
00335
1A2C8
1CB87
00E83
0184F
05525
04434
01B1F
1D8B2
0498C
0AE78
02815
00DA0
1D8FA
0198E
036DF
1CBA5
021D4
1DB00
1FA20
1860B
1F703
1E0F2
1EA62
198C9
00D34
1E268
1E9E4
1EE5C
020A5
19C19
1D2AE
01BC6
12E9C
04129
1D295
1E41A
1D769
01D03
1D851
01479
1799C
1CD5B

