EB29
FE4E
FFD3
FBCD
FBCB
FE35
FC77
0460
03CF
18DA
0DF9
E0F0
FF91
FC05
FDD2
044B
FC78
057D
0429
FF21
D1FC
0064
EE39
13BD
F7D0
04FD
0110
0173
F739
F1C0
FE70
FCEB
FF02
018C
0205
026D
FFFF
F8B3
1A59
06BD
F88F
040F
02F1
03E0
037F
001F
F429
04D6
2075
014F
0602
FEA2
FB37
FFA9
0499
04D2
FF4D
FDD5
F9B6
FFD4
045E
F778
038C
1349
EF50
0007
FCA3
0501
FDFC
0250
FED6
F63E
0374
EA77
F8E4
FBF7
011E
FDE8
FD35
000F
FF63
01AE
FF94
BF61
FFE4
04E4
1204
FE1E
037E
FE93
FB58
EF35
FF45
FF63
FEE6
02B0
FD6D
003B
FFCB
FDFB
FD33
0112
01E1
F7D8
FF34
0296
FDD1
0206
FAAC
0131
FF25
00EE
FF89
0F13
A576
F8B7
0E13
F4B8
00D3
FC69
FE4F
0B94
FD92
FFA2
F8BE
1AA0
00C9
04E9

