EBC1
FE73
FFFD
FBF1
FBF6
FE51
FC90
0490
03EC
1980
0EB9
E1AD
FFBB
FC47
FDE9
046C
FC9B
05E7
043F
FF46
D647
007F
EEDB
1441
F7EF
051C
0130
0185
F755
F262
FE86
FD0D
FF26
01A9
0232
028D
001B
F8CC
1B8E
06D8
F8B4
0428
0317
0405
03A5
003A
F479
04F6
21E7
0173
0617
FEC8
FB64
FFD1
04B1
04F4
FF6C
FDF3
F9CE
FFE2
0487
F7CC
03BD
13DB
EFAB
0020
FCC5
050E
FE21
0271
FF07
F6F2
038E
EB1B
F902
FC10
0138
FE0C
FD59
002A
FF83
01C8
FFAB
C22F
0002
04FC
12EE
FED1
0392
FEBF
FB80
F001
FF6F
FF89
FF17
02D9
FD88
0051
FFEF
FE19
FD4B
0130
01FA
F7F2
FF57
02B0
FDEC
021E
FACD
0149
FF3D
0108
FFA5
0F78
A922
F8D4
0E96
F53D
00EF
FC8F
FE67
0C09
FDA9
FFC4
F8E2
1B6C
00F6
0508

