0097
FE2C
F971
F852
033A
FF11
0713
FFC1
FF15
FA7A
FC44
FB4C
0037
0041
FFF3
C463
FE9E
FEAE
09FB
FCC8
F772
042D
FBD3
C0CF
0756
01A7
FC48
08D8
0013
0231
7001
02D8
FBCD
022E
FE91
079A
03A0
F76B
EC95
7001
0475
FE48
0BE5
040C
02E4
0362
08A5
0A01
003B
03BC
FF56
FEFF
002A
F5C0
02A9
04C7
FD21
FA71
F663
FC2C
021C
0917
039E
0298
077A
F8A0
0D91
00B8
FD40
01DD
0920
0203
02BF
FDA2
F9DC
0879
02BB
0460
0870
FEF1
026C
0CAA
0225
00BC
FFC3
FB13
FFDB
0358
0479
E9B8
0F10
0331
0037
0712
02F1
1693
F00C
F01E
FD9D
FCF7
2237
FA64
FFCA
FA8A
FD53
0487
068E
FD64
FFF4
FD63
0594
05D6
FE18
0BF7
FF1B
FF7F
00E3
002D
FFF8
FFE5
FA01
FDF2
02C8
0347
38F0
008E
036F
FDAD

