EDD3
FEF6
0091
FC6D
FC8F
FEB5
FCE8
053A
0451
1BC8
1159
E442
004E
FD2F
FE3C
04E0
FD18
075B
048C
FFC7
E54E
00DE
F111
160D
F85B
0588
01A1
01C5
F7B8
F49C
FED1
FD87
FFA2
020E
02CF
0300
007E
F924
1FC7
0738
F936
0482
039A
0485
042C
009B
F590
0566
26F5
01F2
0660
FF4F
FC01
005D
0508
056C
FFD6
FE5C
FA25
0010
051A
F8F1
046B
15D8
F0E9
0074
FD3B
0539
FEA2
02E5
FFB0
F968
03E6
ED58
F968
FC65
0192
FE88
FDD9
0087
FFF3
0224
FFFB
CBFF
006C
0550
161F
0143
03D8
FF59
FC0B
F2C8
0002
000F
FFC2
0367
FDE8
009E
006D
FE82
FDA0
0196
024F
F84D
FFD3
030D
FE4D
0272
FB42
019E
FF93
0163
0007
10DA
B5FE
F938
1060
F712
0153
FD12
FEBC
0DA2
FDFA
003E
F95F
1E38
0191
0575

