00CC
FE62
F997
F895
036A
FF5F
0760
000F
FF5E
FAAB
FC92
FB8A
0076
0071
0037
C8CA
FECE
FEDD
0A80
FD11
F7A6
0468
FC0F
C4AB
07A1
01D6
FC82
0A1D
0056
0265
7001
0326
FBFB
026F
FEE1
07D0
03F0
F7AB
EDA8
7001
04B2
FE82
0D5C
0455
031A
03B9
08DE
0A3A
0070
03FC
FF8E
FF3E
0069
F5F1
02E6
050A
FDA4
FAB0
F705
FC7C
0250
0949
03E8
02CB
07C0
FA03
0EC6
00E5
FD7F
0227
0953
0265
02F6
FDE0
FA45
08AE
0339
05B5
089D
FF4F
02C2
0D93
0269
011E
FFFB
FB5B
0009
0393
04A5
EC15
1004
0380
0065
074F
032F
17E3
F0B8
F1A8
FDE0
FD27
2597
FA8C
FFE9
FAC1
FD8C
04C1
06CC
FDAB
0034
FDAD
05D5
061F
FE47
0CAE
FF73
FFE7
011B
0069
0025
0027
FA3E
FE61
030C
037D
44E8
00BC
03B5
FDDC

