FC4B
F22F
FFA4
FD54
FBDE
08C7
FB5D
FBDB
1012
FADE
0A2F
FAA1
02A5
B95F
016B
FB34
026E
FCDD
FA37
0322
7001
CFF3
FD06
FA77
02D3
FE2B
EEA9
0DB2
0010
FE23
FB99
FD9B
012C
FBAB
F5E4
0481
E360
00D0
00EC
F716
06CC
FC2C
F735
F83E
F61C
00FC
0B70
05AA
F655
014E
0822
FFA9
139B
FCE0
FDA9
FC4F
FCFA
082E
FE75
08E6
00B9
02D3
0746
FC63
FF24
011B
FB8F
FE8E
045F
034E
F590
F6DB
FDAD
FCAA
F5B2
D84C
F6D1
0DA8
FBA8
FDB9
FBD2
000D
FF4A
FD39
FEFA
00C9
0250
00D1
02E2
01ED
0204
0975
FB1B
1748
193D
06C5
1E24
0888
FF95
00C8
6F9C
FAC5
00EF
F32D
FEA8
FDFD
FC81
FC32
0317
033B
F875
FE44
FDC4
FD9E
FCAF
02B5
06E3
02F3
7001
FD88
EB95
0588
FE7D
FB9C
FEEC
FA06
FCA4
0A64

