00C2B
3FEEF
0059C
043CA
3FBD8
3F697
3E8EF
3FEF8
032F3
3F54B
3B4C0
3E307
3EE7C
0052C
3D519
019AA
3FDED
014D7
0082E
00184
014AE
023E4
00A77
00D3B
3F8E9
00B7D
007BB
0076D
3D5B5
3FE50
3FA10
3F622
3FE6C
3F3EE
0113D
00755
21D36
3F830
00A87
01ADB
00B0F
3EF8E
3FC2C
3FE2B
3EF69
00610
3D2A8
00826
3DD4C
3F440
0251A
00FF6
006F6
29D73
00EC6
3FBFF
3F6AC
3FED4
3B2E1
3F1C5
3F80F
02199
00DD4
0217E

