1D791
006AF
1ED82
1FC5C
0041D
0055C
00A89
00E76
016AB
00C5A
1ED1A
0169B
1F8FD
1FEAB
01188
008F8
02754
1ED4F
1FD13
00A73
1FB42
1FB41
1E468
00CF4
00EA2
1FC84
02419
004DD
1FD2C
1F247
00657
001A6
1E67B
1E63C
00445
1E4D1
1F50D
001AD
1CA71
0052A
1EEBC
01C0E
1F9BC
010A5
1DF71
1F32E
1F238
1F663
009B5
1DFBB
1E939
00880
1F9EA
1F28E
004E4
1F4E4
19724
08059
02271
003AA
1F1A4
002AC
1D9E3
007E4

