03D1D
1F1B7
1F87D
1FAB5
1EC55
1E984
1F932
1EE37
00C66
019A5
1F50F
0096D
1EE52
1FCB7
1CAEE
1F505
1E01E
00040
01E5E
0239D
02A37
0346E
1FE6E
00114
003D9
1FA38
1EFDD
1EA18
1FE28
1FE1E
1E7AF
00A8F
0145F
1F334
00F96
00743
09432
00E1A
1F1EE
02AC3
1EF13
01E38
00BA9
1ED2D
03CE8
1EDCE
005A3
1FD69
1F7F3
0022F
19C05
1F02D
01386
1EE8C
01AD5
1F3FB
1FF28
1FD2B
00EFB
01AB4
1EF2D
1F1E7
01109
1FB4D

