1C5AC
00399
1EB93
1F95D
0012E
003ED
00940
00D2F
01540
00A76
1EAF3
00F19
1F6BF
1FBBE
00FD9
0064F
012B9
1E9AC
1F9A3
00886
1F83E
1F9D7
1C5B7
00AF1
00CAC
1F9FC
01EA9
00195
1FBD8
1F0C1
004FE
00061
1E3B9
1E36E
0017A
1E12C
1F39F
1FE2B
1B515
0037A
1EB69
018B5
1F7CE
00F99
1DDC0
1F0E1
1F0BD
1F420
0080E
1DE32
1E840
00692
1F89B
1EFE4
003C5
1F058
1512D
04924
01E85
0020F
1F06B
1FFFD
1CD5F
006DE

