009F1
3FD8E
0043F
02AB7
3F987
3F39B
3E18E
3FDBD
028E0
3F3E6
3A184
3E14F
3ECA8
00333
3BF9F
00F08
3FB70
00D2F
006BD
00034
011EB
0200A
00930
00BF1
3F765
00A2A
00612
00485
3D28D
3FD0E
3F6DB
3F511
3FD25
3F11A
00FA7
0049E
20800
3F562
00918
015E8
009A8
3EDCC
3FAB3
3FB7F
3EC92
00446
39EAB
0070D
3C04D
3F2B3
010F0
00D06
0052D
25BF2
00C0D
3FA8F
3F480
3FB81
39F57
3F034
3F64F
01BEA
00AE7
01CFD

