FE24
0063
16C4
FDF7
2D65
F94A
05F3
F80F
F614
030A
0080
FEC2
FB36
06C6
FA6C
FF74
FDBE
FECD
0269
FA49
FC90
FBF6
F983
FB0E
0588
FFF8
FC9A
0010
FF10
FFAF
0179
BFFC
011F
FE6F
FE50
FE7E
0167
0976
0410
FC7F
024C
F73D
F6F0
03F2
FCA9
FB97
FBB6
BCF3
0232
070A
0327
0178
0265
FC0E
F8E8
0792
0135
FFD1
C820
01FC
F9A9
7001
0387
0289
FCDF
FB9E
FF59
01ED
EEB0
FE41
FDDD
0764
005E
034F
EA68
F72C
01BB
EB82
000E
6D5D
10D7
0437
EE72
FE0F
FFDE
0A6D
FD0F
03C3
1474
02AE
04D5
030B
FE00
086D
041A
09C8
FF96
0006
A0D8
037B
F971
FF1D
E9CE
FEC0
D620
FFEC
FD1A
F58E
0875
026C
0014
0484
0750
FC9F
F979
FA33
014B
F5C1
F9C6
FBDD
FF4C
01E8
F66A
08E6
0158
0355
0073
0264
02B5
0735
01D7
F73D
02DA
0C5B
05B8
008B
FCD8
FD00
013A
0194
0495
08EE
10C2
01A1
003E
0288
F7FF
FD64
0084
F974
FE2F
0844
EA48
023C
0055
030A
FE10
0843
F933
FE92
0551
0216
FCC3
0BC1
03B1
01E1
0203
005A
FEFF
FF8C
0292
FACB
F6FC
FFAE
0310
031D
0623
044D
FF62
E75B
0141
0E1C
0056
02E2
FF2B
0009
001F
06D4
E8BF
02B3
FC1E
1544
FE43
EF60
FE21
EE95
FD80
FD5A
F800
FCC6
FFA6
1ED8
F53B
FA3D
00FE
FFAB
0678
FA54
002B
FD1A
FF56
044D
04A9
064F
0246
FD1D
048C
FFB5
056C
FD19
E08F
0554
004C
058C
DA29
FDEA
025D
0B3F
021C
FEC2
04CA
FF18
F3E2
00AC
367D
FFF1
FF44
FFCB
FC38
FFA4
FF43
F9C4
0156
FD82
F8B3
0285
FC2B
0311
7001
2CF8
0A00
0061
137E
0328
FF45
FD7E

