00ED5
1E914
1FA9D
1FDEE
1FA8D
1FD24
1FE71
012FF
06924
1FF7B
1F40C
0038E
1EC4F
0020D
02630
1BAF6
1FDB7
1FB31
00CC7
1F5B1
00093
1FF9C
1EFE1
1FE0C
004B8
1E082
1F645
1FC28
1F52F
1FA62
0B8F7
1FD44
1F65F
0018D
1FBCE
1FF8D
1FD38
00F5D
1F794
00488
00BCD
1FFBF
1FC9B
0024B
002E9
01346
00575
1FF3F
0046F
1FF78
0013B
1F18C
0102A
1F9AE
00303
1FFA6
1FCF6
00491
0016D
1E8BD
0071B
1ED42
1FDE4
1E601
1FE32
1F728
00115
00923
00A92
0010C
02697
1EF58
00205
1FB47
0024A
001FB
001F3
1FF47
1FCAB
0023C
1FE7D
0017C
00ED9
1DF17
04B23
0043E
00318
1F74B
01041
003B2
00223
1FD39
00520
00126
009E5
00102
1FDC5
1FF8D
1FF74
1FE7C
002EF
02F38
000A6
0025F
1F77A
1FCDF
1FDEC
1EAA9
1FC39
001AE
1FF4B
1F959
1DEC9
1FFD2
1FFC6
00D86
1F8D5
002BD
1FF71
00085
003AE
1FBAE
00176
1FD72
021E2
1FED4
0137A
1E7E8

