1FE38
00155
010E1
00560
1F586
1FDA6
0185E
00138
0002A
1B8CA
0011A
00924
017A1
1E922
1FFE7
1FE92
006C2
00288
1FCE4
1FF9D
1F3F5
1FF0F
1FD9A
1FDDD
010C3
013ED
1F9DA
0FC01
1FE6B
0026E
00538
011CC
1F623
1E496
1FD8B
00230
005CA
002DB
02E29
00035
00744
1F11D
1F0F9
1FFF5
00E81
001A2
1FB8D
00E89
1FED4
0039B
04657
0EB25
00024
00E40
1FE3F
00053
01AE5
017AF
1F9FA
1FF91
1F96F
1FE95
1F2D9
00167
009C8
1E989
0016D
1F9CB
1FDB4
1F3BD
00036
00051
003A0
00A5A
00093
1FB10
1FC88
1FE94
00065
1C7CA
00218
000DC
1FF06
1FB59
1FFE8
1E54B
1E8E3
008B5
00959
1FDB0
1FC68
0029F
1FC35
1FD58
00EF0
1FD95
1FF64
1FF32
00387
1EEBF
1F1C9
1FDE7
1FEB0
013A4
0045E
1EFB9
1FD85
19583
00699
1F2B5
1FE8D
0022F
0015C
1E185
00013
0010A
1FFA8
1FF88
1E5D0
000D9
1F918
00070
01A64
01225
0002B
1FF9C
1FF19
1FDC4

