03F2B
1F32E
1F999
1FB6C
1EDF0
1EC6F
1FA5C
1EEBD
00E53
01C1A
1F637
00A3E
1F1A1
1FE02
1CDD6
1F5F3
1E866
00175
02131
02763
02C7E
03BC2
1FF49
0026A
00535
1FAD3
1F09F
1EB93
1FEE3
1FF8F
1EAE3
00D0A
015DA
1F3DE
0106E
008A2
0A1E6
00E9E
1F292
02DFA
1F07B
01EEC
00C73
1EDC0
03FA5
1EE5E
006E6
1FE9D
1F8D7
0039D
1A6DA
1F0BC
014B8
1F043
025E6
1F481
00066
1FE74
00F94
01C12
1F050
1F270
011E2
1FC15

