03C16
1F0FC
1F7EF
1FA59
1EB88
1E80F
1F89D
1EDF3
00B70
0186B
1F47B
00904
1ECAB
1FC11
1C97B
1F48E
1DBFA
1FFA5
01CF5
021B9
02914
030C4
1FE00
00069
0032B
1F9EB
1EF7B
1E95A
1FDCB
1FD66
1E615
00951
013A1
1F2DF
00F2A
00693
08D57
00DD7
1F19C
02928
1EE5F
01DDE
00B44
1ECE3
03B89
1ED86
00501
1FCCF
1F780
00178
1969B
1EFE5
012ED
1EDB1
0154C
1F3B8
1FE89
1FC87
00EAF
01A06
1EE9B
1F1A3
0109D
1FAE8

