1D98E
00707
1EDB9
1FCB1
00471
00585
00AAD
00E9B
016D3
00C90
1ED58
01770
1F93D
1FEFE
011B8
00943
0299E
1EDB6
1FD75
00AA9
1FB98
1FB69
1E7D0
00D2D
00EDA
1FCCC
024B4
0053A
1FD52
1F272
0067E
001CA
1E6CA
1E68C
00494
1E539
1F535
00211
1CCD1
0055B
1EF1A
01C6D
1F9F3
010C2
1DFA1
1F36F
1F262
1F6A3
009E4
1DFE7
1E955
008B7
1FA0F
1F2DA
00504
1F566
19EEA
0867C
022E1
003D7
1F1C6
002F8
1DB47
00802

