1DD89
007B6
1EE26
1FD5B
00518
005D7
00AF7
00EE3
01723
00CFB
1EDD2
0191B
1F9BD
1FFA5
01218
009DB
02E33
1EE85
1FE38
00B17
1FC44
1FBB9
1EEA2
00D9F
00F49
1FD5C
025E9
005F5
1FD9D
1F2C9
006CB
00212
1E767
1E72C
00533
1E608
1F587
002D9
1D190
005BB
1EFD7
01D2B
1FA61
010FE
1E001
1F3F2
1F2B6
1F724
00A42
1E03E
1E98C
00925
1FA5A
1F371
00544
1F668
1AE76
092C0
023C0
00433
1F20C
00391
1DE0F
0083C

