03DA0
1F215
1F8C4
1FAE3
1ECBC
1EA3F
1F97C
1EE58
00CE2
01A43
1F559
009A1
1EF26
1FD0A
1CBA8
1F541
1E230
0008D
01F13
0248E
02AC9
03643
1FEA4
00169
00430
1FA5F
1F00D
1EA77
1FE57
1FE7A
1E87C
00B2E
014BE
1F35E
00FCC
0079A
0979F
00E3B
1F217
02B91
1EF6D
01E65
00BDB
1ED51
03D97
1EDF2
005F4
1FDB6
1F82C
0028A
19EBA
1F051
013D2
1EEFA
01D99
1F41D
1FF77
1FD7D
00F22
01B0C
1EF76
1F20A
01140
1FB7F

