00FD8
002ED
01847
01210
0006D
3F243
3E4CD
3DF4C
3FD67
3E4EF
0013B
3FFBA
3C85F
3FF6D
00673
02FC4
3E3D9
3F63C
3F756
01C7C
0015B
3D0ED
01A41
3F106
01AF6
3F93E
00B09
001D3
3CFEE
02146
029F6
0160B
3FE17
3FA94
38FBA
3E734
3F6CA
0161B
00DB0
11C21
004FA
3FBB9
00629
00654
00234
3FBA3
007F8
002CE
3F6EE
000B3
3F60F
01071
008D6
3EDB4
02F0F
3E92C
3FAB9
3F47D
02215
00558
00626
01509
3CB0F
00A3E

