EB75
FBDA
FE60
ED54
FFE8
FF44
FBDF
FCCE
FBE0
FB88
FE43
0865
FC83
FAF5
0478
FB72
03DD
0B86
192D
FA48
0E59
09AE
E14E
FA1A
FFA6
0212
FC26
A7CE
FDDE
00F4
045B
FA95
FC8A
01D6
05B2
FC4A
0434
F9C1
FF33
0276
D422
7001
0071
C301
EE8A
FC95
13FF
F9D1
F7DF
0267
050C
FDBE
0120
ED4A
017C
0A91
F747
FF8D
F211
FDC6
FE7B
FB26
FCFC
FD2B
FF14
00B8
019B
FB43
021B
F554
027D
0403
000D
DD23
F8C0
0064
1AF4
0029
06CA
F4B3
F8A2
061E
041B
FBBC
0304
F6B0
03F3
F7B0
0392
F590
002D
0096
F451
0A48
04E6
053C
212E
F345
0161
00B1
060C
07C1
FEB5
FF2B
FB4D
122D
FFBD
FC82
04A5
FCE2
04E3
FBF5
FF5D
FC27
FDE4
07B6
F9C2
FE09
FFDB
0799
0472
0046
F7A2
026E
03A4
069E
1392
FBD9
EF7E
FEAB
0014
004D
FCB4
FAF8
0508
FDFB
FE0E
03DE
0260
02C5
FEEF
F2AF
F698
F645
0381
FD46
EAC9
FC28
F8F3
F3D5
FC04
CCD4
012B
F663
FDFA
0BCB
FD47
FB2D
001C
FCFA
FF73
FB4D
01BB
FF7B
FF9F
FEB8
C0C8
FC9E
FFF3
FE7F
04F0
006D
1279
018F
FE77
007F
0388
0219
FEA9
014E
FB6C
013F
EF9B
049A
FF5A
F9EF
FF76
1574
FEFF
1669
02C5
065D
FD7A
152F
0046
07FA
FFDD
FF43
FE0A
003F
FD3F
566B
0121
FA12
01EE
007A
F7E5
F27E
FF46
FE02
02A3
FD78
FDDE
FBCC
0212
FB95
FABD
0267
013D
02C5
FF31
F7D0
00FB
FDE2
FF97
FD79
0F46
FC9C
A74C
FC13
F8C5
0208
0E55
064D
F4FB
0247
00E1
7001
FC7C
FD01
FE5B
E8D0
0BCE
04FE
FD9E
FE2E
FFB3
FB39
F8D0
FE4E
1B06
F978
00DF
FC01
04F9
09DA

