FE60
00A4
1971
FE3A
31CB
F97A
064E
F863
F708
0346
00CA
FF24
FCEE
0726
FAAD
FFD5
FDF4
FF28
02E4
FA86
FCC6
FC57
F9C9
FB5B
05F1
0046
FCEB
004D
FF73
0004
01D8
C57D
0167
FEAA
FEC2
FEBA
01A8
0A1C
0451
FCDA
028A
F77F
F73B
043B
FD0D
FBE2
FC21
C1C6
028C
0768
036B
01B3
02A3
FC57
F930
0929
0168
0024
CC58
023E
F9E1
7001
03D6
02EB
FD36
FBD8
FF9F
023E
F008
FEA5
FE29
07A8
00BD
03B4
EBA1
F77B
021A
ECDA
0057
7001
124B
0484
EFDB
FE57
0048
0C43
FD5B
041F
167F
02F1
0527
0378
FE4A
08B3
046A
0A0F
FFE1
0048
A823
03CC
F9B8
FF64
EDFD
FF0E
DA98
003A
FD4C
F5CC
08B2
02B8
0051
04D8
0764
FD42
F9B8
FA81
0187
F68B
FA1A
FC40
FF7C
0229
F6B2
0924
01A4
03B1
00BF
02A5
0302
078C
0231
F8F9
0345
0DDE
061E
00C4
FD35
FD50
0185
01F0
04CF
092D
11D6
021C
00A0
02CD
F91D
FDB2
00E6
F9F7
FE90
0886
EBA5
02DA
0099
04B5
FE61
087B
F975
FF08
0591
0281
FCF8
0CE4
043D
0236
0245
00D4
FF6A
FFD1
02D2
FB25
F745
FFE7
0374
0367
0669
0484
FFE8
EA4F
0184
0F4D
00A8
0345
FF72
0042
0077
0721
EB71
0300
FC7B
16E7
FE9B
F037
FE81
F081
FDEC
FDAE
F859
FD03
FFEA
230F
F576
FA6E
013A
FFD2
07E4
FA98
006E
FD62
FF9D
0495
04E9
069D
027E
FD76
04C7
0004
05B5
FD75
E491
05A5
0081
05E8
DD59
FE24
0292
0C24
0267
FF31
0506
FF99
F43E
00F1
3E7A
003C
FF8D
0003
FC8F
FFF6
FF8D
FA10
01BE
FE0D
F8EA
02D9
FC7E
0355
7001
3BEE
0B4B
009A
16F9
0380
FF7B
FDB9

