7AE0
0877
1ADA
7B90
7889
00D8
6CF9
731E
5D0D
70AA
7FBB
76FA
7699
0542
0CD8
2454
6AB3
7700
7444
0845
1357
080A
0157
200A
4346
71EB
04D1
6FFF
1952
0919
5292
7E7D
0CF2
077B
75D0
08C0
7798
1141
7122
0943
155D
0BEB
76CB
6909
7ABC
05DC
1964
0D21
00C9
4F60
01F5
6C78
05DD
783E
78BF
7F4A
7F0E
0F84
6F2D
018F
0405
0139
7A03
167D

