EFB1
0779
F3CC
0437
35B8
F6FC
0333
0224
29C1
F586
F0FD
33A9
FA96
FD79
EC9B
0C04
CA8C
1721
FD8E
E892
072D
FD97
F83F
D12A
067C
FEE1
0313
F310
18C6
F9D8
FE94
EF9B
1C11
7E01
FA7C
020D
04D4
0066
DF4C
F3D7
1823
DCDA
3164
1C92
048A
3543
0BB3
FEFA
E9D9
FD66
08D7
0256
F9A1
E406
FFF2
FE8C
FF0B
0612
F5E7
F406
EF72
05DD
0404
FE7A

