FBDA
ED54
FF44
FCCE
FB88
0865
FAF5
FB72
0B86
FA48
09AE
FA1A
0212
A7CE
00F4
FA95
01D6
FC4A
F9C1
0276
7001
C301
FC95
F9D1
0267
FDBE
ED4A
0A91
FF8D
FDC6
FB26
FD2B
00B8
FB43
F554
0403
DD23
0064
0029
F4B3
061E
FBBC
F6B0
F7B0
F590
0096
0A48
053C
F345
00B1
07C1
FF2B
122D
FC82
FCE2
FBF5
FC27
07B6
FE09
0799
0046
026E
069E
FBD9
FEAB
004D
FAF8
FDFB
03DE
02C5
F2AF
F645
FD46
FC28
F3D5
CCD4
F663
0BCB
FB2D
FCFA
FB4D
FF7B
FEB8
FC9E
FE7F
006D
018F
007F
0219
014E
013F
049A
F9EF
1574
1669
065D
152F
07FA
FF43
003F
566B
FA12
007A
F27E
FE02
FD78
FBCC
FB95
0267
02C5
F7D0
FDE2
FD79
FC9C
FC13
0208
064D
0247
7001
FD01
E8D0
04FE
FE2E
FB39
FE4E
F978
FC01
09DA

