ECA4
FEAB
003D
FC26
FC38
FE7C
FCB6
04D9
0417
1A7A
0FD9
E2C8
FFFA
FCAB
FE0D
049E
FCD1
0687
0460
FF7D
DCB8
00A7
EFCE
1506
F81D
054A
0160
01A0
F780
F356
FEA6
FD41
FF5B
01D4
0275
02BF
0045
F8F2
1D5D
0701
F8EC
044F
034F
043C
03DF
0064
F4F1
0526
2411
01A9
0636
FF02
FBA7
000D
04D7
0528
FF99
FE20
F9F3
FFF6
04C6
F849
0408
14B5
F033
0044
FCF8
0520
FE58
02A3
FF4F
F800
03B4
EC10
F92E
FC34
015F
FE41
FD90
0052
FFB3
01F0
FFCD
C664
002F
0520
144C
FFDD
03B0
FF01
FBBC
F131
FFAE
FFC3
FF60
0316
FDB1
0072
0025
FE46
FD70
015B
021F
F819
FF8C
02D8
FE16
0242
FB00
016D
FF62
012F
FFCF
1010
AEA5
F8FF
0F5B
F606
011A
FCC7
FE8B
0CB8
FDCC
FFF8
F917
1C9F
0138
0537

