FE84
1B0C
346F
0685
F79A
00F7
FDF6
FAD4
FE15
032E
FCE6
F9F3
0630
FD1B
FFAE
0212
0192
FF07
01CF
0478
02AF
F768
FD4A
FC62
02C2
0394
02C8
F95C
0186
CEE0
FA03
0406
FD69
FFC9
F0D7
FE56
00F6
EC5D
0253
0083
132B
F0B3
0088
FD89
17B9
0559
FE76
049A
000E
AC83
F9E3
F080
DD47
FD6A
08D6
0076
0771
F9DE
01AC
FA4C
FF98
F6DE
01D2
00ED
032F
0266
0386
065B
FD6D
01B2
04F2
127C
00DA
F9C9
0121
FECA
EC76
00C2
FE92
F99C
05B7
FD18
0491
026C
FFAB
02F9
F771
03B1
0693
0037
01AB
00D9
FF9D
00AB
ED0F
FCB3
FED0
FEBB
FE2C
F88E
0014
F599
015E
08BE
0097
FFC7
050F
029F
04EA
05E2
E6F8
00A1
DF43
02B2
0295
052A
F476
4344
FFB9
FCC2
FFB9
01FD
F90B
FCB0
7001
0C12
190F
FF9B

