00BF
FE54
F98D
F885
035E
FF4C
074D
FFFC
FF4C
FA9F
FC7F
FB7A
0066
0065
0026
C7B0
FEC2
FED1
0A5E
FCFF
F799
0459
FC00
C3B4
078E
01CB
FC74
09CC
0045
0258
7001
0312
FBEF
025F
FECD
07C3
03DC
F79B
ED64
7001
04A3
FE73
0CFF
0443
030C
03A4
08D0
0A2B
0063
03EC
FF80
FF2E
0059
F5E4
02D6
04F9
FD83
FAA0
F6DC
FC68
0243
093C
03D5
02BF
07AF
F9AB
0E79
00DA
FD70
0214
0946
024D
02E8
FDD1
FA2B
08A0
0319
0560
0892
FF37
02AC
0D58
0258
0106
FFED
FB49
FFFE
0384
049A
EB7E
0FC7
036C
0059
0740
031F
178F
F08D
F145
FDCF
FD1B
24BF
FA82
FFE1
FAB3
FD7E
04B3
06BD
FD99
0024
FD9A
05C5
060D
FE3B
0C80
FF5D
FFCD
010D
005A
001A
0016
FA2E
FE45
02FB
0370
41EA
00B0
03A4
FDD0

