0100
FE97
F9BD
F8D9
039A
FFAE
07AD
005D
FFA7
FADC
FCE0
FBC7
00B4
00A2
007B
CD31
FEFE
FF0D
0B04
FD5B
F7DA
04A3
FC4B
C888
07EC
0205
FCBD
0B63
0098
029A
7001
0374
FC2A
02B0
FF30
0806
0440
F7EA
EEBC
7001
04F0
FEBB
0ED4
049E
0350
0410
0916
0A73
00A5
043D
FFC7
FF7C
00A7
F622
0322
054C
FE26
FAEE
F7A7
FCCB
0283
097A
0431
02FF
0806
FB67
0FFC
0112
FDBF
0270
0985
02C7
032D
FE1F
FAAE
08E3
03B7
070B
08CA
FFAD
0318
0E7C
02AD
0180
0032
FBA3
0037
03CF
04D1
EE72
10F8
03CF
0093
078D
036C
1932
F164
F331
FE23
FD58
28F7
FAB3
0008
FAF7
FDC5
04FB
070B
FDF1
0073
FDF7
0616
0669
FE76
0D65
FFCC
004E
0153
00A6
0052
0068
FA7B
FED0
034F
03B4
50E0
00E9
03FC
FE0B

