FBF3
EE68
FF5A
FCEC
FB9B
087B
FB0C
FB8A
0C89
FA69
09CA
FA38
0233
ABB5
010F
FAB9
01F8
FC6B
F9DB
029D
7001
C5E2
FCAE
F9F6
027F
FDD6
ED98
0B43
FFAA
FDDB
FB40
FD44
00D2
FB5A
F574
041F
DE86
007C
0054
F53B
0645
FBD5
F6CE
F7CF
F5AF
00AD
0A8A
0554
F3F3
00D4
07D6
FF47
127E
FC97
FD0E
FC09
FC56
07D1
FE21
07E3
005F
0285
06C3
FBF8
FEC6
007B
FB19
FE1B
03FB
02E4
F353
F666
FD5D
FC45
F43F
CF60
F67B
0C35
FB48
FD24
FB6B
FF9B
FED9
FCC0
FE9A
0081
01BA
0091
0246
0172
016B
05AE
FA31
15DC
1709
0674
172D
081A
FF56
005E
5C04
FA3A
0094
F2A5
FE27
FD96
FBF4
FBB8
028E
02DF
F7F4
FDF8
FD8A
FCD5
FC36
022E
066F
026E
7001
FD1F
E96D
051D
FE3F
FB4F
FE71
F998
FC25
09F9

