02469
02D4F
020EC
00878
1D84A
01BD2
1FBF7
1D384
029B5
01E0B
09A84
1DBAB
023A9
0739B
02393
1FB9D
1F2B7
1E0C8
1EF4D
1F2D4
1F1BE
00BA9
1B548
1D670
016C9
01B40
0F434
04BF0
0392A
1E128
0517E
0FC01
04216
00FC7
1DF12
04409
03C5C
1D703
02471
1E22D
1FEE1
198EA
1FF04
1E4E0
1ECFE
1B413
011E2
1E8AD
1F350
1F283
0581D
1B2CE
1DD10
01EF7
17853
07319
1E9B5
1EB26
1E3E6
026EB
1E0D1
02C3A
19366
1E349

