00E82
01CBD
02A0E
1F864
1DB65
03C92
00F4F
02A79
1E64B
0219B
1C191
18CB9
03285
1F0B0
1C1B3
1B3A7
10400
1DF92
1BE3E
1D894
1E554
1E731
03191
1B471
03279
1B110
0311C
084AB
1CF9C
1F61C
1E799
1E49B
021CB
1E902
0EAE5
10400
01F35
00BE9
04C13
1F142
01322
1C94B
1DB7C
01CAD
1E90E
1EEE4
00FC4
1E938
1FB23
1ED22
02E0C
1E602
00518
059B7
1CECC
01951
1E449
0FC01
1F7E9
0240A
1E94D
038BB
1D347
05CB3

