EC58
FBFF
FE99
EEF2
0028
FF64
FC14
FCFB
FC22
FBA5
FE6E
0886
FCA9
FB18
04C1
FB95
0409
0D0A
1A27
FA7A
0F79
09D9
E269
FA47
FFE5
0243
FC8A
ADA9
FE01
011C
048D
FACA
FCBF
0209
0651
FC7B
0455
F9E8
FF6B
02B0
DA92
7001
009A
C752
EF7D
FCBB
14C4
FA08
F80E
028B
053B
FDE2
0150
EDBF
0197
0B9C
F772
FFB9
F305
FDE5
FE9B
FB4C
FD30
FD50
FF4A
00DF
01C6
FB66
025F
F584
02AE
042D
0037
DF38
F8E5
0088
1CC3
006A
06F3
F57F
F8D9
0658
0442
FBE2
033C
F6DC
0429
F7DF
03CC
F5BE
0056
00B8
F4C9
0AAB
0516
0561
2359
F44A
0197
00E5
062B
07E1
FEEF
FF55
FB91
12A7
FFF9
FCA1
04CA
FD24
0517
FC13
FF8A
FC6D
FE11
07DE
F9E7
FE2D
FFEF
0808
04B1
006C
F820
0290
03EF
06D6
146C
FC07
F006
FED3
0038
0092
FCE7
FB2A
051A
FE2C
FE46
0409
0292
02F3
FF37
F3A5
F7A6
F677
03A7
FD69
EBBE
FC53
F91F
F474
FC28
D0A7
0152
F687
FE2F
0C6A
FD7E
FB56
0044
FD39
FFA3
FB7A
01E2
FFAB
FFC2
FEE9
C4FD
FCD2
0020
FEA8
0514
008C
13D8
01CF
FF84
009A
03A6
025C
FEEB
0183
FBA8
0180
F0CC
0638
FF99
FA53
FFAF
1610
FF48
175A
0302
0680
FDA3
182B
0067
0829
0013
FF5F
FE37
006D
FD63
5ED0
014D
FA4E
0212
00A1
F80C
F2B8
FF7B
FE39
02CB
FDA5
FE08
FC08
0236
FBC9
FAEF
02A2
0161
02EC
FF56
F807
0122
FE03
FFC1
FD92
0FDD
FCF2
ACCF
FC47
F8F1
0241
0F19
067F
F5C3
0281
010C
7001
FCB4
FD2E
FE7F
E9BC
0C7E
052C
FDC0
FE48
FFE7
FB5A
F905
FE83
1C39
F9A8
0122
FC37
0528
0A08

