FE90
00D9
1B95
FE6F
3550
F9A0
0697
F8A6
F7CB
0376
0106
FF73
FE4E
0773
FAE1
0023
FE1F
FF70
0346
FAB7
FCF1
FCA6
FA01
FB99
0645
0085
FD2B
007D
FFC2
0048
0225
C9E4
01A0
FEDA
FF1E
FEE9
01DC
0AA1
0485
FD24
02BB
F7B3
F777
0476
FD5E
FC1E
FC78
C5A2
02D4
07B4
03A1
01E2
02D4
FC91
F96B
0A6F
0190
0066
CFB8
0273
FA0E
7001
0416
0339
FD7B
FC07
FFD7
027F
F11C
FEF5
FE65
07DE
0109
0404
EC9B
F7BA
0266
EDED
0092
7001
1375
04C2
F0FB
FE90
009D
0DBA
FD99
0468
1821
0327
0569
03CF
FE84
08EC
04AA
0A48
001D
007D
ADF8
040D
F9F1
FF9C
F156
FF4D
DE2C
0078
FD74
F5FD
08E3
02F5
0082
051A
0775
FDC4
F9EA
FABF
01B8
F72D
FA5D
FC90
FFA2
025D
F6EC
0955
01E1
03FA
00FC
02D8
033F
07D2
0278
FA5C
039B
0F14
066F
00F0
FD80
FD8F
01C1
0239
04FD
095F
12B3
027E
00EE
0303
FA02
FDF0
0134
FA5F
FEDD
08BB
ECBC
0358
00D0
060B
FEA2
08A8
F9A9
FF66
05C4
02D7
FD23
0DCD
04AD
027A
0279
0137
FFC0
0009
0306
FB6D
F77F
0014
03C5
03A2
06A1
04B0
0052
ECAC
01B8
1041
00E9
0394
FFAB
0070
00BC
075F
ED99
033E
FCC5
1837
FEE1
F0E3
FECF
F20A
FE42
FDF1
F8A0
FD34
0021
266F
F5A4
FA95
016A
FFF1
0906
FACE
00A5
FD9B
FFD5
04D0
051C
06DC
02AA
FDBC
04F6
0043
05F0
FDC0
E7C5
05E5
00AB
0632
DFE7
FE53
02BC
0CDB
02A4
FF89
0536
0000
F488
0129
44DD
0078
FFC8
0030
FCD4
0037
FFC8
FA4D
0212
FE7D
F916
031C
FCC1
038B
7001
47E6
0C54
00C7
19C1
03C7
FFA6
FDE8

