FEA8
00F3
1CA6
FE8A
3713
F9B3
06BB
F8C8
F82D
038E
0123
FF9A
FEFE
079A
FAFB
004A
FE35
FF95
0377
FACF
FD06
FCCD
FA1D
FBB8
066F
00A5
FD4B
0096
FFEA
006A
024B
CC17
01BD
FEF2
FF4C
FF01
01F6
0AE3
049F
FD48
02D4
F7CD
F796
0494
FD86
FC3C
FCA3
C791
02F8
07D9
03BC
01FA
02ED
FCAE
F988
0B11
01A4
0087
D168
028D
FA24
7001
0435
0360
FD9D
FC1E
FFF4
02A0
F1A6
FF1D
FE84
07F8
012F
042C
ED18
F7DA
028C
EE77
00B0
7001
140A
04E1
F18B
FEAD
00C7
0E76
FDB7
048C
18F3
0342
058A
03FB
FEA2
0908
04CA
0A64
003C
0098
B0E3
042D
FA0E
FFB9
F303
FF6D
DFF6
0097
FD88
F616
08FB
0313
009B
053C
077D
FE05
FA04
FADF
01D0
F77E
FA7E
FCB7
FFB5
0276
F709
096E
0200
041E
011A
02F2
035D
07F5
029C
FB0E
03C6
0FAE
0698
0107
FDA5
FDAF
01DE
025E
0515
0978
1321
02AE
0115
031F
FA74
FE0F
015B
FA94
FF04
08D6
ED48
0398
00EC
06B6
FEC2
08BF
F9C4
FF95
05DD
0302
FD38
0E41
04E4
029C
0293
0168
FFEB
0024
031F
FB91
F79C
002B
03ED
03C0
06BD
04C6
0087
EDDB
01D3
10BB
010A
03BB
FFC7
0087
00DF
077D
EEAD
035D
FCEB
18DF
FF04
F139
FEF5
F2CF
FE6D
FE12
F8C4
FD4C
003D
281F
F5BC
FAA9
0182
0000
0998
FAE9
00C0
FDB7
FFF1
04ED
0535
06FB
02C1
FDE0
050E
0063
060E
FDE5
E960
0606
00C1
0657
E12D
FE6A
02D1
0D37
02C2
FFB6
054E
0034
F4AD
0145
480F
0097
FFE5
0047
FCF6
0057
FFE6
FA6B
023B
FEB5
F92C
033E
FCE2
03A6
7001
4DE2
0CD9
00DD
1B26
03EB
FFBB
FDFF

