00DBD
01C62
0280E
1F7DC
1D8A4
03B29
00EEB
02866
1E5D6
0212D
1BED0
18915
02E2C
1F02F
1C057
1ADDA
10400
1DECA
1BC40
1D7FF
1E4E8
1E698
02D97
1B392
0312F
1AF1C
0308F
0827D
1CE2F
1F533
1E676
1E36A
020FF
1E888
0E505
10400
01D4C
00AE2
04AE6
1F07D
012D9
1C79A
1D9EA
01C0D
1E82C
1EE66
00ECF
1E8B0
1FA6E
1EC28
02D30
1E558
0045A
05327
1CE01
0189D
1E387
0FC01
1F73B
02358
1E875
03810
1D269
0570A

