1C9A6
00448
1EC01
1FA07
001D5
0043F
00989
00D78
01591
00AE1
1EB6E
010C4
1F73E
1FC64
01039
006E6
0174D
1EA7B
1FA67
008F4
1F8E9
1FA28
1CC89
00B63
00D1C
1FA8C
01FDF
00250
1FC24
1F118
0054B
000A9
1E456
1E40E
00219
1E1FB
1F3F0
1FEF3
1B9D4
003DA
1EC26
01973
1F83B
00FD5
1DE21
1F164
1F111
1F4A0
0086C
1DE89
1E877
00700
1F8E5
1F07C
00405
1F15B
160B9
05568
01F64
0026A
1F0B1
00095
1D027
00718

