D397
05FF
ED14
FBB1
0376
050B
0A40
0E2E
165A
0BEE
ECA0
14EF
F87E
FE04
1129
0860
22C0
EC80
FC50
0A05
FA97
FAF0
DD96
0C81
0E33
FBF4
22E4
0422
FCE0
F1F0
060B
015E
E5DE
E59D
03A6
E402
F4BB
00E6
C5B2
04CA
EDFF
1B4F
F94E
1069
DF11
F2AB
F1E4
F5E2
0957
DF64
E902
0812
F99F
F1F7
04A4
F3E2
8798
7414
2192
034E
F15E
0213
D71B
07AA

