009B1
3FD67
00418
027EE
3F945
3F346
3E0BC
3FD9A
027C1
3F3BE
39F61
3E11E
3EC74
002FB
3BD3C
00DD9
3FB2A
00C55
00694
0000F
0119D
01F9C
0090B
00BCD
3F73A
00A04
005E2
00432
3D233
3FCEA
3F680
3F4F2
3FD01
3F0CA
00F79
00451
20800
3F512
008EF
0155B
00981
3ED99
3FA89
3FB33
3EC41
00413
398E4
006ED
3BD14
3F287
00EB3
00CB2
004FA
254AB
00BBF
3FA66
3F442
3FB22
39D2B
3F007
3F61E
01B48
00A94
01C7C

