1C3AF
00341
1EB5C
1F908
000DA
003C5
0091B
00D0B
01518
00A40
1EAB6
00E43
1F67F
1FB6B
00FA9
00603
0106F
1E945
1F942
00850
1F7E8
1F9AF
1C24E
00AB8
00C74
1F9B5
01E0F
00138
1FBB2
1F096
004D8
0003D
1E36B
1E31E
0012B
1E0C4
1F376
1FDC7
1B2B5
0034A
1EB0B
01856
1F797
00F7C
1DD90
1F09F
1F093
1F3DF
007DF
1DE06
1E824
0065B
1F876
1EF98
003A5
1EFD7
14967
04301
01E15
001E1
1F048
1FFB0
1CBFB
006C1

