FA2B
0413
F797
FE53
0060
0146
0833
0080
F902
0383
FFA2
27A4
08D2
F7A2
F67F
03A1
F834
FCC2
02B1
0567
FF19
002A
FCD5
FABC
068D
FFEB
0589
FB85
FE44
0142
FDD9
FC4F
06B0
FC48
0190
0758
014C
0377
FB91
F3DD
FAB9
08EB
9B33
0192
E92C
FE31
FEAC
067C
FAAA
D8D3
F502
019D
FE48
B61B
DEB3
033D
F6EB
FEDB
00BD
0270
0369
FFA5
F56A
0237
0429
055D
5864
0118
0560
FB9A
FC82
0141
F633
008D
A262
FFC9
FC69
FFC5
F46C
0150
0391
075D
0078
00E3
9700
097C
009E
0024
FD23
1F7F
FF71
FBDF
FF31
FC85
0197
FF8F
FF2C
093F
00E7
FE1A
0412
FFB5
FAAB
FBCD
0003
0418
E02F
0132
02BA
08B2
0109
ECFA
03A9
FF53
F7F8
03E3
FF91
00A6
FBA3
00EE
006B
F48B
1602
FAC6
FEE7
0749
0AF6
0539

