01F4
77AD
02A8
07AD
0655
0617
0451
7AB8
7F5B
010E
08F9
0A0B
5603
4833
01EC
0196
7F6B
2EB1
794A
09C4
7BB0
7811
7D7A
5CAE
0034
0451
007A
7DAF
7B07
7CF1
7C9A
7B73
0317
00E2
0317
7F97
0C05
07A9
7F2B
0090
7E9F
004B
030E
7F61
02A8
0265
0051
7FDA
7B90
7C21
74DB
7892
01BA
0516
7700
04C7
01E1
0615
7937
12B0
7A68
7D9F
049E
7C82
0CEF
042A
0166
0B36
1986
04BE
7E86
762E
6B7E
7A76
028B
04E9
7B57
1806
6FD0
7E91
795E
7EFD
0659
011C
69BF
7BF6
0460
03F8
022F
0E1D
7DEF
016C
77D6
0364
0858
0708
7EB6
75F5
7A4C
7CEF
037B
0407
034C
7757
7DB3
7CF6
7F6C
052F
7EC4
7421
7CDA
7C1F
7E06
7C72
7E40
7893
7271
0136
7BED
018D
7BCA
7DFB
7B83
7F2A
0BFD
7BFC
7E6C
023E

