0A79
05AF
FD58
FBA2
FA9D
0170
02E9
FC08
F6B1
F528
00E5
0CF5
FBE4
0664
E5C2
07DE
00E7
FD24
0E59
FCE3
0096
0246
04FE
0AAC
064B
FC31
FE24
FAC2
F30A
00AC
009A
F8F7
037B
FCF4
051C
041B
00F6
090F
12F1
FCCA
FC25
FDD6
FAB4
0C98
FDFC
0474
0215
FD08
FD8D
05E3
0548
FE5C
FF3A
FC17
01E9
FACE
003A
FEB5
FD24
FEA4
F8A9
021B
01E9
00C3
FA21
F50D
01F5
02D6
16E6
FF89
FD0B
FFBB
05F8
F18F
0585
02F1
FE99
0BC4
02F7
F841
F7DB
F6E5
065A
FB3F
FD8F
FBFD
082A
02E2
FC88
1D55
FFE0
0136
F0CF
FD34
F3A7
02A1
F9F3
0745
FD49
0D8A
FE99
0D6F
06BB
01EB
FD69
01EE
03CA
FE33
009C
0B82
0042
0DB9
FDC9
04EB
FDA5
F954
119B
6901
01CD
FB60
F8CC
FE3B
0959
FFE1
0074
03C3
FD85
0F17

