FEC9
FF26
FD49
0F8B
FF63
0229
F912
06FA
001F
0DE9
0E51
0380
FF33
FD10
0531
FE27
0C98
03CA
FF26
09F6
FD31
FD26
FA16
F593
F941
0411
9700
013F
FD21
F43E
05AD
FD25
49D5
FA8B
0631
12E3
FA38
FCBF
06A5
007D
FD43
0473
036B
FE20
04C2
08BA
FCD3
FCA7
0C6B
F7AA
08B6
0466
FD72
F22C
0D50
060E
04F4
FEED
F663
0086
FBCD
0050
055C
043F
06E5
0035
FB61
FDB5
FF81
FB49
06E0
0169
099A
F9D1
0731
072B
0251
023A
F745
FD0E
FA56
05BB
0246
00D7
0039
FD4E
FCC5
FD0A
FCED
FEA4
F6BF
0D9C
F6C3
FE0E
1246
0D8B
FCE7
FCA3
008B
0D32
09AE
02F5
FC2A
F4C4
02C0
036E
0252
006C
0199
0115
003A
0B50
0243
FFB0
037E
0624
FFCA
0996
03EB
F6E0
FBAB
0568
032F
012D
0365
FB1E
013C
007E

