FA49
0439
F7C4
FE6A
007F
0168
090B
00A0
F924
03A3
FFB7
38AE
094E
F966
F716
042B
F8B8
FCDC
0326
0585
FF64
0049
FDA5
FAEA
06FF
000F
05AE
FBB5
FE6D
0165
FDF9
FC6F
06D9
FC63
01B2
0994
0173
03A5
FBAE
F5C1
FAF3
0961
A36E
01B4
EE5F
FE5A
FECE
06A0
FB08
E135
F584
01CB
FE61
BAD9
E890
0358
F752
FEF9
00E2
028F
038F
FFBE
F798
0255
0441
05CE
5F4D
0152
0597
FBC9
FCA1
0157
F698
00B1
A779
FFEA
FC89
FFE9
F5C6
0183
03B7
07C6
00A0
0100
9700
0B3E
00C5
0042
FD30
234E
FF98
FC03
FF56
FCA5
01D0
FFB3
FF3D
09A6
0109
FE40
0431
FFD8
FACB
FC18
0022
043E
E3F1
0154
02E0
09AF
012B
EE56
03CC
FF78
F853
0402
FFA2
00D0
FBC4
0119
007F
F544
17BA
FAE2
FF37
0766
0B74
0551

