03984
00972
3C5AC
00C87
3EF28
3FD40
00399
000C8
3F68C
003F2
3EB93
0145D
3F973
02525
3F95D
00E79
3E985
3F904
0012E
3FE46
3E469
3F2F2
003ED
3EEF8
3F728
3DFEA
00940
3E1E7
3ED4B
3FD77
00D2F
3440D
00908
026A3
01540
3FA7F
0155A
3F396
00A76
3C435
3F309
39D3D
3EAF3
3FD96
007FD
3E0EE
00F19
3FD9F
3E888
3EC40
3F6BF
3C1D7
3FA74
002C3
3FBBE
3FCC8
3C5D9
3BAD9
00FD9
004AF
3F366
00CAB
0064F
00B56
3D1A0
3FAE3
012B9
3D830
3FE23
00B7C
3E9AC
3F428
0196E
0066B
3F9A3
3F52A
01D01
3FFE9
00886
016A8
0263B
0114E
3F83E
3FF87
0279B
01F2F
3F9D7
3C615
3FCEE
008E7
3C5B7
00E2C
3FEBD
00BA8
00AF1
3EF68
00177
3F70F
00CAC
018AB
3F92A
009DE
3F9FC
3F6F9
3EE88
005B3
01EA9
00800
3E77F
003DF
00195
3FE00
3FCE1
3D1D9
3FBD8
3BB6F
3FB99
3FCC6
3F0C1
01A9A
3E213
3F624
004FE
0259A
00638
3F4D4
00061
0120C
011C6
3FCDC
3E3B9
3FC89
3F20B
3F079
3E36E
3F713
00E1C
00F4C
0017A
30141
004DB
00404
3E12C
3E559
07C36
20800
3F39F
3F573
00D32
3F4C3
3FE2B
00EB3
3F0CF
008C6
3B515
00B52
02523
014CE
0037A
068AB
3EC9E
00959
3EB69
00179
01CFD
3ED67
018B5
3F9A3
00A47
3FA5F
3F7CE
00436
3EC2B
3FAE7
00F99
00473
0381D
3EBF0
3DDC0
000E9
3ECD1
003E1
3F0E1
3F8BF
0036C
3931D
3F0BD
002D9
3FB4D
006CE
3F420
0012B
3F662
3B9DB
0080E
3F417
3FFAE
3F25B
3DE32
3FCDC
38911
00C75
3E840
3F3A1
3EF33
00C5E
00692
00C33
0116F
004C7
3F89B
004CA
3EB8C
24D63
3EFE4
3E8DE
00777
00B72
003C5
01D46
3F312
3FA3D
3F058
3D911
3FCFC
3F404
3512D
3F67B
3FAED
3FAC3
04924
3F256
00DF1
39AFF
01E85
01BD8
01851
3EFDB
0020F
00308
3ED2F
3F5EC
3F06B
0023E
3F0F9
01AA7
3FFFD
012B3
00F8D
00A41
3CD5F
33E78
3F9EE
01BFC
006DE
007C5

