3900
EECB
F645
F945
E91F
E3AE
F6DE
ED2A
088D
14BD
F2BF
07C9
E7B4
FA21
C51F
F32A
CF8E
FDD6
18BA
1C0F
25A9
25C6
FCB8
FE68
0120
F903
EE57
E720
FCB2
FB3D
E146
0599
1167
F1E1
0DE6
0483
78C9
0D11
F0A6
2456
EC44
1CD0
0A14
EC07
376E
ECAD
031B
FB00
F629
FF53
865C
EF0F
1123
EB1F
04B2
F2F0
FCAD
FA9B
0DCB
17FA
ECE7
F0D7
0F57
F9BB

