00BAC
3FEA1
0054F
03E38
3FB54
3F5ED
3E74B
3FEB2
030B6
3F4FC
3B07A
3E2A5
3EE14
004BC
3D053
0174D
3FD60
01323
007DC
00139
01411
02309
00A2F
00CF1
3F893
00B32
0075C
006C7
3D502
3FE08
3F95A
3F5E5
3FE24
3F34D
010E3
006BB
20800
3F790
00A36
019C1
00ABF
3EF2A
3FBD8
3FD93
3EEC8
005AA
3C71A
007E7
3D6DB
3F3E8
0209F
00F4F
00691
28EE4
00E2B
3FBAD
3F630
3FE17
3AE89
3F16B
3F7AB
02056
00D2E
0207E

