1CBA3
004A0
1EC38
1FA5C
00228
00468
009AD
00D9C
015B9
00B17
1EBAB
01199
1F77E
1FCB7
01069
00732
01997
1EAE2
1FAC9
0092A
1F93F
1FA50
1CFF2
00B9D
00D53
1FAD4
02079
002AD
1FC49
1F143
00571
000CD
1E4A5
1E45D
00268
1E263
1F419
1FF56
1BC33
0040A
1EC85
019D3
1F872
00FF3
1DE51
1F1A5
1F13C
1F4E1
0089B
1DEB5
1E893
00737
1F90B
1F0C7
00424
1F1DC
1687F
05B8B
01FD4
00298
1F0D3
000E2
1D18B
00736

