3984
EF28
F68C
F973
E985
E469
F728
ED4B
0908
155A
F309
07FD
E888
FA74
C5D9
F366
D1A0
FE23
196E
1D01
263B
279B
FCEE
FEBD
0177
F92A
EE88
E77F
FCE1
FB99
E213
0638
11C6
F20B
0E1C
04DB
7C36
0D32
F0CF
2523
EC9E
1CFD
0A47
EC2B
381D
ECD1
036C
FB4D
F662
FFAE
8911
EF33
116F
EB8C
0777
F312
FCFC
FAED
0DF1
1851
ED2F
F0F9
0F8D
F9EE

