FEB4
0100
1D2F
FE97
37F4
F9BD
06CD
F8D9
F85E
039A
0132
FFAE
FF56
07AD
FB08
005D
FE40
FFA7
0390
FADC
FD11
FCE0
FA2B
FBC7
0684
00B4
FD5C
00A2
FFFE
007B
025E
CD31
01CC
FEFE
FF63
FF0D
0203
0B04
04AC
FD5B
02E1
F7DA
F7A5
04A3
FD9A
FC4B
FCB9
C888
030A
07EC
03CA
0205
02F9
FCBD
F997
0B63
01AE
0098
D240
029A
FA30
7001
0445
0374
FDAF
FC2A
0002
02B0
F1EB
FF30
FE93
0806
0142
0440
ED57
F7EA
029F
EEBC
00BE
7001
1455
04F0
F1D3
FEBB
00DD
0ED4
FDC7
049E
195B
0350
059A
0410
FEB1
0916
04DA
0A73
004B
00A5
B258
043D
FA1C
FFC7
F3D9
FF7C
E0DB
00A7
FD92
F622
0907
0322
00A7
054C
0781
FE26
FA10
FAEE
01DC
F7A7
FA8F
FCCB
FFBE
0283
F717
097A
020F
0431
012A
02FF
036D
0806
02AE
FB67
03DB
0FFC
06AC
0112
FDB8
FDBF
01ED
0270
0520
0985
1358
02C7
0128
032D
FAAE
FE1F
016F
FAAE
FF17
08E3
ED8D
03B7
00F9
070B
FED3
08CA
F9D1
FFAD
05EA
0318
FD43
0E7C
0500
02AD
02A0
0180
0001
0032
032C
FBA3
F7AB
0037
0401
03CF
06CB
04D1
00A2
EE72
01E0
10F8
011B
03CF
FFD5
0093
00F1
078D
EF37
036C
FCFD
1932
FF16
F164
FF08
F331
FE82
FE23
F8D5
FD58
004A
28F7
F5C7
FAB3
018E
0008
09E1
FAF7
00CD
FDC5
0000
04FB
0542
070B
02CC
FDF1
051A
0073
061D
FDF7
EA2D
0616
00CB
0669
E1D0
FE76
02DC
0D65
02D1
FFCC
0559
004E
F4C0
0153
49A8
00A6
FFF3
0052
FD07
0068
FFF5
FA7B
0250
FED0
F937
034F
FCF3
03B4
7001
50E0
0D1B
00E9
1BD8
03FC
FFC6
FE0B

