08A3
0188
FA3A
FEB7
057C
F723
0426
FF12
FD24
0289
F7AD
FD3D
FB68
0660
FE5E
0F32
FA67
062E
006F
FF4F
0147
0580
0157
0215
02B4
03E1
089F
F8CA
FBD7
FA9A
0090
06E9
F61F
FF39
F913
0007
F353
00EB
0393
0D9C
00B5
0882
FFAD
0D60
0C74
082A
3029
0374
FBCC
D29D
0910
FF23
062D
C1F3
F884
FD00
E1E5
01A5
F6CA
0523
0746
0168
03E6
FE17
00C0
FF50
F876
0BBC
FCE5
2A5B
FCCF
03B9
0BC6
F930
02EB
FF1F
FCB2
0910
0576
09BD
0051
FB91
FF3F
FD18
0217
F757
0039
FCD4
04B9
FD3D
FD3D
FA01
0A6E
D623
FAD3
F558
057B
001B
06C6
F90D
FC01
0416
FFFD
0406
FDF3
0066
059C
9700
FA91
FD60
FB9D
0129
EED0
FAE8
FE59
FD11
0041
FCD4
0154
F3C5
006A
FC54
FDE9
05A0
F8CA
FB4C
FC5F
FD19
034A
02FC
06C4
4627
FCB7
00C4
FC55
FA7B
049D
0303
01A1
0622
03EF
FF7C
0876
1262
00BD
0B1B
0160
FA2A
0734
06E3
038E
FC93
10DA
FF06
FBA0
065B
FC8A
006D
F4CF
006D
FBDE
FE83
FAD6
FD32
FD95
002F
0926
0434
FA5D
02DC
9F50
0357
0BDB
FF45
01A3
FDF9
FDC3
0284
EBC5
04AD
0422
024B
FE45
087F
01E6
FFE5
FEBD
FCC2
FCD2
FFAF
068E
FC91
FD6F
FB6F
FAD9
0C01
05B4
FC03
DD04
F77D
04F9
F431
F543
087B
FE1B
F80C
01B4
0456
FF06
017F
FE54
FD5C
FB5C
04FD
B87A
F1F3
01BF
F6B2
E3A1
0CAE
FA9F
04A5
034A
05F9
FFB0
01BF
F71F
04B8
FE74
05DE
FEEA
FED5
FCE5
F715
00D0
F5BB
FE6E
10C0
027F
0072
F81B
FA48
037C
FBBC
01E0
FD77
FFB1
003B
01BE
047E
F681
054B
0089
FC5F
0246
0434
F9E6
092A
0435
06A4
F499
0408
0595
002A
01D1
0142
5BD9
FB39
02AA
0AD4
0135
FDA4
116A
13E4
057B
FF72
FF4E
04A0
FBB2
FB39
FCE4
FE56
FC91
0625
FF89
F578
014C
015B
05C7
E76E
F666
0964
EF35
FA54
009F
F99F
0546
026A
A4ED
06B7
02BE
04CF
FFDA
06F0
FE69
FA91
FC79
0242
0B57
13AD
FFD7
01E8
02BD
EE0E
F519
F719
F7BA
FE77
0169
FCFC
F7A6
F941
03A4
F9BF
F606
FEDD
0792
05AC
0617
05EA
008C
0235
FB03
00F7
00F1
00AE
FD5A
E2A6
9700
0029
FBC1
FBD1
0A5D
FD2D
0688
043E
00B1
FCAB
02C6
03D7
0033
FD03
FC6A
020D
FD29
FCE2
18E2
0D9F
2166
FE93
FFA4
FDCF
FF84
F691
0104
0152
FBF1
0D4E
E9F4
F7AE
FF44
F659
FD0D
0348
FC95
FDF7
ED81
0831
01B4
1024
0262
06EA
FFA1
0CE1
F9BF
FE95
FF35
FCD7
0703
F1CC
0972
FC95
FD06
FA2A
00F8
007D
0C83
FCD2
FE2D
0BAC
FE5E
035F
0421
0983
0B4C
03E5
FFC7
02DE
0690
0339
FABB
FC14
01B2
F6A9
FBF3
F473
FD0C
FD7E
0013
02AC
01B7
FCD8
042B
035C
0398
FF42
E210
0248
FDD7
0508
0143
004A
005D
FE95
02CD
018A
09F4
F31E
0930
00E1
0015
FCA4
011A
002C
0CE6
FBF1
EDA8
0AF8
FD90
FDDC
03BA
0239
04B9
FC1E
FF65
FF86
FD7A
FE19
F825
0352
F7F3
F842
03F3
0619
0FE6
EBCD
FF99
FFBD
5323
00FB
00BB
088D
012A
FBC6
FBB3
03DB
FA50
0171
0104
F6D1
F7F3
FBAB
0075
FBA1
FE18
FDD1
F4E7
055C
091B
FB60
16DE
030D
FFB1
FF09
FAD4
011D
0042
0A9A
FF0F
0357
036D
FBDD
0758
FB04
FD73
FE51
0B35
0131
0D2E
021A
0545
0058

