FEF7
FF58
FD68
1068
FF95
025C
F9C3
0723
005A
0EA7
10AC
039E
FF5A
FD38
0554
FE4F
0EBE
03F4
FF3A
0A82
FD71
FDF5
FA4A
F627
F9C3
042D
9700
0176
FD48
F56D
05CE
FD43
5306
FAB2
0655
1427
FA5A
FD2B
0760
00A5
FD6F
0510
039D
FE80
04F7
094C
FCFF
FCDC
0D74
F81D
094B
048E
FDAA
F2BA
0EE4
0644
058C
FF28
F809
00B7
FBF6
0086
0588
045C
0788
0051
FBC4
FDDE
FFA6
FB71
08B2
018B
0A22
FA4E
0862
07BF
0277
0307
F7B2
FD3B
FBCE
05E0
0270
013E
0062
FDA1
FD06
FD1D
FD09
FED0
F732
0E5F
F7CF
FE45
1799
0F35
FD0F
FCC6
00AC
1100
0A1B
032E
FC61
F58D
02F2
039C
026D
00C3
01BE
0197
005E
0C2D
025A
0017
03EA
0640
FFEB
0C2D
0413
F705
FBC6
0585
0384
0153
0386
FB5E
0157
00DF

