FEB7
FF12
FD3D
0F32
FF4F
0215
F8CA
06E9
0007
0D9C
0D60
0374
FF23
FD00
0523
FE17
0BBC
03B9
FF1F
09BD
FD18
FCD4
FA01
F558
F90D
0406
9700
0129
FD11
F3C5
05A0
FD19
4627
FA7B
0622
1262
FA2A
FC93
065B
006D
FD32
0434
0357
FDF9
04AD
087F
FCC2
FC91
0C01
F77D
087B
0456
FD5C
F1F3
0CAE
05F9
04B8
FED5
F5BB
0072
FBBC
003B
054B
0434
06A4
002A
FB39
FDA4
FF72
FB39
0625
015B
0964
F99F
06B7
06F0
0242
01E8
F719
FCFC
F9BF
05AC
0235
00AE
0029
FD2D
FCAB
FD03
FCE2
FE93
F691
0D4E
F659
FDF7
1024
0CE1
FCD7
FC95
007D
0BAC
0983
02DE
FC14
F473
02AC
035C
0248
004A
018A
00E1
002C
0AF8
0239
FF86
0352
0619
FFBD
088D
03DB
F6D1
FBA1
055C
030D
011D
0357
FB04
0131
0058

