0940
058D
FD35
FB7B
FA79
0154
02C5
FBE8
F650
F3F0
00C5
0C9F
FBD4
0640
E32E
0779
00CD
FCFA
0CA1
FCC3
0068
0227
04D0
0A83
05C0
FC11
FE04
FAA1
F038
0064
007A
F8D9
035A
FCCB
04C7
03FD
00D0
07D2
118C
FCA0
FBF6
FDAA
FA7A
0C1A
FDD6
043E
01F5
FCE4
FD79
05C3
0513
FE30
FF17
FB9A
01CD
FAAF
FFDE
FE8A
FCFA
FE80
F84B
01F4
01CC
009C
F9FA
F4C0
01DD
02B8
133E
FF62
FCF1
FF9A
05D8
EFFD
055B
02CF
FE79
0B7B
02D1
F7E7
F7B7
F650
062E
FB17
FD6C
FBD5
0713
02CF
FC74
1A5E
FFB8
0114
EC3D
FD1A
EF8D
0277
F9D0
0719
FD1C
0CDB
FE72
0C02
069E
01C5
FD2B
01C9
03A8
FDF6
0072
0A79
0024
0D2C
FDA3
04C9
FD89
F868
1078
5F27
0160
FAAA
F83C
FE23
0930
FFC1
0053
038A
FD79
0DD1

