0855
0573
FD1C
FB5E
FA5D
0140
02AB
FBCF
F607
F305
00AD
0C5F
FBC8
0624
E140
072D
00B9
FCDB
0B58
FCAA
0045
020F
04AD
0A64
0558
FBF9
FDEB
FA89
EE1B
002F
0062
F8C2
0342
FCAC
0488
03E7
00B3
06E5
1081
FC7F
FBD3
FD8A
FA4F
0BBB
FDB9
0415
01DE
FCCA
FD6A
05AC
04EB
FE10
FEFD
FB3D
01B8
FA97
FF99
FE69
FCDA
FE65
F804
01D6
01B7
007F
F9DC
F485
01CA
02A2
1080
FF45
FCDE
FF81
05BF
EED0
053B
02B5
FE61
0B45
02B4
F7A3
F79D
F5E1
060C
FAF9
FD51
FBB7
0642
02C1
FC65
1824
FF9A
00FB
E8D0
FD06
EC7A
0258
F9B6
06F8
FCFA
0C58
FE54
0AF1
0689
01A9
FCFD
01AD
038F
FDC8
0052
09B2
000D
0CC3
FD87
04B1
FD73
F7B8
0F9D
4D21
010F
FA22
F7CF
FE12
0911
FFA9
003A
035F
FD70
0CDD

