076A
055A
7D02
7B41
7A42
012B
0290
7BB6
75BE
721A
0095
0C1E
7BBC
0609
5F51
06E2
00A6
7CBB
0A0E
7C92
0022
01F8
048A
0A45
04F0
7BE1
7DD3
7A70
6BFE
7FF9
004A
78AB
032A
7C8D
0449
03D1
0097
05F7
0F75
7C5F
7BAF
7D69
7A23
0B5C
7D9D
03EC
01C6
7CAF
7D5B
0594
04C4
7DEF
7EE3
7ADF
01A4
7A7F
7F54
7E49
7CBA
7E4A
77BD
01B9
01A1
0062
79BF
744B
01B8
028C
0DC1
7F27
7CCA
7F69
05A6
6DA3
051C
029B
7E49
0B0E
0297
7760
7782
7572
05EB
7ADB
7D37
7B99
0571
02B3
7C56
15EB
7F7C
00E2
6562
7CF2
6967
0238
799C
06D7
7CD8
0BD4
7E37
09DF
0673
018C
7CCF
0192
0376
7D99
0033
08EC
7FF7
0C59
7D6B
0498
7D5E
7708
0EC3
3B1C
00BD
799A
7763
7E01
08F2
7F92
0021
0334
7D67
0BE9

