021BD
02BFF
01D02
005AC
1D6E2
01B09
1FA47
1CDA7
027B1
01C75
07863
1D8DE
02116
06ECA
022E3
1FAB3
1EFB6
1DE02
1ECD8
1F0E3
1F05D
008D7
1AF1D
1D2CD
01407
01A45
0BF2F
0495C
02F27
1DE56
04ED8
0FC01
0396B
00F10
1DD0A
035E0
03A88
1D339
02392
1DFC8
1FD4B
192A0
1FC59
1E390
1EC20
1AAFA
01053
1E696
1F02C
1F121
045A0
1AB3C
1D99A
01DE7
15FC1
06274
1E200
1E8CD
1DFBD
0239D
1DDFC
0244F
18ACD
1DBFA

