0125C
01E84
0340B
1FB0C
1E92E
043A4
0113E
034DB
1E894
023BF
1CF5A
19EE9
0483F
1F337
1C87F
1D0A7
10400
1E376
1C837
1DB80
1E772
1EA2E
04572
1B8C8
038EC
1BAD0
033E1
08F91
1D6BC
1FAAB
1ED4C
1EA90
025C8
1EB65
0FC01
10400
028BE
0110B
051F6
1F520
01493
1D1BB
1E358
01FCE
1ED77
1F15C
0148B
1EBDE
1FEB0
1F205
03257
1E957
008D0
07A8A
1D2C0
01CD7
1E813
0FC01
1FB4C
02784
1ED87
03C15
1D7A1
078FC

