00B6D
01B51
02210
1F644
1D05E
036EB
00DC2
0222B
1E477
01FE5
1B68B
17E2B
02123
1EEAB
1BC43
19C74
10400
1DC75
1B644
1D63F
1E3A3
1E4CD
021A9
1B0F8
02D51
1A942
02EE6
07BF3
1C9E8
1F277
1E30A
1DFD7
01E9A
1E71A
0D363
10400
01794
007CE
0475E
1EE2B
011FC
1C28A
1D533
01A2C
1E587
1ECEA
00BF1
1E719
1F84C
1E93A
02A9C
1E358
0021F
03F75
1CBA2
01680
1E141
0E392
1F532
02142
1E5EC
0360D
1CFCD
04612

