00F54
1E998
1FB25
1FE2F
1FC8B
1FD4F
1FEB1
01390
094E8
1FFCC
1F596
003E7
1ED2E
0025E
02B19
1C6F2
1FDF8
1FBBF
00E30
1F62F
00115
00056
1F09D
1FE44
00644
1E47E
1F748
1FCBA
1F5AD
1FCF5
0FC01
1FD9B
1FC71
001BF
1FC37
0000A
1FD66
00FFC
1FC68
004E5
0143A
0002E
1FCE1
0028C
00376
01471
005B5
1FF85
004A6
1FFCB
002A5
1F46B
01811
1F9EC
00344
00056
1FD45
004F2
001A0
1EFD4
009DC
1EF89
1FE35
1E69B
1FE72
1F8CF
001A9
00979
00B2F
00140
02C40
1F8B0
00235
1FBC0
00478
002DF
00232
1FF7E
1FE66
002AD
1FEE6
001BA
0116D
1E342
06CAC
00487
0036D
1FA2B
0117D
003E6
00270
1FD61
00564
00160
00C93
00159
1FE01
1FFC8
1FFBE
1FECC
00361
03A94
000E3
0029B
1F841
1FD1E
1FE48
1EB2B
1FC84
00222
1FF8A
1F9D7
1EB65
00009
1FFFA
00E1B
1F943
00314
0020E
000DA
00431
1FBFB
001AC
1FDA6
02561
1FF37
01B40
1E916

