FEC0
FF1C
FD43
0F5F
FF59
021F
F8EE
06F1
0013
0DC3
0DD9
037A
FF2B
FD08
052A
FE1F
0C2A
03C2
FF22
09DA
FD24
FCFD
FA0C
F576
F927
040B
9700
0134
FD19
F402
05A7
FD1F
47FE
FA83
0629
12A3
FA31
FCA9
0680
0075
FD3B
0454
0361
FE0C
04B8
089D
FCCB
FC9C
0C36
F793
0899
045E
FD67
F210
0CFF
0603
04D6
FEE1
F60F
007C
FBC5
0046
0554
043A
06C4
0030
FB4D
FDAC
FF7A
FB41
0683
0162
097F
F9B8
06F4
070D
024A
0211
F72F
FD05
FA0A
05B3
023D
00C3
0031
FD3E
FCB8
FD06
FCE8
FE9B
F6A8
0D75
F68E
FE03
1135
0D36
FCDF
FC9C
0084
0C6F
0999
02E9
FC1F
F49C
02B6
0365
024D
005B
0191
00FB
0033
0B24
023E
FF9B
0368
061F
FFC3
0912
03E3
F6D9
FBA6
0562
031E
0125
035E
FB11
0136
006B

