016D
7701
0281
060C
0624
055A
03C5
7A92
7F31
00E2
0864
07B2
51C3
4062
0194
015C
7F49
2945
792A
08E3
7B89
7728
7D2D
5481
0015
0407
0061
7D4D
7AE0
7CCC
7C43
7B43
02F5
00BD
02FE
7F75
0AE1
06B2
7EFC
0064
7E7C
0028
02D0
7F3E
027B
0244
7FC9
7FA4
7B67
7BFC
7407
77EB
0170
04F7
769E
049D
01B7
05D0
768D
1044
7A40
7D6D
0476
7C56
0838
0400
0139
0ABB
127C
0498
7E4A
754B
666A
7A4B
0262
04C8
7A60
1297
6D9D
7E71
793A
7ED6
05CE
00EE
60E0
7BC8
0436
03CE
0204
0D80
7DC6
014C
77A5
0342
0827
06E2
7E8D
70C1
7A21
7CCA
0358
03DD
0335
767E
7D70
7CD0
7F38
04FE
7E89
72DD
7C97
7BE5
7DD1
7C09
7E10
782E
6A24
00EC
7BBC
016A
7BA4
7DC6
7B57
7F01
0A42
7BD5
7E4B
0211

