0245
7814
02C0
08A7
0672
0689
04A5
7ACF
7F74
0128
0951
0B73
5890
4CE4
0220
01B8
7F80
31F2
795D
0A4A
7BC8
789D
7DA7
6197
0047
047D
008A
7DEB
7B1F
7D08
7CCE
7B90
032B
00F7
0327
7FAB
0CB4
083E
7F48
00AB
7EB4
0061
0333
7F75
02C4
0278
00A3
7FFB
7BA9
7C36
755B
78F5
01E6
0529
773B
04E0
01FA
063E
7AD0
1425
7A80
7DBD
04B6
7C9D
0FC4
0443
0182
0B7F
1DBF
04D5
7EAA
76B6
6E8A
7A90
02A4
04FC
7BEB
1B49
7121
7EA5
7974
7F14
06AD
0138
6F12
7C11
0479
0412
0249
0E7B
7E08
0180
77F3
0378
0876
071F
7ECE
7915
7A66
7D05
0390
0420
0359
77DA
7DDA
7D0D
7F8B
054D
7EE7
74E4
7D03
7C41
7E25
7CB1
7E5D
78CF
776B
0161
7C0B
01A2
7BE1
7E1B
7B9E
7F43
0D06
7C14
7E81
025A

