071C
0551
7CF9
7B37
7A39
0124
0287
7BAE
75A6
71CC
008D
0C09
7BB8
05FF
5EAC
06C8
009F
7CB1
09A0
7C89
0016
01F0
047F
0A3B
04CD
7BD9
7DCB
7A68
6B49
7FE7
0042
78A4
0322
7C83
0434
03CA
008D
05A8
0F1C
7C54
7BA4
7D5F
7A15
0B3D
7D93
03DE
01BE
7CA6
7D56
058C
04B7
7DE5
7EDA
7AC0
019D
7A77
7F3D
7E3E
7CB0
7E41
77A5
01AF
019A
0059
79B5
7438
01B2
0285
0CD7
7F1D
7CC3
7F60
059E
6D3F
0511
0293
7E41
0AFC
028D
7749
7779
754D
05E0
7AD1
7D2E
7B8F
052B
02AF
7C51
152D
7F72
00DA
643E
7CEC
6860
022E
7993
06CC
7CCD
0BA9
7E2D
0984
066C
0183
7CC0
0188
036E
7D8A
0028
08A9
7FF0
0C36
7D61
048F
7D57
76CD
0E7A
351A
00A2
796D
773E
7DFB
08E7
7F8A
0019
0326
7D64
0B97

