FA1B
0400
F781
FE48
0050
0135
07C7
0071
F8F1
0374
FF98
1F1F
0894
F6C0
F633
035C
F7F2
FCB6
0277
0559
FEF3
001B
FC6D
FAA5
0654
FFDA
0577
FB6C
FE30
0130
FDC9
FC40
069B
FC3A
017F
063B
0138
0360
FB83
F2EA
FA9C
08B0
9716
0181
E692
FE1C
FE9B
066B
FA7B
D4A2
F4C1
0186
FE3B
B3BC
D9C5
032F
F6B8
FECC
00AB
0260
0356
FF98
F453
0228
041C
0525
54F0
00FB
0544
FB83
FC73
0136
F601
007A
9FD6
FFB9
FC5A
FFB2
F3BF
0136
037F
0729
0064
00D5
9700
089A
008A
0015
FD1C
1D98
FF5E
FBCC
FF1F
FC75
017A
FF7E
FF23
090C
00D6
FE08
0402
FFA4
FA9B
FBA7
FFF3
0406
DE4F
0120
02A8
0833
00F8
EC4D
0397
FF41
F7CA
03D4
FF88
0092
FB93
00D9
0060
F42F
1526
FAB8
FEC0
073A
0AB7
052D

