098E
0596
FD3E
FB85
FA82
015B
02CE
FBF0
F668
F43E
00CD
0CB4
FBD8
0649
E3D3
0792
00D3
FD04
0D0F
FCCB
0073
022F
04DB
0A8D
05E3
FC19
FE0C
FAAA
F0ED
0076
0082
F8E0
0363
FCD6
04DD
0405
00D9
0822
11E6
FCAA
FC01
FDB5
FA89
0C39
FDDF
044B
01FD
FCED
FD7E
05CB
0520
FE3B
FF20
FBB9
01D4
FAB7
FFF5
FE94
FD04
FE89
F862
01FD
01D4
00A6
FA04
F4D3
01E3
02C0
1428
FF6C
FCF8
FFA2
05E0
F062
0565
02D7
FE81
0B8D
02DA
F7FE
F7C0
F675
0639
FB21
FD74
FBDF
0759
02D4
FC79
1B1C
FFC2
011D
ED61
FD20
F094
0281
F9D9
0724
FD27
0D07
FE7C
0C5E
06A6
01CE
FD3B
01D2
03B1
FE05
007D
0ABB
002B
0D50
FDAD
04D2
FD90
F8A3
10C0
6529
017B
FAD8
F860
FE29
093A
FFC9
005B
0398
FD7C
0E22

