0152
F6DE
0279
05B9
061A
0535
03A9
FA8A
FF28
00DA
0847
0739
D0EA
BED2
0182
0151
FF42
2830
F923
08B6
FB81
F6FA
FD1E
D2DE
000E
03F9
005C
FD39
FAD8
FCC5
FC31
FB39
02EE
00B6
02F9
FF6E
0AA6
0680
FEF3
005B
FE75
0020
02C3
FF37
0272
023E
FFAE
FF99
FB5F
FBF5
F3DC
F7CA
0162
04F1
F68B
0494
01AF
05C2
F604
0FC7
FA38
FD63
046E
FC4D
0747
03F8
0130
0AA3
1114
0490
FE3E
F51D
E566
FA42
0259
04C2
FA2F
1180
ED2D
FE6A
F932
FECE
05B2
00E5
DF1A
FBBF
042D
03C6
01FB
0D60
FDBE
0145
F79B
033B
081D
06DA
FE85
EFB7
FA18
FCC3
0351
03D5
0330
F652
FD63
FCC9
FF2D
04F4
FE7D
F29C
FC89
FBDA
FDC7
FBF4
FE06
F81A
E87B
00DE
FBB2
0163
FB9C
FDBB
FB4E
FEF9
09E9
FBCE
FE44
0208

