FABA
0832
1828
FB58
F85C
00AF
EC81
F297
D565
F07E
FF60
F507
F67B
0475
0C79
1E0C
E094
F6DF
F417
0820
12ED
05B6
0136
1DB4
B9B7
F181
045F
EF5C
15D7
088B
B0F9
FE5A
0CD2
055E
F593
0800
F730
0F5B
F0D7
0873
136C
0AD8
F476
E701
FA97
05A2
1911
0CAD
00A7
C95F
01C8
E804
0517
F766
F84B
FF31
FEE5
0F5C
EE4C
FFEC
03D1
0122
F9BE
15F0

