7AFA
08A5
1CA6
7BB6
78A7
00F4
6D49
7378
6227
70C8
7FF8
7847
76AC
05CB
0D18
2884
7173
7715
7462
085D
139E
0998
016D
2199
49A5
7231
051E
706C
1BA4
0978
68F9
7E95
0D07
08E3
75F8
0940
77DD
1285
7154
09CE
16A9
0CA3
785A
6A63
7AD5
0602
199C
0D6F
00DF
5360
0213
6F70
0661
78CE
790C
7F5B
7F29
0F9E
6FC4
02A6
0428
0149
7A31
16DB

