7B01
08B0
1D19
7BBF
78AF
00FA
6D5D
738F
636E
70CF
0007
789A
76B1
05ED
0D27
2990
7322
771B
746A
0864
13AF
09FC
0173
21FD
4B3D
7243
0531
7087
1C39
0990
6E92
7E9B
0D0C
093D
7602
0960
77EF
12D6
7161
09F1
16FC
0CD0
78BD
6AB9
7ADB
060C
19A9
0D82
00E5
5460
021B
702F
0682
78F2
791F
7F5F
7F30
0FA5
6FE9
02EC
0430
014D
7A3C
16F2

