EF7B
076A
F374
0431
3287
F6D7
0319
0216
2917
F568
F0DB
32ED
FA8D
FD74
EC4E
0BF4
BF06
16A6
FD86
E83D
0728
FD93
F6F9
D0A1
0667
FED8
030A
F309
187B
F963
FE90
EF76
1B88
7E01
FA75
0206
04CF
0054
DEB5
F39B
17D8
DC73
2E9E
1B44
0486
3377
0BA2
FEB9
E9D2
FD41
08C7
024B
F994
E3F9
FFE3
FE86
FF06
05F3
F5E1
F3FE
EEC2
05D8
03FF
FE6C

