EDCC
06EE
F0B7
0402
18FB
F5B1
0246
01A6
23C3
F479
EFCC
2D0D
FA3F
FD4C
E9E3
0B72
8200
12CE
FD48
E596
06FB
FD75
ECC9
CC5E
05C6
FE8D
02BB
F2D3
1621
F5BD
FE71
EE4E
1740
7E01
FA41
01CD
04AA
FFC5
DA04
F1B5
1580
D93E
1875
10DA
0464
251F
0B1A
FCAF
E99B
FC1B
084C
01F9
F92F
E390
FF70
FE54
FEE2
04FB
F5AE
F3C4
E945
05B1
03D4
FDFC

