ED96
06DF
F05F
03FC
15C9
F58C
022C
0198
2318
F45C
EFAA
2C51
FA35
FD47
E996
0B62
8200
1253
FD40
E541
06F6
FD71
EB83
CBD6
05B1
FE84
02B1
F2CD
15D6
F548
FE6D
EE29
16B7
7E01
FA3B
01C6
04A5
FFB3
D96E
F178
1535
D8D8
15B0
0F8C
045F
2354
0B09
FC6E
E994
FBF6
083D
01EF
F922
E382
FF62
FE4E
FEDE
04DC
F5A7
F3BD
E896
05AC
03CF
FDEE

