EE6D
071C
F1BE
0413
228F
F61F
0295
01D0
25C2
F4D3
F032
2F41
FA5C
FD5B
EACB
0BA3
856A
143F
FD5F
E694
070C
FD80
F09B
CDF7
0602
FEA9
02D8
F2E7
1703
F71B
FE7D
EEBD
18DB
7E01
FA55
01E2
04B8
FFFB
DBC7
F26B
1661
DA72
20C5
14C2
0471
2A80
0B4D
FD73
E9AF
FC89
087A
0218
F955
E3B7
FF9B
FE67
FEF0
0558
F5C1
F3DA
EB54
05C0
03E4
FE26

