FAB3
0826
17B5
FB4F
F854
00A8
EC6D
F280
D41E
F077
FF51
F4B3
F676
0453
0C69
1D00
DEE4
F6DA
F410
081A
12DB
0552
0131
1D50
B81F
F16F
044C
EF41
1543
0873
AB5F
FE54
0CCD
0504
F589
07E0
F71F
0F0A
F0CB
0850
1319
0AAA
F412
E6AB
FA91
0598
1903
0C99
00A2
C85F
01C1
E745
04F6
F742
F838
FF2D
FEDE
0F55
EE26
FFA6
03C8
011E
F9B3
15D9

