7AED
088E
1BC0
7BA3
7898
00E6
6D21
734B
5F9A
70B9
7FD9
77A1
76A3
0586
0CF8
266C
6E13
770A
7453
0851
137A
08D1
0162
20D2
4675
720E
04F8
7036
1A7B
0948
5DC6
7E89
0CFC
082F
75E4
0900
77BB
11E3
713B
0989
1603
0C47
7793
69B6
7AC8
05EF
1980
0D48
00D4
5160
0204
6DF4
061F
7886
78E5
7F52
7F1C
0F91
6F79
021B
0416
0141
7A1A
16AC

