7AF4
0899
1C33
7BAC
78A0
00ED
6D35
7362
60E1
70C0
7FE9
77F4
76A7
05A9
0D08
2778
6FC3
7710
745B
0857
138C
0935
0168
2135
480D
721F
050B
7051
1B10
0960
635F
7E8F
0D01
0889
75EE
0920
77CC
1234
7148
09AC
1656
0C75
77F6
6A0C
7ACF
05F8
198E
0D5B
00DA
5260
020C
6EB2
0640
78AA
78F9
7F57
7F22
0F97
6F9E
0260
041F
0145
7A25
16C3

