ED60
06CF
F007
03F6
1297
F568
0211
018A
226E
F43E
EF88
2B95
FA2C
FD42
E948
0B52
8200
11D8
FD38
E4EC
06F0
FD6E
EA3D
CB4D
059D
FE7B
02A7
F2C6
158B
F4D3
FE69
EE04
162E
7E01
FA34
01BE
04A1
FFA1
D8D8
F13B
14EA
D871
12EB
0E3F
045B
2189
0AF8
FC2D
E98D
FBD1
082D
01E4
F915
E375
FF54
FE48
FED9
04BD
F5A1
F3B6
E7E6
05A8
03CA
FDE0

