EED9
073B
F26D
041F
28F2
F669
02CA
01EC
2717
F50F
F075
30B9
FA70
FD65
EB66
0BC3
9C75
1535
FD6F
E73E
0717
FD88
F327
CF08
062B
FEBC
02EC
F2F5
1799
F805
FE85
EF07
19ED
7E01
FA62
01F0
04C1
001E
DCF3
F2E5
16F7
DB40
264F
175C
0479
2E16
0B6F
FDF5
E9BD
FCD3
0899
022C
F96E
E3D1
FFB8
FE73
FEF9
0596
F5CE
F3E8
ECB3
05CA
03EF
FE42

