FE48
185F
3009
062A
F6A6
00AD
FC3E
FA93
FDDF
02B3
FCB1
F9AD
05C7
FCCA
FF4C
01B2
014A
FE94
018E
0437
0271
F71D
FCE5
FBF6
0268
0350
028A
F913
0154
CAA8
F9CB
03B7
FD13
FF83
EF7F
FE0B
0097
EB24
01F4
003A
11B6
EF4A
001E
FD3D
15AD
0506
FE2C
044A
FFC3
A538
F99C
EC50
D8CF
FD38
0899
0039
075C
F99F
016F
F9F8
FF69
F695
0186
00A1
02E3
020D
031B
05F5
FD10
0167
04B8
1168
0078
F8AA
00BE
FE69
EB1A
007E
FE40
F95A
0577
FCE3
0405
022A
FF3F
02B8
F728
034C
064D
FFB2
0169
0087
FF56
0054
EA5D
FC56
FE78
FE5B
FDC1
F835
FFCF
F55E
0122
0752
0053
FF80
04CF
0268
04AF
0598
E2F7
006C
DC13
027C
0249
04EE
F419
3B48
FF70
FC6C
FF6F
0194
F8D4
FC5D
7001
0AC7
1595
FF65

