FBB4
EBB5
FF25
FCA1
FB6B
0844
FAD2
FB4F
0A03
FA16
0983
F9ED
01E1
A1F3
00CD
FA61
01A4
FC1A
F999
023D
7001
BEB1
FC6F
F99A
0243
FD9A
ECD6
0986
FF62
FDA7
FAFF
FD06
0091
FB21
F524
03DA
DB0F
0040
FFE8
F3E8
05E4
FB97
F683
F780
F561
0074
09E5
0517
F23F
007C
07A1
FF01
11B2
FC62
FCA0
FBD7
FBE0
078E
FDE6
072A
001F
024C
0665
FBAB
FE83
0009
FAC5
FDC9
03B4
0298
F1BA
F613
FD24
FBFD
F336
C901
F63E
0B2C
FB04
FCBA
FB21
FF4A
FE88
FC6A
FE56
004F
014F
0064
01D6
011A
00FD
02FB
F98A
14D7
1577
063B
1233
07CB
FF28
0011
4E05
F9D7
0053
F244
FDCA
FD4C
FB8F
FB60
022D
029E
F799
FDC1
FD60
FC45
FBDE
01CE
061B
020E
7001
FCD4
E7E3
04D1
FE13
FB18
FE1A
F949
FBCB
09AC

