03EA8
1F2D0
1F952
1FB3F
1ED8A
1EBB4
1FA11
1EE9C
00DD8
01B7D
1F5ED
00A0A
1F0CD
1FDAF
1CD1C
1F5B7
1E654
00127
0207C
02672
02BED
039ED
1FF12
00214
004DE
1FAAC
1F06F
1EB34
1FEB4
1FF33
1EA16
00C6B
0157B
1F3B3
01038
0084A
09E79
00E7D
1F269
02D2C
1F021
01EBF
00C40
1ED9B
03EF6
1EE3A
00695
1FE50
1F89E
00341
1A425
1F098
0146B
1EFD5
02322
1F45F
00016
1FE22
00F6E
01BBB
1F007
1F24E
011AC
1FBE3

