D594
0657
ED4B
FC06
03CA
0534
0A64
0E52
1682
0C24
ECDD
15C5
F8BE
FE58
1158
08AC
250A
ECE7
FCB1
0A3C
FAEC
FB19
E0FF
0CBB
0E6A
FC3C
237F
0480
FD06
F21C
0631
0182
E62D
E5ED
03F6
E469
F4E4
014A
C812
04FA
EE5D
1BAF
F985
1087
DF41
F2EC
F20E
F622
0986
DF8F
E91D
0849
F9C5
F242
04C4
F463
8F5E
7A37
2201
037C
F181
025F
D87F
07C7

