00DE9
001AD
015FE
00FF8
1FF2C
1F057
1E31C
184BD
1FBB5
1D1D8
1FF1B
1FE80
1C490
1FDE2
0056B
01A84
1DD0C
1F505
1F611
01916
0004A
1CA99
01335
1F014
0199F
1F7EB
00944
1FF98
1C3F9
01D62
0276B
013B7
1FD2F
1F889
13C9E
1E61F
1F602
011C9
00C4F
0B372
002EF
1FA81
00506
0053C
00173
1F9F3
004FB
001D9
1F546
1FE76
1F4A4
00DF7
00679
1EAE2
024AF
1DFC7
1F83F
1F33C
01E71
003FF
003DF
013AC
1790C
008CD

