03FAF
1F38B
1F9E0
1FB9A
1EE57
1ED29
1FAA6
1EEDF
00ECE
01CB7
1F681
00A73
1F275
1FE55
1CE90
1F62E
1EA78
001C2
021E5
02855
02D10
03D97
1FF7F
002BF
0058D
1FAFA
1F0D0
1EBF2
1FF11
1FFEB
1EBB0
00DA9
01639
1F408
010A4
008FA
0A553
00EBF
1F2BA
02EC7
1F0D5
01F19
00CA5
1EDE5
04054
1EE83
00737
1FEEA
1F911
003F8
1A98F
1F0E0
01504
1F0B1
028AA
1F4A2
000B5
1FEC6
00FBA
01C69
1F099
1F292
01219
1FC47

