00C32
01BAC
0240F
1F6CC
1D320
03855
00E25
0243F
1E4EC
02052
1B94C
181CF
0257B
1EF2C
1BD9F
1A241
10400
1DD3C
1B843
1D6D4
1E40F
1E566
025A3
1B1D6
02E9B
1AB36
02F73
07E21
1CB55
1F360
1E42E
1E108
01F66
1E794
0D944
10400
0197C
008D5
0488B
1EEF1
01245
1C43A
1D6C5
01ACD
1E669
1ED69
00CE5
1E7A1
1F902
1EA34
02B78
1E403
002DD
04605
1CC6C
01735
1E203
0F65A
1F5E0
021F4
1E6C4
036B9
1D0AB
04BBA

