FE54
0097
18E8
FE2C
30EA
F971
063C
F852
F6D7
033A
00BC
FF11
FC96
0713
FAA0
FFC1
FDE9
FF15
02CB
FA7A
FCBB
FC44
F9BB
FB4C
05DC
0037
FCDA
0041
FF5F
FFF3
01C5
C463
0158
FE9E
FEAB
FEAE
019B
09FB
0444
FCC8
027D
F772
F72C
042D
FCF9
FBD3
FC0C
C0CF
027A
0756
035D
01A7
0296
FC48
F922
08D8
015E
0013
CB80
0231
F9D6
7001
03C6
02D8
FD24
FBCD
FF91
022E
EFC4
FE91
FE1A
079A
00AA
03A0
EB63
F76B
0207
EC95
0048
7001
1201
0475
EF92
FE48
0033
0BE5
FD4C
040C
1616
02E4
0517
0362
FE3B
08A5
045A
0A01
FFD2
003B
A6AE
03BC
F9AA
FF56
ED27
FEFF
D9B4
002A
FD42
F5C0
08A6
02A9
0045
04C7
0760
FD21
F9AB
FA71
017B
F663
FA09
FC2C
FF72
021C
F6A4
0917
0195
039E
00B0
0298
02F2
077A
021F
F8A0
0330
0D91
0609
00B8
FD23
FD40
0176
01DD
04C3
0920
119F
0203
008C
02BF
F8E4
FDA2
00D2
F9DC
FE7D
0879
EB5F
02BB
008C
0460
FE51
0870
F968
FEF1
0584
026C
FCED
0CAA
0421
0225
0237
00BC
FF55
FFC3
02C5
FB13
F736
FFDB
0360
0358
065B
0479
FFCD
E9B8
0176
0F10
0097
0331
FF64
0037
0065
0712
EAE7
02F1
FC68
1693
FE89
F00C
FE6E
F01E
FDD6
FD9D
F847
FCF7
FFDD
2237
F56A
FA64
012E
FFCA
079B
FA8A
0061
FD53
FF8E
0487
04DC
068E
0273
FD64
04BB
FFF4
05A7
FD63
E3C4
0594
0076
05D6
DCB6
FE18
0287
0BF7
0258
FF1B
04FA
FF7F
F42C
00E3
3CE1
002D
FF7F
FFF8
FC7D
FFE5
FF7E
FA01
01A9
FDF2
F8DF
02C8
FC6E
0347
7001
38F0
0B09
008E
1647
036F
FF70
FDAD

