FE9C
00E6
1C1E
FE7D
3631
F9AA
06A9
F8B7
F7FC
0382
0115
FF87
FEA6
0786
FAEE
0036
FE2A
FF82
035F
FAC3
FCFC
FCB9
FA0F
FBA8
065A
0095
FD3B
008A
FFD6
0059
0238
CAFE
01AF
FEE6
FF35
FEF5
01E9
0AC2
0492
FD36
02C8
F7C0
F786
0485
FD72
FC2D
FC8D
C69A
02E6
07C6
03AF
01EE
02E0
FC9F
F979
0AC0
019A
0077
D090
0280
FA19
7001
0425
034D
FD8C
FC12
FFE5
028F
F161
FF09
FE75
07EB
011C
0418
ECDA
F7CA
0279
EE32
00A1
7001
13C0
04D1
F143
FE9F
00B2
0E18
FDA8
047A
188A
0335
0579
03E5
FE93
08FA
04BA
0A56
002C
008A
AF6E
041D
FA00
FFAB
F22C
FF5D
DF11
0088
FD7E
F609
08EF
0304
008F
052B
0779
FDE5
F9F7
FACF
01C4
F756
FA6D
FCA3
FFAB
0269
F6FA
0962
01F0
040C
010B
02E5
034E
07E3
028A
FAB5
03B1
0F61
0683
00FC
FD93
FD9F
01D0
024B
0509
096C
12EA
0296
0101
0311
FA3B
FDFF
0148
FA7A
FEF1
08C8
ED02
0378
00DE
0660
FEB2
08B3
F9B7
FF7E
05D1
02ED
FD2D
0E07
04C8
028B
0286
014F
FFD6
0017
0312
FB7F
F78E
0020
03D9
03B1
06AF
04BB
006D
ED44
01C6
107E
00FA
03A7
FFB9
007C
00CE
076E
EE23
034D
FCD8
188B
FEF3
F10E
FEE2
F26C
FE57
FE02
F8B2
FD40
002F
2747
F5B0
FA9F
0176
FFF9
094F
FADC
00B2
FDA9
FFE3
04DE
0528
06EB
02B5
FDCE
0502
0053
05FF
FDD2
E892
05F5
00B6
0644
E08A
FE5E
02C7
0D09
02B3
FFA0
0542
001A
F49B
0137
4676
0087
FFD6
003B
FCE5
0047
FFD7
FA5C
0226
FE99
F921
032D
FCD1
0398
7001
4AE4
0C97
00D2
1A73
03D9
FFB0
FDF3

