FE6C
00B2
19FA
FE47
32AC
F984
0660
F874
F739
0352
00D9
FF38
FD46
0739
FABA
FFE8
FDFF
FF3A
02FD
FA92
FCD1
FC6B
F9D7
FB6B
0606
0056
FCFB
0059
FF87
0015
01EC
C697
0175
FEB6
FED9
FEC5
01B5
0A3D
045E
FCED
0296
F78C
F74A
044A
FD21
FBF1
FC37
C2BD
029E
077B
0378
01BF
02AF
FC65
F93F
097B
0172
0034
CD30
024B
F9EC
7001
03E6
02FF
FD47
FBE4
FFAD
024F
F04D
FEB9
FE38
07B5
00D0
03C8
EBE0
F78B
022D
ED1F
0066
7001
1296
0493
F023
FE65
005D
0CA1
FD6B
0431
16E7
02FF
0538
038E
FE58
08C1
047A
0A1D
FFF0
0055
A998
03DC
F9C7
FF72
EED3
FF1E
DB7D
004A
FD56
F5D8
08BE
02C7
005D
04E8
0769
FD62
F9C5
FA91
0194
F6B4
FA2A
FC54
FF85
0236
F6C1
0930
01B3
03C3
00CE
02B2
0311
079D
0242
F952
035B
0E2B
0632
00CF
FD48
FD60
0194
0202
04DB
093A
120D
0234
00B3
02DA
F956
FDC1
00F9
FA11
FEA3
0893
EBEB
02FA
00A7
050B
FE71
0887
F982
FF20
059E
0297
FD03
0D1E
0459
0247
0252
00ED
FF80
FFDF
02DF
FB37
F754
FFF2
0389
0376
0677
048F
0002
EAE7
0191
0F8A
00B8
0358
FF80
004E
0088
0731
EBFB
0310
FC8E
173B
FEAC
F062
FE95
F0E3
FE01
FDBF
F86B
FD0F
FFF8
23E7
F581
FA78
0146
FFD9
082C
FAA6
007C
FD70
FFAB
04A4
04F5
06AD
0289
FD87
04D3
0014
05C4
FD88
E55E
05B5
008B
05FB
DDFD
FE30
029C
0C52
0277
FF47
0512
FFB3
F451
00FF
4012
004B
FF9C
000E
FCA0
0006
FF9C
FA1F
01D3
FE29
F8F5
02EA
FC8F
0362
7001
3EEC
0B8D
00A5
17AB
0392
FF85
FDC5

