FE18
0056
163B
FDEA
2C84
F941
05E1
F7FE
F5E3
02FE
0071
FEAE
FADE
06B2
FA5F
FF60
FDB3
FEBB
0251
FA3D
FC86
FBE2
F975
FAFE
0573
FFE8
FC8A
0004
FEFC
FF9E
0166
BEE2
0110
FE63
FE39
FE72
015A
0955
0403
FC6D
023F
F730
F6E1
03E3
FC94
FB88
FBA0
BBFB
0220
06F8
0319
016D
0258
FBFF
F8D9
0741
012B
FFC0
C748
01EF
F99E
6FA7
0377
0276
FCCE
FB93
FF4B
01DD
EE6B
FE2D
FDCE
0757
004B
033B
EA2A
F71C
01A8
EB3E
FFFF
6BA8
108D
0427
EE2A
FE01
FFC9
0A10
FCFF
03B1
140B
02A0
04C4
02F6
FDF1
085F
040B
09BA
FF87
FFF9
9F63
036B
F963
FF0F
E8F7
FEB0
D53B
FFDD
FD10
F582
0869
025D
0007
0474
074C
FC7E
F96C
FA23
013F
F598
F9B5
FBC9
FF42
01DB
F65C
08D9
0149
0343
0064
0257
02A6
0723
01C5
F6E4
02C5
0C0E
05A4
0080
FCC5
FCF0
012B
0182
0489
08E2
108B
0189
002A
027A
F7C5
FD55
0070
F959
FE1C
0836
EA03
021D
0047
02B5
FDFF
0838
F926
FE7B
0544
0201
FCB8
0B86
0395
01D0
01F6
0041
FEE9
FF7E
0285
FAB9
F6EE
FFA2
02FC
030E
0615
0442
FF48
E6C4
0134
0DDF
0045
02CE
FF1D
FFFE
000E
06C5
E835
02A4
FC0B
14F0
FE31
EF35
FE0E
EE33
FD6B
FD49
F7EE
FCBA
FF98
1E00
F530
FA33
00F3
FFA3
062F
FA47
001D
FD0C
FF48
043E
049C
0640
023B
FD0B
0480
FFA5
055D
FD06
DFC2
0544
0041
057A
D985
FDDE
0252
0B12
020D
FEAC
04BE
FEFE
F3CF
009E
34E4
FFE2
FF36
FFBF
FC27
FF94
FF34
F9B4
0141
FD66
F8A8
0274
FC1A
0303
7001
29FA
09BD
0056
12CC
0316
FF3B
FD72

