ECA4
FC0C
FEAB
EF7C
003D
FF6F
FC26
FD0A
FC38
FBAE
FE7C
0890
FCB6
FB23
04D9
FBA1
0417
0D8B
1A7A
FA8A
0FD9
09E7
E2C8
FA56
FFFA
0254
FCAB
AF9D
FE0D
0129
049E
FADC
FCD1
021A
0687
FC8B
0460
F9F5
FF7D
02C3
DCB8
7001
00A7
C8C2
EFCE
FCC7
1506
FA1B
F81D
0297
054A
FDEE
0160
EDE6
01A0
0BF5
F780
FFC7
F356
FDEF
FEA6
FB59
FD41
FD5D
FF5B
00EC
01D4
FB71
0275
F594
02BF
043B
0045
DFE9
F8F2
0094
1D5D
0080
0701
F5C2
F8EC
066B
044F
FBEE
034F
F6EB
043C
F7EF
03DF
F5CE
0064
00C3
F4F1
0ACC
0526
056D
2411
F4A1
01A9
00F7
0636
07EC
FF02
FF63
FBA7
12D0
000D
FCAC
04D7
FD3A
0528
FC1D
FF99
FC85
FE20
07EB
F9F3
FE39
FFF6
082D
04C6
0079
F849
029B
0408
06E8
14B5
FC16
F033
FEE1
0044
00A9
FCF8
FB3B
0520
FE3C
FE58
0418
02A3
0302
FF4F
F3F7
F800
F687
03B4
FD74
EC10
FC62
F92E
F4A9
FC34
D1ED
015F
F694
FE41
0C9F
FD90
FB64
0052
FD4F
FFB3
FB88
01F0
FFBC
FFCD
FEF9
C664
FCE3
002F
FEB5
0520
0096
144C
01E5
FFDD
00A3
03B0
0272
FF01
0195
FBBC
0196
F131
06C3
FFAE
FA74
FFC3
1644
FF60
17AA
0316
068C
FDB1
192A
0072
0839
0025
FF68
FE46
007C
FD70
619D
015B
FA62
021F
00AE
F819
F2CC
FF8C
FE4C
02D8
FDB3
FE16
FC1D
0242
FBDB
FB00
02B5
016D
02F9
FF62
F819
012F
FE0D
FFCF
FD9A
1010
FD0F
AEA5
FC58
F8FF
0255
0F5B
0690
F606
0294
011A
7001
FCC7
FD3D
FE8B
EA0B
0CB8
053C
FDCC
FE51
FFF8
FB65
F917
FE95
1C9F
F9B8
0138
FC4A
0537
0A18

