EDD3
FC3E
FEF6
F1A5
0091
FF99
FC6D
FD45
FC8F
FBD4
FEB5
08BC
FCE8
FB52
053A
FBD0
0451
0F90
1BC8
FACD
1159
0A20
E442
FA92
004E
0295
FD2F
B76B
FE3C
015E
04E0
FB22
FD18
025D
075B
FCCC
048C
FA2A
FFC7
030F
E54E
7001
00DE
CE83
F111
FCF9
160D
FA65
F85B
02C7
0588
FE1E
01A1
EE82
01C5
0D59
F7B8
0001
F49C
FE19
FED1
FB8D
FD87
FD8F
FFA2
011F
020E
FB9F
02CF
F5D4
0300
0473
007E
E2AE
F924
00C4
1FC7
00D7
0738
F6D2
F936
06B9
0482
FC20
039A
F727
0485
F82F
042C
F60C
009B
00F1
F590
0B4F
0566
059E
26F5
F5FE
01F2
013D
0660
0817
FF4F
FF9B
FC01
1373
005D
FCD6
0508
FD93
056C
FC45
FFD6
FCE3
FE5C
0820
FA25
FE69
0010
08C1
051A
00AC
F8F1
02C8
046B
0733
15D8
FC54
F0E9
FF16
0074
0104
FD3B
FB7E
0539
FE7E
FEA2
0451
02E5
033E
FFB0
F53E
F968
F6CA
03E6
FDA1
ED58
FC9B
F968
F57D
FC65
D706
0192
F6C5
FE88
0D73
FDD9
FB9A
0087
FDA4
FFF3
FBC3
0224
FFFD
FFFB
FF3A
CBFF
FD28
006C
FEEC
0550
00BF
161F
023A
0143
00C8
03D8
02CB
FF59
01DB
FC0B
01EE
F2C8
08EB
0002
FAFA
000F
1714
FFC2
18EC
0367
06BA
FDE8
1D25
009E
0878
006D
FF8C
FE82
00B9
FDA0
6CCF
0196
FAB1
024F
00E2
F84D
F319
FFD3
FE96
030D
FDEF
FE4D
FC6D
0272
FC21
FB42
0303
019E
032E
FF93
F862
0163
FE39
0007
FDBC
10DA
FD82
B5FE
FC9E
F938
02A1
1060
06D3
F712
02E0
0153
7001
FD12
FD79
FEBC
EB46
0DA2
0579
FDFA
FE74
003E
FB91
F95F
FEDB
1E38
F9F7
0191
FC92
0575
0A55

