EC0D
FBF3
FE86
EE68
0013
FF5A
FC02
FCEC
FC0C
FB9B
FE5F
087B
FC9C
FB0C
04A9
FB8A
03FA
0C89
19D4
FA69
0F19
09CA
E20B
FA38
FFD0
0233
FC68
ABB5
FDF5
010F
047D
FAB9
FCAD
01F8
061C
FC6B
044A
F9DB
FF58
029D
D86D
7001
008C
C5E2
EF2C
FCAE
1482
F9F6
F7FE
027F
052B
FDD6
0140
ED98
018E
0B43
F764
FFAA
F2B4
FDDB
FE90
FB40
FD1F
FD44
FF38
00D2
01B7
FB5A
0248
F574
029E
041F
0029
DE86
F8D9
007C
1C28
0054
06E6
F53B
F8C7
0645
0435
FBD5
0329
F6CE
0417
F7CF
03B9
F5AF
0048
00AD
F4A1
0A8A
0506
0554
22A0
F3F3
0185
00D4
0621
07D6
FEDC
FF47
FB7A
127E
FFE5
FC97
04BE
FD0E
0505
FC09
FF7B
FC56
FE02
07D1
F9DB
FE21
FFE8
07E3
049C
005F
F7F6
0285
03D6
06C3
1424
FBF8
EFD9
FEC6
002C
007B
FCD6
FB19
0514
FE1B
FE33
03FB
0281
02E4
FF1F
F353
F74C
F666
039A
FD5D
EB6D
FC45
F910
F43F
FC1C
CF60
0145
F67B
FE1D
0C35
FD6B
FB48
0037
FD24
FF93
FB6B
01D5
FF9B
FFB6
FED9
C396
FCC0
0011
FE9A
0508
0081
1363
01BA
FF2A
0091
039C
0246
FED5
0172
FB94
016B
F066
05AE
FF84
FA31
FF9C
15DC
FF2F
1709
02ED
0674
FD96
172D
005C
081A
0001
FF56
FE28
005E
FD57
5C04
013E
FA3A
0206
0094
F7FF
F2A5
FF69
FE27
02BE
FD96
FDFA
FBF4
022A
FBB8
FADE
028E
0155
02DF
FF49
F7F4
0115
FDF8
FFB3
FD8A
0FAB
FCD5
AAF8
FC36
F8E2
022E
0ED8
066F
F580
026E
00FE
7001
FCA1
FD1F
FE73
E96D
0C43
051D
FDB5
FE3F
FFD6
FB4F
F8F3
FE71
1BD2
F998
010C
FC25
0518
09F9

