ECF0
FC18
FEBE
F007
0052
FF7A
FC38
FD18
FC4E
FBB8
FE8A
089B
FCC2
FB2F
04F1
FBAD
0426
0E0D
1ACE
FA9B
1039
09F5
E326
FA65
000F
0264
FCCC
B190
FE19
0137
04AE
FAED
FCE3
022A
06BC
FC9C
046B
FA03
FF90
02D6
DEDD
7001
00B5
CA32
F01E
FCD4
1548
FA2D
F82D
02A3
055A
FDFA
0171
EE0D
01A9
0C4E
F78E
FFD6
F3A8
FDFA
FEB1
FB66
FD53
FD69
FF6D
00F9
01E2
FB7D
028C
F5A4
02CF
0449
0054
E09A
F8FE
00A0
1DF7
0096
070F
F606
F8FE
067F
045B
FBFA
0362
F6FA
044E
F7FF
03F2
F5DD
0072
00CF
F519
0AED
0536
0579
24CA
F4F9
01BB
0108
0640
07F7
FF15
FF71
FBBD
12F8
0021
FCB6
04E3
FD51
0539
FC27
FFA8
FC9C
FE2F
07F9
FA00
FE45
FFFC
0852
04DB
0086
F873
02A6
0421
06FB
14FE
FC26
F061
FEEE
0050
00BF
FD09
FB4C
0526
FE4D
FE6B
0426
02B3
0311
FF67
F449
F85A
F698
03C0
FD7F
EC62
FC70
F93C
F4DE
FC40
D333
016C
F6A0
FE53
0CD4
FDA2
FB71
005F
FD64
FFC3
FB97
01FD
FFCC
FFD9
FF09
C7CA
FCF4
003E
FEC3
052C
00A0
14C1
01FA
0037
00AC
03BA
0288
FF17
01A6
FBD0
01AC
F197
074D
FFC3
FA95
FFD6
1678
FF78
17FB
032A
0697
FDBF
1A29
007D
0849
0037
FF71
FE55
008B
FD7C
6469
016A
FA76
022B
00BB
F826
F2DF
FF9E
FE5E
02E5
FDC2
FE24
FC31
024E
FBEC
FB10
02C9
017A
0307
FF6E
F82B
013C
FE18
FFDD
FDA3
1042
FD2B
B07B
FC6A
F90D
0268
0F9C
06A1
F649
02A7
0128
7001
FCDA
FD4C
FE98
EA59
0CF3
054B
FDD8
FE5A
000A
FB70
F929
FEA6
1D05
F9C7
014F
FC5C
0547
0A27

