EBC1
FBE6
FE73
EDDE
FFFD
FF4F
FBF1
FCDD
FBF6
FB92
FE51
0870
FC90
FB01
0490
FB7E
03EC
0C08
1980
FA58
0EB9
09BC
E1AD
FA29
FFBB
0223
FC47
A9C2
FDE9
0102
046C
FAA7
FC9B
01E7
05E7
FC5B
043F
F9CE
FF46
0289
D647
7001
007F
C472
EEDB
FCA1
1441
F9E3
F7EF
0273
051C
FDCA
0130
ED71
0185
0AEA
F755
FF9C
F262
FDD0
FE86
FB33
FD0D
FD37
FF26
00C5
01A9
FB4F
0232
F564
028D
0411
001B
DDD5
F8CC
0070
1B8E
003F
06D8
F4F7
F8B4
0631
0428
FBC9
0317
F6BF
0405
F7C0
03A5
F59F
003A
00A1
F479
0A69
04F6
0548
21E7
F39C
0173
00C2
0617
07CC
FEC8
FF39
FB64
1255
FFD1
FC8C
04B1
FCF8
04F4
FBFF
FF6C
FC3E
FDF3
07C3
F9CE
FE15
FFE2
07BE
0487
0052
F7CC
0279
03BD
06B0
13DB
FBE8
EFAB
FEB9
0020
0064
FCC5
FB08
050E
FE0B
FE21
03ED
0271
02D4
FF07
F301
F6F2
F655
038E
FD52
EB1B
FC36
F902
F40A
FC10
CE1A
0138
F66F
FE0C
0C00
FD59
FB3B
002A
FD0F
FF83
FB5C
01C8
FF8B
FFAB
FEC8
C22F
FCAF
0002
FE8D
04FC
0077
12EE
01A5
FED1
0088
0392
022F
FEBF
0160
FB80
0155
F001
0524
FF6F
FA10
FF89
15A8
FF17
16B9
02D9
0669
FD88
162E
0051
080A
FFEF
FF4D
FE19
004E
FD4B
5937
0130
FA26
01FA
0087
F7F2
F292
FF57
FE14
02B0
FD87
FDEC
FBE0
021E
FBA6
FACD
027B
0149
02D2
FF3D
F7E2
0108
FDED
FFA5
FD81
0F78
FCB8
A922
FC24
F8D4
021B
0E96
065E
F53D
025A
00EF
7001
FC8F
FD10
FE67
E91E
0C09
050E
FDA9
FE37
FFC4
FB44
F8E2
FE60
1B6C
F988
00F6
FC13
0508
09EA

