ED87
FC32
FEE3
F11B
007C
FF8F
FC5C
FD36
FC79
FBCB
FEA7
08B1
FCDB
FB46
0522
FBC4
0443
0F0F
1B75
FABC
10F9
0A12
E3E3
FA83
0039
0285
FD0E
B578
FE30
0151
04CF
FB10
FD06
024C
0726
FCBC
0481
FA1D
FFB4
02FC
E328
7001
00D0
CD12
F0C0
FCED
15CB
FA52
F84C
02BB
0578
FE12
0191
EE5B
01BC
0D00
F7AA
FFF3
F44A
FE0E
FEC7
FB80
FD75
FD82
FF91
0113
01FF
FB94
02B9
F5C4
02F0
0465
0070
E1FD
F918
00B8
1F2C
00C1
072A
F68E
F923
06A6
0475
FC13
0387
F718
0472
F81F
0419
F5FC
008D
00E5
F569
0B2E
0556
0592
263C
F5A7
01E0
012B
0655
080C
FF3C
FF8D
FBEA
134A
0049
FCCB
04FC
FD7D
055B
FC3B
FFC6
FCCB
FE4D
0813
FA18
FE5D
000A
089C
0505
009F
F8C7
02BD
0452
0720
1590
FC44
F0BB
FF09
0068
00ED
FD2B
FB6D
0533
FE6E
FE90
0442
02D4
032F
FF97
F4EC
F90E
F6B9
03DA
FD96
ED06
FC8D
F95A
F548
FC59
D5C0
0185
F6B8
FE76
0D3E
FDC6
FB8C
007A
FD8F
FFE3
FBB5
0217
FFED
FFF0
FF29
CA98
FD16
005D
FEDE
0544
00B4
15AB
0225
00E9
00BE
03CE
02B5
FF43
01CA
FBF7
01D8
F262
0861
FFED
FAD8
FFFC
16E0
FFA9
189C
0353
06AE
FDDA
1C26
0093
0868
005B
FF83
FE73
00AA
FD94
6A02
0187
FA9D
0243
00D5
F840
F306
FFC1
FE83
0300
FDE0
FE3F
FC59
0266
FC0F
FB32
02F0
0192
0321
FF87
F850
0156
FE2E
FFF9
FDB4
10A7
FD65
B428
FC8D
F92A
028E
101F
06C2
F6CF
02CD
0144
7001
FCFF
FD6A
FEB0
EAF7
0D68
0569
FDEF
FE6B
002C
FB86
F94D
FEC9
1DD2
F9E7
017B
FC80
0566
0A45

