FE84
00CC
1B0C
FE62
346F
F997
0685
F895
F79A
036A
00F7
FF5F
FDF6
0760
FAD4
000F
FE15
FF5E
032E
FAAB
FCE6
FC92
F9F3
FB8A
0630
0076
FD1B
0071
FFAE
0037
0212
C8CA
0192
FECE
FF07
FEDD
01CF
0A80
0478
FD11
02AF
F7A6
F768
0468
FD4A
FC0F
FC62
C4AB
02C2
07A1
0394
01D6
02C8
FC82
F95C
0A1D
0186
0056
CEE0
0265
FA03
7001
0406
0326
FD69
FBFB
FFC9
026F
F0D7
FEE1
FE56
07D0
00F6
03F0
EC5D
F7AB
0253
EDA8
0083
7001
132B
04B2
F0B3
FE82
0088
0D5C
FD89
0455
17B9
031A
0559
03B9
FE76
08DE
049A
0A3A
000E
0070
AC83
03FC
F9E3
FF8E
F080
FF3E
DD47
0069
FD6A
F5F1
08D6
02E6
0076
050A
0771
FDA4
F9DE
FAB0
01AC
F705
FA4C
FC7C
FF98
0250
F6DE
0949
01D2
03E8
00ED
02CB
032F
07C0
0266
FA03
0386
0EC6
065B
00E5
FD6D
FD7F
01B2
0227
04F2
0953
127C
0265
00DA
02F6
F9C9
FDE0
0121
FA45
FECA
08AE
EC76
0339
00C2
05B5
FE92
089D
F99C
FF4F
05B7
02C2
FD18
0D93
0491
0269
026C
011E
FFAB
FFFB
02F9
FB5B
F771
0009
03B1
0393
0693
04A5
0037
EC15
01AB
1004
00D9
0380
FF9D
0065
00AB
074F
ED0F
032F
FCB3
17E3
FED0
F0B8
FEBB
F1A8
FE2C
FDE0
F88E
FD27
0014
2597
F599
FA8C
015E
FFE9
08BE
FAC1
0097
FD8C
FFC7
04C1
050F
06CC
029F
FDAB
04EA
0034
05E2
FDAD
E6F8
05D5
00A1
061F
DF43
FE47
02B2
0CAE
0295
FF73
052A
FFE7
F476
011B
4344
0069
FFB9
0025
FCC2
0027
FFB9
FA3E
01FD
FE61
F90B
030C
FCB0
037D
7001
44E8
0C12
00BC
190F
03B5
FF9B
FDDC

