EA46
FBA7
FE16
EB2B
FF94
FF1A
FB98
FC93
FB89
FB62
FE0A
0839
FC51
FAC7
0417
FB43
03A3
0981
17E0
FA05
0CD9
0974
DFD4
F9DE
FF52
01D1
FBA2
A000
FDAF
00C0
0419
FA4F
FC43
0193
04DE
FC0A
0408
F98C
FEEA
022A
CB8C
7001
003B
BD41
ED46
FC63
12F8
F987
F7A1
0237
04CF
FD8E
00DF
ECAF
0158
092D
F70F
FF53
F0CC
FD9C
FE50
FAF3
FCB7
FCF9
FECD
0084
0161
FB15
01C1
F515
023B
03CC
FFD4
DA5E
F88E
0034
188A
FFD2
0694
F3A4
F858
05D0
03E8
FB8B
02B9
F675
03AA
F770
0345
F552
FFF5
0069
F3B1
09C4
04A6
050B
1E4A
F1E8
0118
006B
05E2
0796
FE68
FEF3
FAF3
118A
FF6C
FC58
0473
FC8A
049E
FBCD
FF20
FBC9
FDA9
0781
F991
FDDA
FFC0
0705
041F
0013
F6FB
0241
0341
0653
126F
FB9C
EEC8
FE76
FFE3
FFF2
FC71
FAB4
04EF
FDB9
FDC4
03A5
021E
0289
FE8E
F168
F52F
F602
034E
FD19
E982
FBEE
F8B8
F301
FBD3
C7BB
00F8
F632
FDB3
0AF7
FCFE
FAF7
FFE7
FCA4
FF33
FB12
0187
FF39
FF71
FE78
BB2D
FC59
FFB7
FE48
04BF
0044
10A6
013A
FD12
005B
0360
01C0
FE51
0108
FB1C
00E7
EE05
0271
FF06
F969
FF2A
14A3
FE9D
1527
0274
062F
FD44
1134
001A
07BB
FF95
FF1F
FDCE
0002
FD0F
4B39
00E7
F9C3
01BD
0046
F7B1
F231
FEFF
FDB7
026E
FD3D
FDA7
FB7B
01E2
FB4F
FA7A
0219
010C
0291
FF00
F786
00C7
FDB7
FF5F
FD57
0E7C
FC29
9FF3
FBCD
F88C
01BB
0D4F
060B
F3EF
01FB
00A8
7001
FC31
FCC5
FE2A
E795
0AE4
04C1
FD6F
FE0B
FF6D
FB0D
F888
FE08
196D
F939
0086
FBB8
04BB
099D

