FE3C
007D
17D6
FE12
2F27
F95D
0618
F831
F676
0322
009E
FEE9
FBE6
06EC
FA86
FF9B
FDD4
FEF1
029A
FA62
FCA6
FC1D
F99F
FB2D
05B2
0017
FCBA
0029
FF38
FFD1
019F
C230
013C
FE87
FE7E
FE96
0181
09B8
042A
FCA3
0265
F758
F70E
040F
FCD1
FBB5
FBE1
BEE1
0256
0730
0342
0190
027D
FC2B
F905
0835
014A
FFF2
C9D0
0216
F9C0
7001
03A7
02B0
FD02
FBB5
FF75
020E
EF3A
FE69
FDFC
077F
0084
0378
EAE5
F74B
01E1
EC0C
002B
7001
116C
0456
EF02
FE2C
0009
0B29
FD2D
03E8
1545
02C9
04F6
0337
FE1D
0889
043A
09E4
FFB4
0020
A3C3
039C
F98E
FF39
EB7A
FEDF
D7EA
000B
FD2E
F5A7
088D
028B
002C
04A6
0758
FCE0
F992
FA52
0163
F612
F9E7
FC04
FF5F
0202
F687
08FE
0176
037A
0091
027E
02D4
0757
01FB
F7EF
0305
0CF6
05E1
00A2
FCFD
FD20
0158
01B9
04AC
0907
1130
01D2
0065
02A4
F871
FD83
00AB
F9A8
FE56
085E
EAD4
027C
0070
03B5
FE30
085A
F94D
FEC1
056B
0241
FCD8
0C35
03E9
0203
021D
008B
FF2A
FFA8
02AB
FAEF
F719
FFC4
0338
033A
063F
0463
FF98
E88A
015C
0E96
0077
0309
FF47
0020
0042
06F3
E9D3
02D2
FC43
15EC
FE66
EFB6
FE48
EF5A
FDAB
FD7C
F824
FCDF
FFC1
2088
F553
FA50
0116
FFBA
0709
FA6F
0046
FD37
FF72
046A
04C2
066E
025C
FD40
04A3
FFD5
0589
FD3E
E22A
0574
0061
05B1
DB6F
FE01
0272
0B9B
023A
FEEF
04E2
FF4B
F407
00C8
39AF
000F
FF62
FFE1
FC5B
FFC5
FF60
F9E2
0180
FDBA
F8C9
02A7
FC4C
032C
7001
32F4
0A84
0078
14E2
034B
FF5B
FD96

