EA92
FBB4
FE28
EBB5
FFA9
FF25
FBA9
FCA1
FB9F
FB6B
FE18
0844
FC5E
FAD2
042F
FB4F
03B2
0A03
1833
FA16
0D39
0983
E033
F9ED
FF67
01E1
FBC3
A1F3
FDBA
00CD
042A
FA61
FC54
01A4
0513
FC1A
0413
F999
FEFC
023D
CDB1
7001
0049
BEB1
ED97
FC6F
1339
F99A
F7B1
0243
04DE
FD9A
00EF
ECD6
0161
0986
F71D
FF62
F11D
FDA7
FE5A
FAFF
FCC8
FD06
FEDF
0091
016F
FB21
01D8
F524
024C
03DA
FFE2
DB0F
F89A
0040
1925
FFE8
06A1
F3E8
F86A
05E4
03F5
FB97
02CC
F683
03BC
F780
0359
F561
0003
0074
F3D9
09E5
04B6
0517
1F03
F23F
012A
007C
05ED
07A1
FE7B
FF01
FB0A
11B2
FF80
FC62
0480
FCA0
04B0
FBD7
FF2F
FBE0
FDB7
078E
F99D
FDE6
FFC7
072A
0434
001F
F725
024C
035A
0665
12B8
FBAB
EEF6
FE83
FFEF
0009
FC82
FAC5
04F5
FDC9
FDD7
03B4
022E
0298
FEA6
F1BA
F58A
F613
035B
FD24
E9D3
FBFD
F8C7
F336
FBDF
C901
0105
F63E
FDC5
0B2C
FD10
FB04
FFF4
FCBA
FF43
FB21
0194
FF4A
FF7D
FE88
BC94
FC6A
FFC6
FE56
04CB
004F
111B
014F
FD6B
0064
036A
01D6
FE67
011A
FB30
00FD
EE6A
02FB
FF1B
F98A
FF3D
14D7
FEB5
1577
0288
063B
FD51
1233
0025
07CB
FFA7
FF28
FDDD
0011
FD1B
4E05
00F5
F9D7
01C9
0053
F7BE
F244
FF11
FDCA
027C
FD4C
FDB5
FB8F
01EE
FB60
FA8A
022D
0118
029E
FF0C
F799
00D4
FDC1
FF6D
FD60
0EAE
FC45
A1C9
FBDE
F89A
01CE
0D91
061B
F432
020E
00B7
7001
FC43
FCD4
FE36
E7E3
0B1F
04D1
FD7B
FE13
FF7F
FB18
F89A
FE1A
19D3
F949
009D
FBCB
04CA
09AC

