EB29
FBCD
FE4E
ECCA
FFD3
FF3A
FBCD
FCBF
FBCB
FB7F
FE35
085A
FC77
FAEA
0460
FB67
03CF
0B05
18DA
FA37
0DF9
099F
E0F0
FA0B
FF91
0202
FC05
A5DB
FDD2
00E7
044B
FA84
FC78
01C5
057D
FC3A
0429
F9B4
FF21
0263
D1FC
7001
0064
C191
EE39
FC88
13BD
F9BE
F7D0
025B
04FD
FDB2
0110
ED24
0173
0A38
F739
FF7F
F1C0
FDBB
FE70
FB19
FCEB
FD1F
FF02
00AB
018C
FB38
0205
F544
026D
03F5
FFFF
DC72
F8B3
0058
1A59
0013
06BD
F46F
F88F
060B
040F
FBB0
02F1
F6A1
03E0
F7A0
037F
F580
001F
008B
F429
0A27
04D6
0530
2075
F2EE
014F
009F
0602
07B6
FEA2
FF1D
FB37
1204
FFA9
FC77
0499
FCCC
04D2
FBEB
FF4D
FC0F
FDD5
07A9
F9B6
FDFD
FFD4
0774
045E
0039
F778
0263
038C
068B
1349
FBCA
EF50
FE9E
0007
0037
FCA3
FAE7
0501
FDEA
FDFC
03D0
0250
02B6
FED6
F25E
F63E
F634
0374
FD3B
EA77
FC1A
F8E4
F3A0
FBF7
CB8E
011E
F656
FDE8
0B96
FD35
FB1F
000F
FCE4
FF63
FB3F
01AE
FF6A
FF94
FEA8
BF61
FC8D
FFE4
FE71
04E4
0063
1204
017A
FE1E
0076
037E
0203
FE93
013D
FB58
0129
EF35
0410
FF45
F9CD
FF63
1540
FEE6
1618
02B0
0652
FD6D
1431
003B
07EA
FFCB
FF3A
FDFB
0030
FD33
539E
0112
F9FF
01E1
006D
F7D8
F26B
FF34
FDEF
0296
FD69
FDD1
FBB8
0206
FB83
FAAC
0254
0131
02B8
FF25
F7BD
00EE
FDD7
FF89
FD70
0F13
FC7F
A576
FC01
F8B7
01F4
0E13
063D
F4B8
0234
00D3
7001
FC69
FCF2
FE4F
E881
0B94
04EF
FD92
FE25
FFA2
FB2E
F8BE
FE3D
1AA0
F969
00C9
FBEF
04E9
09CB

