FE78
00BF
1A83
FE54
338E
F98D
0673
F885
F76A
035E
00E8
FF4C
FD9E
074D
FAC7
FFFC
FE0A
FF4C
0315
FA9F
FCDC
FC7F
F9E5
FB7A
061B
0066
FD0B
0065
FF9B
0026
01FF
C7B0
0184
FEC2
FEF0
FED1
01C2
0A5E
046B
FCFF
02A3
F799
F759
0459
FD36
FC00
FC4D
C3B4
02B0
078E
0386
01CB
02BB
FC74
F94E
09CC
017C
0045
CE08
0258
F9F8
7001
03F6
0312
FD58
FBEF
FFBB
025F
F092
FECD
FE47
07C3
00E3
03DC
EC1E
F79B
0240
ED64
0075
7001
12E0
04A3
F06B
FE73
0073
0CFF
FD7A
0443
1750
030C
0548
03A4
FE67
08D0
048A
0A2B
FFFF
0063
AB0E
03EC
F9D5
FF80
EFA9
FF2E
DC62
0059
FD60
F5E4
08CA
02D6
006A
04F9
076D
FD83
F9D1
FAA0
01A0
F6DC
FA3B
FC68
FF8F
0243
F6CF
093C
01C3
03D5
00DE
02BF
0320
07AF
0254
F9AB
0370
0E79
0646
00DA
FD5B
FD70
01A3
0214
04E6
0946
1244
024D
00C7
02E8
F98F
FDD1
010D
FA2B
FEB7
08A0
EC31
0319
00B5
0560
FE81
0892
F98F
FF37
05AA
02AC
FD0D
0D58
0475
0258
025F
0106
FF95
FFED
02EC
FB49
F762
FFFE
039D
0384
0685
049A
001D
EB7E
019E
0FC7
00C9
036C
FF8E
0059
009A
0740
EC85
031F
FCA0
178F
FEBE
F08D
FEA8
F145
FE17
FDCF
F87D
FD1B
0006
24BF
F58D
FA82
0152
FFE1
0875
FAB3
008A
FD7E
FFB9
04B3
0502
06BD
0294
FD99
04DF
0024
05D3
FD9A
E62B
05C5
0096
060D
DEA0
FE3B
02A7
0C80
0286
FF5D
051E
FFCD
F463
010D
41AB
005A
FFAA
001A
FCB1
0016
FFAA
FA2E
01E8
FE45
F900
02FB
FCA0
0370
7001
41EA
0BD0
00B0
185D
03A4
FF90
FDD0

