03C16
00AAF
3CF9D
00DE9
3F0FC
3FE04
00550
001AD
3F7EF
004B3
3ECA6
015FE
3FA59
03313
3FB07
00FF8
3EB88
3FA4D
002CF
3FF2C
3E80F
3F49A
004B9
3F057
3F89D
3E404
009F7
3E31C
3EDF3
3FE26
00DE5
384BD
00B70
02C3C
0160A
3FBB5
0186B
3F45D
00B83
3D1D8
3F47B
3A7ED
3EC25
3FF1B
00904
3E1E2
01344
3FE80
3ECAB
3ED44
3F7FE
3C490
3FC11
003DB
3FD5E
3FDE2
3C97B
3C6C8
010C9
0056B
3F48E
01293
007C9
01A84
3DBFA
3FC45
01E2C
3DD0C
3FFA5
00FBC
3EBB1
3F505
01CF5
00738
3FB8C
3F611
021B9
000A4
00998
01916
02914
012D7
3F9EB
0004A
030C4
02153
3FAA0
3CA99
3FE00
0099D
3D6C4
01335
00069
00C5F
00C0F
3F014
0032B
3F7E6
00DC3
0199F
3F9EB
00A9B
3FB64
3F7EB
3EF7B
0069F
021AF
00944
3E95A
0057D
00368
3FF98
3FDCB
3D39A
3FC95
3C3F9
3FD66
3FD79
3F19A
01D62
3E615
3F7ED
005BE
0276B
00951
3F56C
00115
013B7
013A1
3FD92
3E542
3FD2F
3F2DF
3F20B
3E4FD
3F889
00F2A
0102E
00307
33C9E
00693
00586
3E332
3E61F
08D57
20800
3F46A
3F602
00DD7
3F651
0001E
011C9
3F19C
00992
3C0F3
00C4F
02928
0178E
0046A
0B372
3EE5F
00A20
3ED42
002EF
01DDE
3EE62
01A91
3FA81
00B44
3FB30
3F8E0
00506
3ECE3
3FC63
0102E
0053C
03B89
3ED84
3DEB1
00173
3ED86
004DF
3F228
3F9F3
00501
3AFFF
3F190
004FB
3FCCF
0076A
3F561
001D9
3F780
3C9F7
008F9
3F546
00178
3F337
3DF0C
3FE76
3969B
017A9
3E8CA
3F4A4
3EFE5
00E01
007A4
00DF7
012ED
005C5
3F955
00679
3EDB1
271C8
3F15F
3EAE2
0154C
00CF5
00464
024AF
3F3B8
3FB0A
3F2DF
3DFC7
3FE89
3F539
3780B
3F83F
3FC87
3FC9D
067D0
3F33C
00EAF
3A5DA
020B3
01E71
01A06
3F0B9
002F3
003FF
3EE9B
3F6E4
3F119
003DF
3F1A3
01DCF
0017A
013AC
0109D
00BE1
3D453
3790C
3FAE8
01E7D
00770
008CD

