00EBD
00236
016F9
010DE
1FFB5
1F12A
1E3D6
1AB8C
1FC6F
1DA06
00004
1FF06
1C632
1FE8B
005DC
0239F
1DFF6
1F58A
1F69C
01A8B
000BF
1CD4F
0163A
1F07C
01A32
1F87C
00A06
0008C
1C919
01F0D
02882
014B6
1FD92
1F969
1603C
1E696
1F658
013A3
00CE6
0E04F
003CF
1FB07
00582
005B4
001C6
1FAAC
00643
00242
1F5FC
1FF6B
1F540
00F07
0077C
1EC18
02922
1E3CD
1F94F
1F3C6
02000
00493
004D9
01442
19C32
0096B

