03B0F
1F041
1F761
1F9FD
1EABA
1E699
1F808
1EDB0
00A7A
01731
1F3E7
0089B
1EB03
1FB6C
1C807
1F418
1D7D6
1FF0B
01B8C
01FD6
027F0
02D1A
1FD93
1FFBE
0027D
1F99E
1EF1A
1E89C
1FD6D
1FCAE
1E47B
00814
012E3
1F28A
00EBE
005E3
0867D
00D95
1F14A
0278C
1EDAC
01D84
00ADF
1EC9A
03A2B
1ED3D
0045F
1FC34
1F70E
000C1
19130
1EF9E
01254
1ECD5
00FC4
1F376
1FDEA
1FBE3
00E63
01957
1EE0A
1F15F
01030
1FA84

