1DB8C
0075E
1EDF0
1FD06
004C5
005AE
00AD2
00EBF
016FB
00CC5
1ED95
01846
1F97D
1FF51
011E8
0098F
02BE9
1EE1E
1FDD6
00AE0
1FBEE
1FB91
1EB39
00D66
00F12
1FD14
0254F
00598
1FD78
1F29E
006A4
001EE
1E718
1E6DC
004E4
1E5A0
1F55E
00275
1CF30
0058B
1EF79
01CCC
1FA2A
010E0
1DFD1
1F3B1
1F28C
1F6E3
00A13
1E012
1E971
008EE
1FA34
1F326
00524
1F5E7
1A6B0
08C9E
02350
00405
1F1E9
00344
1DCAB
0081F

