FA41
042F
F7B8
FE64
0077
015F
08D5
0098
F91C
039B
FFB2
346B
092F
F8F5
F6F0
0409
F897
FCD6
0309
057D
FF51
0041
FD71
FADF
06E2
0006
05A5
FBA9
FE63
015C
FDF1
FC67
06CF
FC5C
01A9
0905
016A
0399
FBA7
F548
FAE5
0943
A15F
01AC
ED12
FE50
FEC6
0697
FAF0
DF1C
F563
01BF
FE5B
B9A9
E619
0351
F739
FEF1
00D9
0287
0385
FFB7
F70C
024D
043B
05B2
5D93
0143
0589
FBBD
FC99
0152
F67F
00A8
A633
FFE2
FC81
FFE0
F570
0176
03AD
07AC
0096
00F8
9700
0ACE
00BB
003A
FD2C
225A
FF8E
FBFA
FF4D
FC9D
01C2
FFAA
FF39
098C
0101
FE37
0429
FFD0
FAC3
FC05
001A
0434
E300
014C
02D6
096F
0123
EDFF
03C3
FF6F
F83C
03FA
FF9E
00C5
FBBC
010E
007A
F515
174C
FADB
FF23
075F
0B55
054B

