FE9C
FEF3
FD2A
0EAE
FF32
01F6
F860
06D0
FFE4
0D2A
0BF7
0361
FF0B
FCE8
050E
FDFE
0A72
03A0
FF13
0969
FCF1
FC58
F9E2
F4FF
F8BF
03F5
9700
0108
FCFA
F30F
058D
FD07
40A4
FA63
060C
11A0
FA15
FC52
05EB
0055
FD17
03D6
0338
FDBF
048E
0828
FCA8
FC72
0B62
F738
0821
043E
FD3B
F19E
0BBC
05D9
045D
FEB1
F4BE
0054
FBA4
001B
0531
0423
0642
001A
FAFE
FD8B
FF5C
FB21
050E
0146
0913
F954
0600
0697
022C
016E
F6D7
FCE2
F8DD
0595
021B
0070
0011
FCFB
FC84
FCF7
FCD2
FE78
F64C
0CD8
F5B8
FDD6
0CF2
0BE2
FCBF
FC7F
0069
0964
0942
02BB
FBF3
F3FB
028E
0340
0238
0015
0173
0094
0017
0A73
022B
FF48
0311
0609
FFA9
06FF
03C4
F6BB
FB91
054B
02DA
0106
0344
FADE
0121
001E

