01D9
778A
02A0
075A
064B
05F2
0435
7AB1
7F53
0105
08DB
0993
552A
46A3
01DA
018A
7F64
2D9C
7943
0997
7BA8
77E3
7D6A
5B0C
002E
0442
0075
7D9C
7B00
7CEA
7C88
7B69
0310
00DA
0312
7F90
0BCA
0778
7F22
0088
7E98
0044
0301
7F5A
029F
025E
0036
7FCF
7B88
7C19
74B1
7870
01AB
0510
76EC
04BE
01D9
0607
78AE
1234
7A60
7D95
0496
7C79
0BFE
0422
015D
0B1D
181D
04B7
7E7A
7600
6A7A
7A6D
0283
04E2
7B26
16F0
6F5F
7E8B
7957
7EF5
063D
0113
67F9
7BED
0457
03F0
0227
0DFE
7DE7
0166
77CC
035D
084F
0700
7EAD
74EB
7A43
7CE8
0374
03FE
0347
772C
7DA5
7CEF
7F61
0525
7EB8
73E0
7CCD
7C13
7DFB
7C5D
7E36
787F
70C8
0127
7BE3
0186
7BC2
7DF0
7B7A
7F22
0BA4
7BF5
7E66
0235

