FA5F
0455
F7E5
FE7A
0096
0181
09AE
00B8
F93E
03BA
FFC7
4575
09AB
FAB9
F788
0493
F91B
FCEF
037D
059B
FF9D
0060
FE41
FB0D
0754
002A
05C9
FBD9
FE8C
0180
FE11
FC86
06F8
FC77
01CC
0B41
0191
03C7
FBC4
F72D
FB1F
09B9
A999
01CE
F246
FE79
FEE8
06BA
FB4E
E77F
F5E5
01ED
FE74
BE67
EFF5
036C
F7A0
FF0F
00FE
02A7
03AB
FFD1
F93A
026B
0453
0622
647B
017D
05C0
FBEC
FCB8
0168
F6E3
00CD
AB4A
0003
FCA0
0005
F6CA
01A9
03D2
0815
00BE
0115
9700
0C91
00E3
0058
FD39
2628
FFB4
FC1F
FF72
FCBD
01FB
FFCD
FF4B
09F3
0122
FE5C
0448
FFF3
FAE3
FC50
003A
0459
E6C1
016E
02FC
0A6C
0145
EF5A
03E6
FF93
F898
0419
FFB0
00EF
FBDC
0138
008F
F5CE
1904
FAF8
FF72
077D
0BD2
0562

