03B0F
00A30
3CBA3
00D5B
3F041
3FDB6
004A0
00151
3F761
00466
3EC38
01557
3F9FD
02D81
3FA5C
00F5F
3EABA
3F9C9
00228
3FED0
3E699
3F3F0
00468
3EFCB
3F808
3E260
009AD
3E2A0
3EDB0
3FDE0
00D9C
36ADD
00A7A
029FF
015B9
3FB39
01731
3F40D
00B17
3CC64
3F3E7
3A3A7
3EBAB
3FE80
0089B
3E180
01199
3FE26
3EB03
3ECDC
3F77E
3C379
3FB6C
0036B
3FCB7
3FD71
3C807
3C202
01069
00520
3F418
01036
00732
01471
3D7D6
3FBB7
01997
3DB1A
3FF0B
00E09
3EAE2
3F4AD
01B8C
006E6
3FAC9
3F5B5
01FD6
00059
0092A
0181D
027F0
0123A
3F93F
3FFFC
02D1A
02078
3FA50
3C8CB
3FD93
00954
3CFF2
01131
3FFBE
00C16
00B9D
3EFCF
0027D
3F790
00D53
0193E
3F99E
00A4F
3FAD4
3F78A
3EF1A
00641
02079
008C2
3E89C
004D7
002AD
3FEF5
3FD6D
3D2E7
3FC49
3C08F
3FCAE
3FD32
3F143
01C45
3E47B
3F736
00571
026B1
00814
3F52F
000CD
0130C
012E3
3FD49
3E4A5
3FCEC
3F28A
3F16A
3E45D
3F7F4
00EBE
00FD4
00268
324DF
005E3
004EC
3E263
3E5D0
0867D
20800
3F419
3F5C9
00D95
3F5B2
3FF56
0108D
3F14A
00941
3BC33
00BEA
0278C
01675
0040A
09589
3EDAC
009D0
3EC85
0025A
01D84
3EDFE
019D3
3FA28
00ADF
3FADD
3F872
004B3
3EC9A
3FBCB
00FF3
004EB
03A2B
3ECE3
3DE51
0013C
3ED3D
00479
3F1A5
3F978
0045F
3A471
3F13C
00421
3FC34
0072C
3F4E1
00193
3F70E
3C386
0089B
3F4CD
000C1
3F2DF
3DEB5
3FDD2
39130
0132E
3E893
3F43C
3EF9E
00D59
00737
00D42
01254
0055F
3F90B
005CD
3ECD5
26339
3F0C7
3EA14
00FC4
00C5A
00424
021B9
3F376
3FAB8
3F1DC
3DD18
3FDEA
3F4BE
3687F
3F78A
3FBE3
3FBDF
05B8B
3F2E0
00E63
3A182
01FD4
01D67
01957
3F060
00298
0039C
3EE0A
3F681
3F0D3
00338
3F15F
01C8C
000E2
01349
01030
00B3B
3D18B
3619E
3FA84
01D7D
00736
00863

